<pad>	0
<unk>	0
<s>	0
</s>	0
▁ا	-0
▁ال	-1
▁و	-2
▁م	-3
ال	-4
يه	-5
▁ف	-6
▁ب	-7
ان	-8
▁ع	-9
▁الم	-10
▁في	-11
ات	-12
▁ل	-13
▁ت	-14
▁من	-15
ام	-16
ار	-17
ين	-18
لي	-19
▁الا	-20
▁وال	-21
▁الع	-22
ها	-23
▁ك	-24
▁ي	-25
ري	-26
را	-27
ست	-28
اد	-29
▁الت	-30
▁ح	-31
ول	-32
ون	-33
ير	-34
▁ق	-35
▁س	-36
▁ان	-37
ما	-38
▁علي	-39
▁ه	-40
▁الي	-41
▁ن	-42
يا	-43
ور	-44
رب	-45
دي	-46
وا	-47
▁الح	-48
▁الس	-49
▁1	-50
لا	-51
▁الب	-52
مه	-53
ده	-54
▁ج	-55
شر	-56
اب	-57
▁لل	-58
▁د	-59
لك	-60
▁الق	-61
نا	-62
عه	-63
عد	-64
▁2	-65
يل	-66
▁(	-67
▁مع	-68
▁الج	-69
بر	-70
▁خ	-71
▁وا	-72
▁بال	-73
▁ش	-74
▁عام	-75
ره	-76
وس	-77
ائ	-78
00	-79
له	-80
▁الد	-81
▁الف	-82
قد	-83
وم	-84
اء	-85
اف	-86
▁الن	-87
اس	-88
▁وت	-89
من	-90
في	-91
هم	-92
▁عن	-93
وب	-94
▁كان	-95
مي	-96
قه	-97
▁19	-98
مان	-99
تي	-100
وي	-101
به	-102
▁التي	-103
ود	-104
▁ر	-105
اع	-106
▁الش	-107
كه	-108
▁ط	-109
▁الر	-110
بل	-111
كل	-112
▁الخ	-113
▁او	-114
بي	-115
▁هذ	-116
قي	-117
▁ذ	-118
اي	-119
حت	-120
سي	-121
كان	-122
دا	-123
كن	-124
▁العرب	-125
▁ص	-126
عت	-127
▁اس	-128
▁الام	-129
▁الذ	-130
مل	-131
وف	-132
قت	-133
▁است	-134
نه	-135
دين	-136
▁المت	-137
رت	-138
▁الك	-139
▁الص	-140
الي	-141
جه	-142
سل	-143
▁بين	-144
اني	-145
▁غ	-146
اص	-147
ني	-148
اره	-149
▁اي	-150
اض	-151
عل	-152
▁وم	-153
▁وي	-154
▁وه	-155
زي	-156
اه	-157
▁الان	-158
دم	-159
اح	-160
سه	-161
رن	-162
▁الار	-163
▁اك	-164
بن	-165
فه	-166
مو	-167
الم	-168
انيه	-169
كر	-170
اري	-171
▁بعد	-172
▁وب	-173
لال	-174
▁الو	-175
ثل	-176
يره	-177
▁اخ	-178
مال	-179
دينه	-180
رك	-181
▁20	-182
▁بن	-183
▁الث	-184
وله	-185
تم	-186
عي	-187
▁مح	-188
▁ما	-189
▁حي	-190
▁تم	-191
▁ث	-192
ليه	-193
▁الل	-194
▁بي	-195
وق	-196
▁لا	-197
ثر	-198
سم	-199
ته	-200
عض	-201
ئي	-202
▁لم	-203
حي	-204
دن	-205
▁الذي	-206
راق	-207
▁مج	-208
▁الط	-209
وج	-210
صر	-211
▁والم	-212
▁مت	-213
صل	-214
▁200	-215
▁هذه	-216
حد	-217
▁ام	-218
▁حيث	-219
سب	-220
شركه	-221
لس	-222
ديد	-223
▁كما	-224
طه	-225
▁ذلك	-226
وز	-227
در	-228
وات	-229
▁الغ	-230
اده	-231
▁هي	-232
حده	-233
▁201	-234
عر	-235
مر	-236
▁العربيه	-237
ولي	-238
▁كل	-239
يات	-240
وت	-241
هر	-242
▁المن	-243
با	-244
كي	-245
▁كانت	-246
▁الاخ	-247
افه	-248
لف	-249
▁ض	-250
▁قبل	-251
قا	-252
▁العالم	-253
▁بر	-254
▁وفي	-255
▁اف	-256
▁سي	-257
دد	-258
ويه	-259
حر	-260
▁تق	-261
▁لت	-262
▁مثل	-263
وع	-264
ند	-265
اك	-266
ظام	-267
▁وج	-268
كون	-269
▁وقد	-270
حه	-271
اج	-272
▁العراق	-273
قل	-274
▁.	-275
شكل	-276
ذلك	-277
سيه	-278
كو	-279
ستان	-280
ضا	-281
هد	-282
الب	-283
▁هذا	-284
▁خلال	-285
▁هو	-286
طقه	-287
▁بل	-288
طر	-289
طي	-290
▁مس	-291
ستخ	-292
عات	-293
▁الشر	-294
خص	-295
▁اله	-296
ذا	-297
▁البل	-298
▁اص	-299
مد	-300
قيه	-301
ادي	-302
▁يت	-303
علي	-304
راء	-305
▁المج	-306
كت	-307
يها	-308
▁عمان	-309
▁المدينه	-310
)،	-311
ارات	-312
▁ومن	-313
وري	-314
▁وكان	-315
▁والت	-316
▁اب	-317
خت	-318
▁ز	-319
▁3	-320
غه	-321
نيه	-322
▁وف	-323
▁عدد	-324
عب	-325
كم	-326
طل	-327
▁تح	-328
▁الال	-329
تها	-330
اريخ	-331
وريه	-332
▁شركه	-333
▁تت	-334
خل	-335
▁بعض	-336
قط	-337
▁كب	-338
▁الاس	-339
فا	-340
لم	-341
امه	-342
▁المتحده	-343
▁وس	-344
زه	-345
▁اج	-346
عيه	-347
▁تن	-348
▁،	-349
▁بد	-350
يم	-351
وه	-352
رياض	-353
سلام	-354
▁ايضا	-355
▁ملي	-356
▁اكثر	-357
عم	-358
▁انت	-359
▁سنه	-360
▁حتي	-361
عا	-362
امج	-363
وره	-364
▁دول	-365
ثه	-366
ظم	-367
▁الدول	-368
رج	-369
رف	-370
▁المح	-371
▁199	-372
ئه	-373
داد	-374
▁مست	-375
ناء	-376
▁السل	-377
▁الاست	-378
وروب	-379
▁وق	-380
▁المس	-381
حو	-382
رات	-383
▁القرن	-384
▁غير	-385
▁وان	-386
از	-387
ياه	-388
▁الاسلام	-389
صف	-390
قات	-391
▁اش	-392
▁ماي	-393
).	-394
▁الاردن	-395
ركز	-396
▁بت	-397
▁اد	-398
▁عند	-399
اله	-400
▁وح	-401
رض	-402
طق	-403
بيه	-404
▁اع	-405
▁يم	-406
▁للم	-407
انيا	-408
سبه	-409
يد	-410
البان	-411
نوب	-412
▁بم	-413
▁الات	-414
▁عليه	-415
اليه	-416
▁وهو	-417
▁تش	-418
▁قد	-419
▁ات	-420
ريق	-421
▁انه	-422
ريه	-423
▁والتي	-424
▁تع	-425
بد	-426
▁-	-427
ناك	-428
▁له	-429
▁وهي	-430
كس	-431
غان	-432
كيه	-433
ثير	-434
▁با	-435
▁يق	-436
دام	-437
▁ول	-438
اريه	-439
كومه	-440
▁الاف	-441
▁العديد	-442
▁اخري	-443
ئيس	-444
جم	-445
ديه	-446
▁ين	-447
▁المست	-448
صاد	-449
رح	-450
نل	-451
لكه	-452
▁لي	-453
▁مدينه	-454
وط	-455
▁طالبان	-456
ظه	-457
اصه	-458
وان	-459
▁بشكل	-460
▁ثم	-461
▁الز	-462
000	-463
▁اول	-464
▁نظام	-465
▁ابن	-466
شق	-467
▁اغ	-468
ربيه	-469
▁اح	-470
▁المنا	-471
▁دم	-472
▁سب	-473
وض	-474
▁البر	-475
▁مق	-476
تره	-477
▁وك	-478
▁منذ	-479
▁المع	-480
ارس	-481
▁ون	-482
▁التج	-483
▁الرياض	-484
ظمه	-485
▁العام	-486
اخ	-487
▁اما	-488
كروس	-489
وني	-490
عتبر	-491
وار	-492
▁السيا	-493
شار	-494
وفت	-495
▁بغ	-496
▁بان	-497
حاد	-498
لين	-499
▁عشر	-500
فر	-501
وسط	-502
ملكه	-503
كروسوفت	-504
شت	-505
▁البلاد	-506
ميع	-507
▁وع	-508
▁فان	-509
مانيه	-510
▁4	-511
▁تحت	-512
غير	-513
لات	-514
ميه	-515
لب	-516
بع	-517
شا	-518
امعه	-519
▁ولك	-520
▁نف	-521
▁البحر	-522
بنان	-523
ديده	-524
▁فيها	-525
غانستان	-526
▁5	-527
ريط	-528
▁اق	-529
▁مؤ	-530
▁الله	-531
▁دمشق	-532
▁الامري	-533
▁المانيا	-534
▁)	-535
بار	-536
▁للا	-537
▁الانت	-538
▁بح	-539
ستخدم	-540
▁والع	-541
سا	-542
▁مايكروسوفت	-543
فت	-544
ايات	-545
▁الاول	-546
▁الدوله	-547
صب	-548
▁بغداد	-549
اعده	-550
ماء	-551
وفي	-552
ماني	-553
مت	-554
▁شر	-555
▁كت	-556
▁مما	-557
برا	-558
ديم	-559
وسي	-560
والي	-561
▁البي	-562
▁6	-563
ركه	-564
ذي	-565
▁تج	-566
▁الحرب	-567
ائل	-568
ابه	-569
▁للت	-570
▁لكن	-571
عود	-572
▁باس	-573
▁هناك	-574
واق	-575
▁منها	-576
رق	-577
▁مليون	-578
نت	-579
▁الاج	-580
▁ولا	-581
ضي	-582
يش	-583
اسي	-584
▁لبنان	-585
امل	-586
▁افغانستان	-587
دان	-588
غيل	-589
حيه	-590
▁مجمو	-591
سلم	-592
▁ولكن	-593
▁العربي	-594
اضافه	-595
ئيه	-596
▁الول	-597
كات	-598
▁بير	-599
دون	-600
سين	-601
وجد	-602
راف	-603
قدم	-604
ارج	-605
فاع	-606
يله	-607
▁لان	-608
سبب	-609
وده	-610
▁النا	-611
▁7	-612
الات	-613
▁والا	-614
▁يمكن	-615
نلن	-616
▁تد	-617
▁اث	-618
بلغ	-619
▁بها	-620
▁تلك	-621
▁قطر	-622
غم	-623
يت	-624
▁حد	-625
▁يتم	-626
▁جميع	-627
▁تط	-628
▁اكبر	-629
▁الذين	-630
ونيه	-631
▁المنطقه	-632
▁8	-633
▁دولار	-634
ضع	-635
لت	-636
▁خل	-637
▁به	-638
▁حوالي	-639
وك	-640
انات	-641
جر	-642
بات	-643
▁فقد	-644
▁المؤ	-645
▁18	-646
▁استخ	-647
▁الاد	-648
▁انها	-649
▁الاتحاد	-650
▁بالاضافه	-651
قتصاد	-652
▁منطقه	-653
ليات	-654
▁الاوروب	-655
▁قام	-656
▁التش	-657
▁الوط	-658
▁سكان	-659
▁زي	-660
لاح	-661
▁را	-662
▁مد	-663
اميه	-664
▁بدا	-665
▁الدين	-666
▁الاخري	-667
▁الاولي	-668
▁دي	-669
سان	-670
▁اهم	-671
▁اللغه	-672
▁اليوم	-673
▁سن	-674
ابل	-675
الت	-676
▁ذات	-677
▁العم	-678
▁بيروت	-679
طا	-680
▁جز	-681
▁وخ	-682
ونيا	-683
▁كم	-684
▁الولايات	-685
وح	-686
ختل	-687
طان	-688
▁عمل	-689
اصمه	-690
▁اعل	-691
▁عبد	-692
▁لاد	-693
▁الحكومه	-694
بت	-695
▁تس	-696
▁المص	-697
فع	-698
صول	-699
▁سل	-700
▁اعت	-701
وائ	-702
▁اصب	-703
▁فير	-704
ضم	-705
▁عم	-706
▁الكب	-707
▁اليمن	-708
احه	-709
▁فر	-710
▁وز	-711
▁كبير	-712
▁معظم	-713
صه	-714
▁لها	-715
ذه	-716
وير	-717
▁ست	-718
▁العمل	-719
عمل	-720
وقع	-721
▁عبر	-722
▁الجز	-723
▁تاريخ	-724
▁البريط	-725
يف	-726
▁السكان	-727
فض	-728
طاع	-729
▁بالم	-730
قب	-731
▁الرا	-732
ختلفه	-733
▁اض	-734
▁198	-735
▁تص	-736
▁اكت	-737
▁دوله	-738
▁والح	-739
خر	-740
عرف	-741
▁باسم	-742
▁الرئي	-743
جي	-744
قر	-745
ائيه	-746
ثي	-747
قلي	-748
▁رئيس	-749
▁برلين	-750
▁فيروز	-751
▁ود	-752
انب	-753
▁اذ	-754
▁اخر	-755
▁الض	-756
▁واست	-757
▁الماء	-758
▁لح	-759
▁احت	-760
▁الرياضيات	-761
وص	-762
زر	-763
زل	-764
▁ضد	-765
▁الميل	-766
▁الشمال	-767
ابي	-768
▁ور	-769
ابات	-770
▁خلدون	-771
جد	-772
حدث	-773
▁مص	-774
▁اللبن	-775
▁كبيره	-776
▁التاريخ	-777
▁بسبب	-778
▁محمد	-779
رائ	-780
ربع	-781
طار	-782
▁والس	-783
▁9	-784
▁ثلا	-785
▁واس	-786
▁المد	-787
20	-788
ربي	-789
ريف	-790
▁الامريكيه	-791
لام	-792
واف	-793
▁197	-794
▁تعد	-795
▁عده	-796
▁ومع	-797
▁الاح	-798
▁والب	-799
▁والج	-800
▁الملك	-801
▁السوفي	-802
تج	-803
▁وش	-804
نلندا	-805
▁ظ	-806
▁(1	-807
▁فقط	-808
▁المسلم	-809
ظيم	-810
▁يج	-811
طين	-812
▁ار	-813
▁اسم	-814
▁التن	-815
▁اليه	-816
شرين	-817
وريا	-818
▁الاك	-819
▁وغير	-820
صور	-821
▁فت	-822
▁الشي	-823
▁استونيا	-824
▁العالميه	-825
▁فه	-826
ديمه	-827
▁الاش	-828
▁وكانت	-829
▁فنلندا	-830
الف	-831
تما	-832
دمه	-833
▁لادن	-834
اضي	-835
اسوب	-836
▁الساب	-837
▁عليها	-838
▁المناطق	-839
▁فيه	-840
راك	-841
كره	-842
,000	-843
▁قدم	-844
▁وقت	-845
▁مجلس	-846
▁الاسلاميه	-847
غات	-848
▁انش	-849
▁حين	-850
▁الجنوب	-851
حب	-852
ميز	-853
▁لن	-854
▁الوقت	-855
▁مجموعه	-856
ظر	-857
كوم	-858
يين	-859
▁اه	-860
▁196	-861
▁حكم	-862
▁الثاني	-863
▁الاص	-864
▁شمال	-865
▁الحدي	-866
سات	-867
▁لع	-868
▁والف	-869
▁والذي	-870
تر	-871
اما	-872
▁جن	-873
▁نس	-874
براط	-875
▁احد	-876
▁شخص	-877
▁العث	-878
▁الخلي	-879
زب	-880
راج	-881
كري	-882
▁بما	-883
▁التح	-884
▁المدن	-885
صي	-886
▁قي	-887
▁وذلك	-888
كا	-889
جهزه	-890
▁مركز	-891
▁عندما	-892
عرض	-893
عليم	-894
مج	-895
▁194	-896
▁الغربيه	-897
دت	-898
شي	-899
طن	-900
▁حق	-901
▁والق	-902
ثال	-903
طات	-904
▁15	-905
▁القر	-906
▁القوات	-907
▁المملكه	-908
وبر	-909
▁يد	-910
▁نها	-911
▁طريق	-912
مهوريه	-913
سمي	-914
قاف	-915
ذاعه	-916
▁الكثير	-917
▁المياه	-918
▁النظام	-919
رخ	-920
سكر	-921
▁الفتره	-922
▁التشغيل	-923
حا	-924
حف	-925
▁خط	-926
سميه	-927
راكل	-928
وروبا	-929
▁بلاد	-930
ستخدام	-931
▁الشركه	-932
سط	-933
ارت	-934
لاء	-935
▁بع	-936
▁قر	-937
▁الحد	-938
يران	-939
▁اوراكل	-940
▁الشرقيه	-941
▁الميلاد	-942
▁لين	-943
▁نحو	-944
▁البريطانيه	-945
وظ	-946
▁مي	-947
▁مصر	-948
▁والن	-949
ريد	-950
بط	-951
اليا	-952
▁سيا	-953
▁نسبه	-954
▁الجيش	-955
▁الشرق	-956
▁فاي	-957
▁الاوروبي	-958
▁تب	-959
▁بالت	-960
عيد	-961
واء	-962
▁ني	-963
عمال	-964
▁ضمن	-965
طب	-966
▁در	-967
▁لج	-968
دمات	-969
▁اخت	-970
▁الرغم	-971
راد	-972
▁تو	-973
▁دون	-974
رنامج	-975
انه	-976
▁مر	-977
▁مش	-978
واقع	-979
▁الفر	-980
▁بالن	-981
▁القديمه	-982
طلا	-983
▁تكون	-984
▁الروم	-985
▁استخدام	-986
رير	-987
ينه	-988
▁وص	-989
▁الثانيه	-990
0.	-991
اتي	-992
نديه	-993
▁قائ	-994
▁المه	-995
▁الخاصه	-996
عضاء	-997
▁عمر	-998
▁للع	-999
▁المغ	-1000
▁جنوب	-1001
▁وبعد	-1002
▁11	-1003
▁حول	-1004
▁العل	-1005
مع	-1006
ارك	-1007
لاف	-1008
نكي	-1009
▁نظ	-1010
عداد	-1011
▁لاح	-1012
▁وين	-1013
▁الحر	-1014
▁وجود	-1015
▁يكون	-1016
▁بينما	-1017
▁فايزر	-1018
فس	-1019
▁شبه	-1020
▁مره	-1021
▁الفن	-1022
▁مليار	-1023
براطوريه	-1024
جل	-1025
راسه	-1026
▁ارت	-1027
▁بلغ	-1028
▁للح	-1029
▁الارض	-1030
▁التلف	-1031
▁الشام	-1032
▁اوروبا	-1033
بال	-1034
يني	-1035
▁از	-1036
▁العب	-1037
▁والد	-1038
طبي	-1039
▁يح	-1040
▁يوم	-1041
لسطين	-1042
▁الطبي	-1043
▁الفار	-1044
▁مستوي	-1045
6،	-1046
اته	-1047
▁الثال	-1048
▁القاعده	-1049
طف	-1050
رنت	-1051
ليل	-1052
ورا	-1053
انون	-1054
ناعه	-1055
ومات	-1056
▁هلس	-1057
لاقات	-1058
▁العامه	-1059
▁المتوسط	-1060
ضر	-1061
ضل	-1062
وعه	-1063
▁12	-1064
▁ري	-1065
▁195	-1066
▁الاذاعه	-1067
ارب	-1068
اسيه	-1069
▁بدات	-1070
الح	-1071
ياء	-1072
▁عل	-1073
▁فتره	-1074
سن	-1075
غي	-1076
طيه	-1077
▁17	-1078
اديه	-1079
▁الحكم	-1080
▁المعر	-1081
زال	-1082
ورو	-1083
▁لف	-1084
▁يش	-1085
▁يع	-1086
▁منت	-1087
▁يست	-1088
▁الاغ	-1089
▁امري	-1090
▁الاعل	-1091
▁جامعه	-1092
وال	-1093
وفر	-1094
▁10	-1095
▁13	-1096
▁لب	-1097
راقي	-1098
شروع	-1099
▁بقي	-1100
▁المخ	-1101
▁بناء	-1102
▁وكذلك	-1103
ختلف	-1104
▁شاه	-1105
▁السي	-1106
▁اصبحت	-1107
▁الجزيره	-1108
▁الاقتصاد	-1109
تين	-1110
واه	-1111
▁قب	-1112
▁منا	-1113
▁السن	-1114
▁المسي	-1115
▁يعتبر	-1116
ربه	-1117
طلق	-1118
قاط	-1119
▁مه	-1120
ولوج	-1121
▁ابر	-1122
▁وما	-1123
▁خاصه	-1124
▁والخ	-1125
▁المسلمين	-1126
دار	-1127
فيه	-1128
ناه	-1129
▁نفس	-1130
سكريه	-1131
▁العصر	-1132
▁هلسنكي	-1133
سر	-1134
تمع	-1135
▁14	-1136
▁دا	-1137
ينيه	-1138
عوديه	-1139
▁عالم	-1140
حل	-1141
عار	-1142
▁لد	-1143
تمبر	-1144
مالي	-1145
يرات	-1146
▁تقع	-1147
ساب	-1148
وما	-1149
وين	-1150
افظه	-1151
▁ترك	-1152
▁المش	-1153
▁عمليه	-1154
▁واحده	-1155
▁الدولي	-1156
تد	-1157
صبح	-1158
▁قت	-1159
▁والش	-1160
▁اكتوبر	-1161
بكه	-1162
▁بش	-1163
▁بط	-1164
▁باك	-1165
▁كيل	-1166
▁نهر	-1167
▁سبتمبر	-1168
▁السلطان	-1169
▁16	-1170
▁جزء	-1171
▁شكل	-1172
جا	-1173
انت	-1174
▁الاي	-1175
▁المركز	-1176
▁وغيرها	-1177
9،	-1178
زو	-1179
طنه	-1180
▁موس	-1181
▁والص	-1182
▁الالمانيه	-1183
مس	-1184
▁تر	-1185
▁تف	-1186
▁مب	-1187
تيجه	-1188
▁لكل	-1189
▁واحد	-1190
▁المرت	-1191
▁الجامعه	-1192
▁الرئيسيه	-1193
وش	-1194
قله	-1195
كمه	-1196
▁تل	-1197
▁مل	-1198
وسيقي	-1199
▁الكت	-1200
▁نسمه	-1201
▁لينكس	-1202
▁الدوليه	-1203
▁الاسلامي	-1204
▁التجاريه	-1205
0،	-1206
قال	-1207
كتب	-1208
▁تخ	-1209
المي	-1210
درسه	-1211
▁للد	-1212
▁وضع	-1213
▁زيدان	-1214
▁الخارج	-1215
▁العراقيه	-1216
ريب	-1217
مار	-1218
مكن	-1219
▁شي	-1220
▁ظه	-1221
▁التق	-1222
▁مختلفه	-1223
ذكر	-1224
لاه	-1225
واد	-1226
قلال	-1227
▁الوز	-1228
▁يوجد	-1229
▁العاصمه	-1230
▁الانترنت	-1231
فن	-1232
دوز	-1233
شره	-1234
ليم	-1235
▁تا	-1236
▁ها	-1237
▁مؤس	-1238
▁القي	-1239
▁الوس	-1240
▁فيما	-1241
▁وعلي	-1242
▁الحاسوب	-1243
وث	-1244
راض	-1245
صار	-1246
ليا	-1247
قافه	-1248
▁الصح	-1249
▁حركه	-1250
▁مجال	-1251
▁وفقا	-1252
▁الافغ	-1253
▁مناطق	-1254
▁البرامج	-1255
▁العراقي	-1256
غل	-1257
جهه	-1258
ينات	-1259
▁درجه	-1260
▁ثلاثه	-1261
▁الانسان	-1262
1،	-1263
ديو	-1264
راه	-1265
طره	-1266
▁سا	-1267
ابعه	-1268
ريقه	-1269
سمبر	-1270
▁انح	-1271
▁المق	-1272
▁جديده	-1273
▁المجمو	-1274
▁السعوديه	-1275
8،	-1276
ظهر	-1277
▁نق	-1278
عاون	-1279
▁عرف	-1280
▁البح	-1281
▁الشخص	-1282
▁الوطني	-1283
زم	-1284
▁حر	-1285
اهره	-1286
عتقد	-1287
▁نوع	-1288
مجيات	-1289
▁النف	-1290
▁اعمال	-1291
▁برامج	-1292
50	-1293
طور	-1294
▁193	-1295
▁دور	-1296
▁نوف	-1297
انيين	-1298
▁الشع	-1299
▁الاحت	-1300
▁الداخ	-1301
▁الفرن	-1302
▁المعل	-1303
▁الناس	-1304
▁ديسمبر	-1305
نع	-1306
ايد	-1307
اير	-1308
▁باع	-1309
▁تست	-1310
▁شهد	-1311
▁القب	-1312
▁موقع	-1313
▁هيئه	-1314
▁الساح	-1315
▁الحكوم	-1316
عدد	-1317
ومه	-1318
▁)،	-1319
▁رس	-1320
▁يؤ	-1321
غيره	-1322
▁ولم	-1323
▁الحض	-1324
▁بدايه	-1325
▁كيلوم	-1326
▁الحدود	-1327
▁الكبري	-1328
▁العشرين	-1329
5،	-1330
ضه	-1331
نف	-1332
سطس	-1333
وحه	-1334
حتوي	-1335
رنسا	-1336
▁ارب	-1337
▁قال	-1338
حباني	-1339
▁التص	-1340
▁الحي	-1341
▁خارج	-1342
▁الامم	-1343
▁سنوات	-1344
▁اللغات	-1345
▁التعليم	-1346
▁الامريكي	-1347
جره	-1348
زيه	-1349
مبر	-1350
ورك	-1351
▁عض	-1352
▁وض	-1353
▁علم	-1354
▁عهد	-1355
▁ويت	-1356
▁اشهر	-1357
▁جانب	-1358
▁كذلك	-1359
▁منهم	-1360
▁يناير	-1361
▁الرئيس	-1362
19	-1363
اق	-1364
جب	-1365
صوص	-1366
وفه	-1367
ويت	-1368
▁قامت	-1369
▁مارس	-1370
▁الزرا	-1371
▁سوريا	-1372
7.	-1373
خذ	-1374
ثلا	-1375
فيذ	-1376
▁بني	-1377
▁المر	-1378
▁الوا	-1379
▁اغسطس	-1380
▁انحاء	-1381
نات	-1382
▁ابو	-1383
▁اجل	-1384
▁ساب	-1385
▁للق	-1386
▁المب	-1387
▁بالع	-1388
▁واله	-1389
▁الهند	-1390
▁الخليج	-1391
▁السياسيه	-1392
4،	-1393
ئات	-1394
عيش	-1395
لاب	-1396
▁عب	-1397
▁للج	-1398
ينيات	-1399
▁عاما	-1400
▁الجبر	-1401
▁مملكه	-1402
▁نهايه	-1403
▁السلطه	-1404
▁نوفمبر	-1405
لول	-1406
هدف	-1407
اتها	-1408
وائل	-1409
▁حسب	-1410
▁منه	-1411
▁موا	-1412
▁الاق	-1413
▁الامر	-1414
▁تعتبر	-1415
▁تنظيم	-1416
▁حاليا	-1417
▁عاصمه	-1418
▁الاجتما	-1419
▁اللبنانيه	-1420
▁٪	-1421
امي	-1422
انا	-1423
ميم	-1424
ولا	-1425
▁لق	-1426
▁لدي	-1427
▁يعد	-1428
▁داخل	-1429
▁سبيل	-1430
▁مايو	-1431
▁الجام	-1432
▁ويندوز	-1433
8.	-1434
اط	-1435
جز	-1436
فل	-1437
قع	-1438
ائر	-1439
واع	-1440
ريبا	-1441
▁اذا	-1442
▁والي	-1443
▁اضافه	-1444
▁السابق	-1445
▁بالنسبه	-1446
9.	-1447
ائق	-1448
شفي	-1449
قتص	-1450
مله	-1451
▁حرب	-1452
▁عرض	-1453
▁ميل	-1454
▁نشر	-1455
▁احدي	-1456
▁اداره	-1457
زن	-1458
تهم	-1459
جان	-1460
فاق	-1461
▁فا	-1462
▁ابي	-1463
▁اوا	-1464
▁مرت	-1465
▁ملك	-1466
▁وتم	-1467
▁والغ	-1468
▁يولي	-1469
▁برنامج	-1470
▁المختلفه	-1471
2،	-1472
يص	-1473
افظ	-1474
دني	-1475
▁بج	-1476
▁بص	-1477
راكز	-1478
وسيا	-1479
▁واب	-1480
▁اصبح	-1481
▁الجن	-1482
نلنديه	-1483
▁الوطنيه	-1484
▁الامبراطوريه	-1485
1.	-1486
اتج	-1487
زيد	-1488
قيق	-1489
ونه	-1490
▁عد	-1491
صريه	-1492
▁ادي	-1493
▁ابرز	-1494
▁اساس	-1495
▁التع	-1496
▁يوني	-1497
▁اليهود	-1498
▁عمليات	-1499
▁العالمي	-1500
7،	-1501
دات	-1502
▁رب	-1503
صادر	-1504
▁تمت	-1505
▁دخل	-1506
رائيل	-1507
▁بالق	-1508
▁الصنا	-1509
▁والام	-1510
▁يوليو	-1511
▁محافظه	-1512
قدر	-1513
عبيه	-1514
▁معد	-1515
▁الحق	-1516
▁الكل	-1517
▁نفسه	-1518
▁السنه	-1519
▁وزاره	-1520
▁يونيو	-1521
3،	-1522
صد	-1523
اكم	-1524
جله	-1525
ضمن	-1526
▁جي	-1527
طفال	-1528
طوير	-1529
واسي	-1530
▁مكان	-1531
▁حكومه	-1532
▁الفارابي	-1533
ظي	-1534
ثله	-1535
▁وط	-1536
▁100	-1537
▁لهم	-1538
▁الموا	-1539
رد	-1540
حات	-1541
لاج	-1542
وام	-1543
▁شرق	-1544
▁مدن	-1545
▁التس	-1546
▁قوات	-1547
▁بنسبه	-1548
▁كانوا	-1549
▁المحلي	-1550
▁العثماني	-1551
راع	-1552
طلب	-1553
هاز	-1554
▁جه	-1555
اسيس	-1556
وجود	-1557
ينما	-1558
▁واي	-1559
▁احمد	-1560
▁الاه	-1561
▁كتاب	-1562
▁والر	-1563
▁يعرف	-1564
▁الانج	-1565
▁القديم	-1566
▁الوسطي	-1567
▁الحديثه	-1568
.5	-1569
قام	-1570
هاد	-1571
بليه	-1572
زيون	-1573
▁بحر	-1574
▁حدي	-1575
▁وصل	-1576
▁الرق	-1577
▁السب	-1578
▁الصف	-1579
▁اعلنت	-1580
▁اواخر	-1581
▁المثال	-1582
▁الاراضي	-1583
مز	-1584
جار	-1585
قرا	-1586
وبه	-1587
وزي	-1588
▁اقل	-1589
▁اهل	-1590
▁حصل	-1591
▁ذكر	-1592
▁وسط	-1593
كستان	-1594
▁المل	-1595
قتصادي	-1596
▁اعاده	-1597
▁الباك	-1598
▁الخاص	-1599
▁تشغيل	-1600
▁عربيه	-1601
▁مشروع	-1602
▁مقابل	-1603
▁الامير	-1604
▁الاخيره	-1605
▁الرئيسي	-1606
▁الاردنيه	-1607
فق	-1608
ادت	-1609
باب	-1610
كال	-1611
▁30	-1612
▁شه	-1613
ائره	-1614
ادره	-1615
طلاق	-1616
وسيه	-1617
▁لاع	-1618
▁والث	-1619
▁الاعمال	-1620
▁المحليه	-1621
▁الاوروبيه	-1622
6.	-1623
دل	-1624
ابع	-1625
اقه	-1626
حاب	-1627
داث	-1628
كار	-1629
كام	-1630
ويا	-1631
▁وام	-1632
▁ولي	-1633
▁وادي	-1634
▁الاسم	-1635
▁القدم	-1636
▁المؤس	-1637
▁انشاء	-1638
▁تطوير	-1639
▁الثقاف	-1640
▁الدفاع	-1641
▁الباكست	-1642
▁السوفيتي	-1643
▁الافغانيه	-1644
وذ	-1645
ساء	-1646
سيا	-1647
مات	-1648
سلحه	-1649
▁قسم	-1650
▁محد	-1651
▁اعلي	-1652
▁الاث	-1653
▁الاكثر	-1654
▁الاردني	-1655
▁باكستان	-1656
حيد	-1657
▁فن	-1658
▁مخ	-1659
رحله	-1660
▁جدا	-1661
▁سوق	-1662
▁لغه	-1663
▁الحج	-1664
▁ايام	-1665
▁ثلاث	-1666
▁الحياه	-1667
▁التجاره	-1668
▁الجديده	-1669
اند	-1670
بيض	-1671
مثل	-1672
مين	-1673
▁بق	-1674
اعات	-1675
▁وتح	-1676
براير	-1677
واسيب	-1678
▁اسيا	-1679
▁بالل	-1680
▁توجد	-1681
▁العماني	-1682
▁الاقتصاديه	-1683
ؤول	-1684
الج	-1685
زاء	-1686
يتس	-1687
ستور	-1688
▁افضل	-1689
▁الخط	-1690
▁نتيجه	-1691
▁السلام	-1692
▁تقريبا	-1693
▁المجتمع	-1694
▁باستخدام	-1695
امن	-1696
باط	-1697
سمح	-1698
وجه	-1699
▁حل	-1700
ريعه	-1701
عدده	-1702
مايه	-1703
▁مبا	-1704
▁معه	-1705
▁واش	-1706
▁شبكه	-1707
▁قطاع	-1708
▁اثناء	-1709
▁اسامه	-1710
▁اعضاء	-1711
▁منظمه	-1712
▁والار	-1713
▁وهناك	-1714
▁الثالث	-1715
▁الشماليه	-1716
تح	-1717
فظ	-1718
يز	-1719
جمع	-1720
طاق	-1721
وسع	-1722
▁بب	-1723
▁لص	-1724
▁يه	-1725
بلاد	-1726
دهار	-1727
ريين	-1728
▁بيل	-1729
▁تاس	-1730
▁اعلن	-1731
كنولوج	-1732
▁الاخر	-1733
▁الترك	-1734
▁اليها	-1735
▁قائمه	-1736
▁موسكو	-1737
▁الرياضيه	-1738
اش	-1739
راث	-1740
زمه	-1741
وقف	-1742
▁تي	-1743
▁وث	-1744
▁192	-1745
▁ملا	-1746
▁النق	-1747
▁تقدم	-1748
ديمقرا	-1749
▁انتاج	-1750
▁ولايه	-1751
▁الابيض	-1752
▁الشركات	-1753
▁الوزراء	-1754
▁الخارجيه	-1755
▁الداخليه	-1756
▁الموسيقي	-1757
▁الفنلنديه	-1758
غر	-1759
هي	-1760
اول	-1761
خفض	-1762
ضاء	-1763
نائ	-1764
ودي	-1765
▁رق	-1766
▁عي	-1767
▁مك	-1768
▁نش	-1769
عتمد	-1770
▁جبل	-1771
▁شار	-1772
▁كتب	-1773
▁واد	-1774
▁وتن	-1775
▁اربع	-1776
▁العق	-1777
▁وبالت	-1778
▁التقلي	-1779
▁الجنوبيه	-1780
5.	-1781
▁بك	-1782
▁تغ	-1783
▁صف	-1784
بيرا	-1785
قيقه	-1786
▁191	-1787
▁202	-1788
▁للن	-1789
▁لمن	-1790
▁يجب	-1791
ريقيا	-1792
نائيه	-1793
▁لذلك	-1794
▁مياه	-1795
▁اجهزه	-1796
▁العلم	-1797
▁انظمه	-1798
▁فبراير	-1799
▁المعلومات	-1800
اسه	-1801
بعه	-1802
شاء	-1803
▁(2	-1804
▁دع	-1805
ائله	-1806
وارد	-1807
يريه	-1808
▁رئي	-1809
▁غرب	-1810
▁متر	-1811
▁نقل	-1812
▁ومت	-1813
وجوده	-1814
▁الرس	-1815
▁المو	-1816
▁تشكل	-1817
▁بانها	-1818
▁مساحه	-1819
▁القطاع	-1820
▁امريكي	-1821
▁اسرائيل	-1822
3.	-1823
خه	-1824
ايه	-1825
ديل	-1826
ويل	-1827
▁نج	-1828
▁وغ	-1829
عايه	-1830
لاقه	-1831
وفير	-1832
▁خاص	-1833
▁وتت	-1834
▁باست	-1835
▁فيلم	-1836
▁لعام	-1837
▁مربع	-1838
▁وبعض	-1839
▁يبلغ	-1840
▁القائ	-1841
▁فرنسا	-1842
▁الاقلي	-1843
▁الشرقي	-1844
▁القران	-1845
▁يستخدم	-1846
▁الاساسيه	-1847
▁الالماني	-1848
▁العسكريه	-1849
ريل	-1850
فور	-1851
كيل	-1852
ماع	-1853
▁1.	-1854
▁بو	-1855
▁تضم	-1856
▁قتل	-1857
فاقيه	-1858
▁الاب	-1859
▁تقوم	-1860
▁يعود	-1861
▁منتصف	-1862
▁اقتصاد	-1863
▁الحديث	-1864
▁تستخدم	-1865
ادل	-1866
تيه	-1867
هاب	-1868
ونس	-1869
▁25	-1870
▁يس	-1871
امات	-1872
▁امت	-1873
▁بار	-1874
▁لما	-1875
▁وبر	-1876
▁يكن	-1877
شاركه	-1878
▁2020	-1879
▁بذلك	-1880
▁عاده	-1881
▁وانت	-1882
▁المحي	-1883
▁لشركه	-1884
▁المسرح	-1885
▁بقياده	-1886
▁الاقتصادي	-1887
خب	-1888
ادر	-1889
عاب	-1890
فار	-1891
قسم	-1892
▁لس	-1893
ادات	-1894
ثريه	-1895
لمان	-1896
▁خلي	-1897
▁كاس	-1898
▁واف	-1899
خابات	-1900
▁تعرض	-1901
▁حدود	-1902
▁ظهرت	-1903
▁التاس	-1904
▁تاسيس	-1905
▁تقديم	-1906
▁عديده	-1907
▁استخدم	-1908
▁الساميه	-1909
▁القبائل	-1910
▁المرتبه	-1911
حن	-1912
لن	-1913
شاف	-1914
صال	-1915
طول	-1916
▁كر	-1917
امله	-1918
سكري	-1919
▁ارض	-1920
▁يقع	-1921
▁اقدم	-1922
▁امام	-1923
▁اوزب	-1924
▁كلمه	-1925
▁لمده	-1926
▁يقوم	-1927
▁المنت	-1928
▁اوائل	-1929
▁مختلف	-1930
▁السياسي	-1931
▁المركزيه	-1932
▁التاريخيه	-1933
..	-1934
ذب	-1935
شه	-1936
جال	-1937
ذهب	-1938
▁).	-1939
▁طب	-1940
▁كث	-1941
البا	-1942
غراف	-1943
▁افت	-1944
▁سمي	-1945
▁صحي	-1946
▁وتش	-1947
▁ومح	-1948
▁تطبي	-1949
▁جديد	-1950
▁اربعه	-1951
▁الامن	-1952
▁العمر	-1953
▁العهد	-1954
▁الغربي	-1955
▁المجلس	-1956
4.	-1957
شف	-1958
طاء	-1959
موز	-1960
▁بخ	-1961
▁هم	-1962
▁(19	-1963
▁الظ	-1964
▁بوا	-1965
▁جعل	-1966
▁وات	-1967
▁واك	-1968
نلندي	-1969
ويورك	-1970
▁ثاني	-1971
▁والك	-1972
▁الملا	-1973
▁النهر	-1974
▁السوريه	-1975
▁المدارس	-1976
▁جمهوريه	-1977
▁البيانات	-1978
▁العمليات	-1979
جوم	-1980
ذاك	-1981
فاظ	-1982
قتل	-1983
مرت	-1984
▁كي	-1985
افيه	-1986
جمات	-1987
▁اصل	-1988
▁عقد	-1989
▁للس	-1990
▁وصف	-1991
▁اغلب	-1992
▁تطور	-1993
▁تمكن	-1994
▁كثير	-1995
▁الثلا	-1996
▁الخام	-1997
▁السوي	-1998
▁الطرق	-1999
▁النفط	-2000
▁صناعه	-2001
▁الاوسط	-2002
▁البلدان	-2003
▁الحكوميه	-2004
▁وبالتالي	-2005
▁الجمهوريه	-2006
▁العثمانيه	-2007
اث	-2008
زا	-2009
ريم	-2010
قاء	-2011
▁خم	-2012
▁فض	-2013
▁قص	-2014
شريه	-2015
يليه	-2016
▁تتم	-2017
▁جاء	-2018
▁راس	-2019
▁فهي	-2020
▁قوه	-2021
▁ليس	-2022
▁الفي	-2023
▁تعرف	-2024
▁الغرب	-2025
▁روسيا	-2026
▁كبيرا	-2027
▁الصلاه	-2028
▁الناتج	-2029
▁رحباني	-2030
▁الخدمات	-2031
▁الدينيه	-2032
▁الفرنسي	-2033
▁الامارات	-2034
▁اللبناني	-2035
وء	-2036
اسم	-2037
جنه	-2038
دهم	-2039
ريت	-2040
قبل	-2041
كتر	-2042
وسف	-2043
▁حض	-2044
▁لش	-2045
ائزه	-2046
امين	-2047
اوره	-2048
ويله	-2049
▁اسس	-2050
▁اشت	-2051
▁باب	-2052
▁تيم	-2053
▁رسم	-2054
▁عاص	-2055
▁عدم	-2056
▁محف	-2057
▁يصل	-2058
▁جزءا	-2059
▁يشكل	-2060
▁المشت	-2061
▁المقد	-2062
▁والان	-2063
▁التاسع	-2064
▁العصور	-2065
▁المصريه	-2066
▁البرمجيات	-2067
▁اوزبكستان	-2068
ذت	-2069
ائي	-2070
درت	-2071
▁قن	-2072
▁وو	-2073
ابله	-2074
قرار	-2075
مالك	-2076
وميه	-2077
▁معر	-2078
▁نسب	-2079
▁واض	-2080
▁الجم	-2081
▁غيتس	-2082
▁الجما	-2083
▁الشيخ	-2084
▁كتابه	-2085
▁مواقع	-2086
▁الاحمر	-2087
▁الاكبر	-2088
▁التالي	-2089
▁التطبي	-2090
▁اليورو	-2091
▁نيويورك	-2092
▁الاستونيه	-2093
ارض	-2094
وطن	-2095
خصصه	-2096
نبيه	-2097
▁كون	-2098
▁مار	-2099
▁مشت	-2100
▁معل	-2101
صالات	-2102
▁2008	-2103
▁البث	-2104
▁التخ	-2105
▁الهي	-2106
▁حاله	-2107
▁خدمه	-2108
▁سنويا	-2109
▁لاحقا	-2110
▁والمن	-2111
▁الجديد	-2112
▁الفرات	-2113
كنولوجيا	-2114
▁الاعضاء	-2115
▁التعاون	-2116
▁العمليه	-2117
▁المستخدم	-2118
تع	-2119
جن	-2120
ادس	-2121
اهد	-2122
جيل	-2123
شيد	-2124
▁22	-2125
▁جم	-2126
▁سم	-2127
▁عر	-2128
▁ارا	-2129
▁واح	-2130
▁انهم	-2131
▁بانه	-2132
▁بدلا	-2133
▁تمثل	-2134
▁شهدت	-2135
▁قناه	-2136
▁وهذا	-2137
▁اهميه	-2138
▁بحلول	-2139
▁فلسطين	-2140
▁افريقيا	-2141
▁العباسي	-2142
▁كيلومتر	-2143
▁الفنلندي	-2144
▁الباكستانيه	-2145
رع	-2146
طح	-2147
طع	-2148
ؤون	-2149
اعد	-2150
طيط	-2151
علق	-2152
كرت	-2153
واب	-2154
▁بث	-2155
▁صح	-2156
▁تلف	-2157
▁دعم	-2158
▁سبا	-2159
▁طول	-2160
جمالي	-2161
▁العر	-2162
▁حقوق	-2163
▁رياض	-2164
▁عيسي	-2165
▁يعمل	-2166
▁الحره	-2167
▁معركه	-2168
▁الرسميه	-2169
▁السينما	-2170
▁القانون	-2171
▁العلاقات	-2172
اجد	-2173
زيز	-2174
عاد	-2175
ليد	-2176
▁بف	-2177
▁تز	-2178
▁لغ	-2179
اريع	-2180
رخيص	-2181
شارك	-2182
مهور	-2183
▁امر	-2184
▁جنو	-2185
▁طبي	-2186
▁كال	-2187
▁للش	-2188
وانات	-2189
▁2010	-2190
▁المي	-2191
▁تبلغ	-2192
▁تعمل	-2193
▁عنها	-2194
▁المها	-2195
▁يعتقد	-2196
▁الموقع	-2197
▁التجاري	-2198
▁الاجمالي	-2199
▁المسيحيه	-2200
اذ	-2201
ائع	-2202
ثات	-2203
راب	-2204
علم	-2205
▁سه	-2206
ارنه	-2207
تجات	-2208
تيار	-2209
راتي	-2210
ريات	-2211
عاده	-2212
لسله	-2213
لفات	-2214
نوعه	-2215
يروز	-2216
▁بمو	-2217
▁تنت	-2218
▁حدث	-2219
▁روا	-2220
▁عرب	-2221
▁وسي	-2222
اهدين	-2223
▁القد	-2224
▁دجله	-2225
▁قدمت	-2226
▁وحده	-2227
▁استمر	-2228
▁تاسست	-2229
▁مؤسسه	-2230
▁الحالي	-2231
▁الطاقه	-2232
▁العلوم	-2233
▁ملايين	-2234
▁الديمقرا	-2235
تهر	-2236
جيه	-2237
خول	-2238
سام	-2239
طال	-2240
عها	-2241
نيف	-2242
▁23	-2243
▁تك	-2244
▁عق	-2245
▁قل	-2246
الين	-2247
اهده	-2248
واعد	-2249
▁تصل	-2250
▁رفض	-2251
▁لقد	-2252
▁مقر	-2253
▁اثار	-2254
▁الدر	-2255
▁الرح	-2256
▁المز	-2257
▁مسرح	-2258
▁وحتي	-2259
▁ابريل	-2260
▁انواع	-2261
▁دراسه	-2262
▁سلسله	-2263
▁معينه	-2264
▁الكبير	-2265
▁الثالثه	-2266
▁الحراره	-2267
▁الكبيره	-2268
▁الحواسيب	-2269
▁الاستقلال	-2270
اجه	-2271
اعه	-2272
خصص	-2273
صله	-2274
فاض	-2275
▁40	-2276
وارز	-2277
▁اثر	-2278
▁شهر	-2279
▁كره	-2280
▁وجه	-2281
ليزيه	-2282
▁الدي	-2283
▁الست	-2284
▁باعت	-2285
▁تسمي	-2286
▁توفر	-2287
▁فضلا	-2288
▁فكان	-2289
▁لاست	-2290
▁لاول	-2291
▁الاعت	-2292
▁القان	-2293
▁المعم	-2294
▁المكت	-2295
▁ومنها	-2296
▁ارتفاع	-2297
▁اعتبار	-2298
▁المؤرخ	-2299
▁علاقات	-2300
▁متعدده	-2301
▁المسلحه	-2302
▁البرنامج	-2303
▁المجموعات	-2304
-1	-2305
اكن	-2306
الد	-2307
شاط	-2308
شرق	-2309
عبد	-2310
عهد	-2311
لافه	-2312
لفاء	-2313
هداف	-2314
وافق	-2315
ورات	-2316
وعات	-2317
▁مهر	-2318
▁وهم	-2319
▁الاع	-2320
▁التد	-2321
▁اهتم	-2322
▁بالا	-2323
▁بالس	-2324
▁تشمل	-2325
▁زايد	-2326
▁متحف	-2327
▁نقطه	-2328
▁النبي	-2329
▁اليون	-2330
▁ايران	-2331
▁عاليه	-2332
▁الامام	-2333
▁الالكتر	-2334
▁البحريه	-2335
▁الخليفه	-2336
▁المائيه	-2337
▁البريطاني	-2338
كب	-2339
وغ	-2340
جات	-2341
سون	-2342
وتر	-2343
▁ير	-2344
رافي	-2345
ناصر	-2346
▁اقت	-2347
▁تنا	-2348
▁قاد	-2349
▁نصف	-2350
▁وار	-2351
▁وتع	-2352
▁وحد	-2353
حوالي	-2354
▁2012	-2355
▁الشه	-2356
▁الكن	-2357
▁اللا	-2358
▁تشير	-2359
▁سعيد	-2360
▁نطاق	-2361
▁وبين	-2362
▁اجزاء	-2363
▁اعداد	-2364
▁البعض	-2365
▁الشعر	-2366
▁المال	-2367
▁علماء	-2368
▁الساحل	-2369
▁مباشره	-2370
يب	-2371
امع	-2372
جمو	-2373
حسب	-2374
رجع	-2375
سيم	-2376
صره	-2377
طرت	-2378
قول	-2379
ينا	-2380
▁غر	-2381
▁فع	-2382
▁كن	-2383
▁مز	-2384
ئاسه	-2385
ظمات	-2386
غيير	-2387
▁ادت	-2388
▁لاس	-2389
▁الاز	-2390
▁الخم	-2391
▁للان	-2392
▁ليست	-2393
▁والل	-2394
▁يزال	-2395
▁يسمي	-2396
▁الزمن	-2397
▁اللات	-2398
▁المعد	-2399
▁انذاك	-2400
▁جزيره	-2401
▁محفوظ	-2402
▁نظريه	-2403
▁واسعه	-2404
▁والاخ	-2405
▁والاد	-2406
▁وخاصه	-2407
▁التلفاز	-2408
▁المدرسه	-2409
▁المستوي	-2410
▁الثقافيه	-2411
شل	-2412
كك	-2413
تاء	-2414
جيب	-2415
عبه	-2416
فسه	-2417
ملت	-2418
▁تؤ	-2419
▁يب	-2420
▁يف	-2421
ؤلاء	-2422
الجه	-2423
حيان	-2424
ريبه	-2425
كامل	-2426
ليين	-2427
▁خلف	-2428
▁فار	-2429
اتحاد	-2430
▁لانه	-2431
▁واسع	-2432
▁يوسف	-2433
ستخدمه	-2434
▁السود	-2435
▁تحتوي	-2436
▁رسميا	-2437
▁زياده	-2438
▁والتن	-2439
▁ويمكن	-2440
▁الحركه	-2441
▁الكتاب	-2442
▁الماضي	-2443
▁باللغه	-2444
▁السنوات	-2445
▁الطبيعيه	-2446
▁المجاوره	-2447
قته	-2448
وضع	-2449
ثيرا	-2450
ظريه	-2451
▁اسل	-2452
▁بول	-2453
▁توا	-2454
▁قدر	-2455
ائنات	-2456
▁2011	-2457
▁2014	-2458
▁2015	-2459
▁الري	-2460
▁المف	-2461
▁تزال	-2462
▁يقرب	-2463
▁يمثل	-2464
▁البار	-2465
▁بعدها	-2466
▁تركيا	-2467
▁الحديد	-2468
▁الحسين	-2469
▁الشعوب	-2470
▁الفنيه	-2471
▁اللجنه	-2472
▁المدني	-2473
▁انتشار	-2474
▁مستقله	-2475
▁والهند	-2476
▁الروسيه	-2477
▁السياحه	-2478
▁الشخصيه	-2479
▁المسيحي	-2480
▁المسلمون	-2481
بك	-2482
تا	-2483
ائه	-2484
بره	-2485
جاج	-2486
ندي	-2487
وبي	-2488
ورد	-2489
ولت	-2490
ومي	-2491
راءه	-2492
كندر	-2493
مويل	-2494
وديه	-2495
▁اند	-2496
▁بمع	-2497
▁دار	-2498
▁ساح	-2499
وافقه	-2500
▁الاذ	-2501
▁التر	-2502
▁الطب	-2503
▁بالح	-2504
▁جهاز	-2505
▁حسين	-2506
▁لجنه	-2507
▁مطار	-2508
▁معدل	-2509
وارزمي	-2510
▁البلد	-2511
▁الصيف	-2512
▁العدد	-2513
▁الغزو	-2514
▁المحت	-2515
▁النقل	-2516
▁تنفيذ	-2517
▁شركات	-2518
▁قاعده	-2519
▁قانون	-2520
▁الرابع	-2521
▁المصدر	-2522
▁المغرب	-2523
▁الاطفال	-2524
▁الاعلام	-2525
▁الافلام	-2526
▁السيطره	-2527
حاس	-2528
درس	-2529
ربط	-2530
سته	-2531
سطه	-2532
شري	-2533
طيع	-2534
فاء	-2535
فاف	-2536
فين	-2537
▁ته	-2538
▁لك	-2539
▁يخ	-2540
ئويه	-2541
اعيه	-2542
رجات	-2543
وليه	-2544
▁انس	-2545
▁دفع	-2546
▁للب	-2547
ضائيه	-2548
▁اطلق	-2549
▁البد	-2550
▁الزي	-2551
▁المط	-2552
▁بالف	-2553
▁دورا	-2554
▁اغنيه	-2555
▁القوي	-2556
▁سلطان	-2557
▁سلطنه	-2558
▁صغيره	-2559
▁غالبا	-2560
▁والاع	-2561
▁الثامن	-2562
▁الصحيه	-2563
▁العليا	-2564
▁بيانات	-2565
▁الاثريه	-2566
▁الزراعه	-2567
▁المصادر	-2568
▁الجامعات	-2569
▁الاجتماعيه	-2570
شد	-2571
صائ	-2572
عيم	-2573
▁50	-2574
▁80	-2575
▁حم	-2576
▁رؤ	-2577
▁نز	-2578
ائده	-2579
دايه	-2580
راجع	-2581
طنين	-2582
عيين	-2583
ليله	-2584
▁دائ	-2585
▁سطح	-2586
▁لاي	-2587
▁للغ	-2588
▁مكت	-2589
▁واخ	-2590
ابرات	-2591
▁الحم	-2592
▁القت	-2593
▁لكنه	-2594
▁وعند	-2595
▁يجعل	-2596
▁الاسب	-2597
▁الاشت	-2598
▁السري	-2599
▁الشعب	-2600
▁المرك	-2601
▁النها	-2602
▁انتشر	-2603
▁متوسط	-2604
▁مدريد	-2605
▁وكاله	-2606
▁الثوره	-2607
▁السادس	-2608
▁الاخوين	-2609
▁الاهليه	-2610
▁البشريه	-2611
▁الدستور	-2612
▁الماليه	-2613
▁البرلمان	-2614
▁الفلسطين	-2615
قق	-2616
امت	-2617
ثيل	-2618
جلس	-2619
حيث	-2620
ريا	-2621
قاب	-2622
قيم	-2623
لاق	-2624
وته	-2625
▁سق	-2626
اوله	-2627
ثناء	-2628
راوح	-2629
شاكل	-2630
لسفه	-2631
▁بيت	-2632
▁عاد	-2633
▁فال	-2634
▁مسي	-2635
▁معا	-2636
▁واق	-2637
مانيا	-2638
▁2000	-2639
▁البن	-2640
▁بريط	-2641
▁تعني	-2642
▁مسقط	-2643
▁نجيب	-2644
▁الاند	-2645
▁الانس	-2646
▁البحث	-2647
▁الفرس	-2648
▁تيمور	-2649
▁طويله	-2650
▁الاخير	-2651
▁الفنون	-2652
▁سكانها	-2653
▁العمانيه	-2654
▁التقليديه	-2655
-19	-2656
ائف	-2657
احف	-2658
شات	-2659
صيب	-2660
طلح	-2661
قوم	-2662
▁24	-2663
▁26	-2664
ديدا	-2665
قدمه	-2666
لاله	-2667
▁طلب	-2668
▁ظهر	-2669
▁عضو	-2670
▁فهو	-2671
▁للخ	-2672
▁ينت	-2673
▁2001	-2674
▁الفت	-2675
▁الكه	-2676
▁تولي	-2677
▁فكره	-2678
▁كامل	-2679
▁موسي	-2680
▁ويكي	-2681
▁الجزء	-2682
▁السوق	-2683
▁الفيل	-2684
▁مجموع	-2685
▁الرسمي	-2686
▁المتعل	-2687
▁الوصول	-2688
▁عسكريه	-2689
▁والسيا	-2690
▁وسوريا	-2691
▁الانظمه	-2692
▁الحاليه	-2693
▁العسكري	-2694
▁العماره	-2695
▁المجموعه	-2696
▁الموجوده	-2697
2.	-2698
جع	-2699
وخ	-2700
بطه	-2701
ترا	-2702
خاص	-2703
داء	-2704
زين	-2705
فيد	-2706
لاع	-2707
لاك	-2708
يار	-2709
▁شع	-2710
▁يص	-2711
داول	-2712
عبير	-2713
وارع	-2714
▁زمن	-2715
▁سمر	-2716
▁طرق	-2717
▁ففي	-2718
▁فوق	-2719
حيانا	-2720
راسات	-2721
▁الاط	-2722
▁تعود	-2723
▁لهذا	-2724
▁اطلاق	-2725
▁السبع	-2726
▁الصحي	-2727
▁الموس	-2728
▁النقد	-2729
▁انتقل	-2730
▁تاثير	-2731
▁جائزه	-2732
▁خدمات	-2733
▁قبائل	-2734
▁الاموي	-2735
▁الحساب	-2736
▁بواسطه	-2737
▁للعراق	-2738
▁الثقافه	-2739
ؤس	-2740
مم	-2741
ارف	-2742
اضر	-2743
تيب	-2744
جاز	-2745
جاه	-2746
حين	-2747
صبه	-2748
قند	-2749
كور	-2750
▁27	-2751
▁31	-2752
▁اط	-2753
▁هد	-2754
ائها	-2755
احيه	-2756
بكات	-2757
بنيه	-2758
تهاء	-2759
قطاع	-2760
ميزه	-2761
واصل	-2762
وعيه	-2763
يرها	-2764
▁تكن	-2765
▁قرا	-2766
▁لتح	-2767
▁الغذ	-2768
▁انته	-2769
▁جبال	-2770
▁دخلت	-2771
▁ذكرت	-2772
▁عامه	-2773
▁عددا	-2774
▁عرفت	-2775
▁نظرا	-2776
▁يورو	-2777
▁الاقل	-2778
▁الدعم	-2779
▁النمو	-2780
▁تماما	-2781
▁لديها	-2782
▁والمو	-2783
▁اجمالي	-2784
▁الحصول	-2785
▁الخدمه	-2786
▁الشيعه	-2787
▁الطريق	-2788
▁المناخ	-2789
▁سمرقند	-2790
▁اتفاقيه	-2791
▁التابعه	-2792
▁القاهره	-2793
▁الموارد	-2794
▁التلفزيون	-2795
▁المخابرات	-2796
كد	-2797
هه	-2798
▁:	-2799
تمر	-2800
جاب	-2801
جير	-2802
ريك	-2803
زام	-2804
ضاف	-2805
كله	-2806
مجه	-2807
وند	-2808
▁لو	-2809
▁مف	-2810
▁وظ	-2811
صبحت	-2812
فسهم	-2813
▁فرض	-2814
▁فصل	-2815
▁للص	-2816
▁مسا	-2817
▁ورد	-2818
▁يحت	-2819
باراه	-2820
شفيات	-2821
▁2013	-2822
▁بالب	-2823
▁بلغت	-2824
▁توزي	-2825
▁عامي	-2826
▁قيام	-2827
▁كافه	-2828
▁محطه	-2829
▁وبال	-2830
▁وفاه	-2831
▁يسمح	-2832
▁يشير	-2833
▁يعيش	-2834
▁اراضي	-2835
▁القوه	-2836
▁المعت	-2837
▁سابقا	-2838
▁مراكز	-2839
▁والاس	-2840
▁والبر	-2841
▁وجنوب	-2842
▁الجويه	-2843
▁السوري	-2844
▁الشتاء	-2845
▁المصري	-2846
▁المعاص	-2847
▁النبات	-2848
▁عالميا	-2849
▁واصبحت	-2850
▁والاست	-2851
▁الاعداد	-2852
▁الالعاب	-2853
▁المهاجر	-2854
▁الاجنبيه	-2855
▁الخوارزمي	-2856
ثا	-2857
بان	-2858
تان	-2859
رته	-2860
ضيه	-2861
لهم	-2862
نان	-2863
ورغ	-2864
▁مط	-2865
اليف	-2866
راعه	-2867
طريه	-2868
ميات	-2869
ناطق	-2870
نيات	-2871
ورها	-2872
▁اكس	-2873
▁صنع	-2874
▁كلا	-2875
▁لال	-2876
قاطعه	-2877
▁2007	-2878
▁افتت	-2879
▁البا	-2880
▁التف	-2881
▁الجي	-2882
▁بالر	-2883
▁صدام	-2884
▁وصول	-2885
▁وليس	-2886
غرافيه	-2887
▁اجتما	-2888
▁اصدار	-2889
▁الحقي	-2890
▁حاسوب	-2891
▁صحيفه	-2892
▁وخلال	-2893
▁المعاد	-2894
▁الاجهزه	-2895
▁الافغان	-2896
▁الشعبيه	-2897
▁الصغيره	-2898
حم	-2899
ذج	-2900
زت	-2901
غط	-2902
ائج	-2903
ارا	-2904
بهه	-2905
بين	-2906
خمه	-2907
ريح	-2908
سال	-2909
فعه	-2910
قوق	-2911
ورج	-2912
▁(3	-2913
▁نت	-2914
اكره	-2915
جاوز	-2916
حيده	-2917
ظيفه	-2918
فاوض	-2919
وامر	-2920
يناء	-2921
▁بات	-2922
▁تقد	-2923
▁رغم	-2924
▁شيء	-2925
▁طائ	-2926
▁عنه	-2927
▁فاز	-2928
▁قاب	-2929
▁ميد	-2930
▁وثي	-2931
▁وير	-2932
فتوحه	-2933
منطقه	-2934
▁2009	-2935
▁العن	-2936
▁المث	-2937
▁تدري	-2938
▁خمسه	-2939
▁سواء	-2940
▁قيمه	-2941
▁لاحق	-2942
▁لكره	-2943
▁مناخ	-2944
▁مهمه	-2945
▁افلام	-2946
▁الراف	-2947
▁تشكيل	-2948
▁درجات	-2949
▁رسميه	-2950
▁سياسه	-2951
▁شعبيه	-2952
▁عباره	-2953
▁قياده	-2954
▁مدرسه	-2955
▁مركزا	-2956
▁هؤلاء	-2957
▁والمت	-2958
▁والمس	-2959
▁يتحدث	-2960
▁البلطي	-2961
▁العمال	-2962
▁بالقرب	-2963
▁اعتبارا	-2964
▁الاحيان	-2965
▁الاعلان	-2966
▁الجبليه	-2967
▁الخمسين	-2968
▁السابقه	-2969
▁الطبيعي	-2970
▁والعراق	-2971
▁الرحباني	-2972
▁المؤسسات	-2973
▁الميلادي	-2974
▁السوفيتيه	-2975
ئا	-2976
ئت	-2977
ثاق	-2978
ثره	-2979
خرا	-2980
فعت	-2981
ماد	-2982
ميد	-2983
هار	-2984
واج	-2985
ويد	-2986
يرا	-2987
يسه	-2988
▁29	-2989
▁لط	-2990
درجه	-2991
كلفه	-2992
واحي	-2993
▁امن	-2994
▁جهه	-2995
▁حجم	-2996
▁سوي	-2997
▁فتح	-2998
▁لعب	-2999
▁محل	-3000
▁نمو	-3001
افظات	-3002
بارات	-3003
بلوما	-3004
▁1990	-3005
▁اسره	-3006
▁البط	-3007
▁التب	-3008
▁امان	-3009
▁بابل	-3010
▁باشا	-3011
▁تعلي	-3012
▁ظهور	-3013
▁عشره	-3014
▁لغات	-3015
▁وزير	-3016
▁وعدد	-3017
▁يزيد	-3018
▁اصدرت	-3019
▁اقليم	-3020
▁الحال	-3021
▁الصلي	-3022
▁العرض	-3023
▁خليفه	-3024
▁رئيسي	-3025
▁لكنها	-3026
▁مئويه	-3027
▁واصبح	-3028
▁وسائل	-3029
▁التراث	-3030
▁الثمان	-3031
▁السابع	-3032
▁النواه	-3033
▁الواقع	-3034
▁تجاريه	-3035
▁للدوله	-3036
▁استقلال	-3037
▁الاساسي	-3038
▁الخلافه	-3039
▁المرحله	-3040
▁المعروف	-3041
▁الصناعيه	-3042
نق	-3043
احث	-3044
افي	-3045
امر	-3046
جزء	-3047
طاج	-3048
مره	-3049
وعا	-3050
وها	-3051
▁2.	-3052
▁بس	-3053
▁ذه	-3054
▁ظل	-3055
بريه	-3056
دمير	-3057
ربين	-3058
سرعه	-3059
طلسي	-3060
▁بلا	-3061
▁جما	-3062
▁حمل	-3063
▁سته	-3064
▁صوت	-3065
▁كار	-3066
▁لاغ	-3067
▁محم	-3068
▁موظ	-3069
▁وبي	-3070
انيون	-3071
بيوتر	-3072
زياده	-3073
وانين	-3074
▁2006	-3075
▁اصول	-3076
▁اطار	-3077
▁الذه	-3078
▁القط	-3079
▁النس	-3080
▁تحدث	-3081
▁ريال	-3082
▁شارع	-3083
▁طالب	-3084
▁ولقد	-3085
زيونيه	-3086
▁اهمها	-3087
▁بعضها	-3088
▁بينها	-3089
▁تشرين	-3090
▁تمتلك	-3091
▁شاهين	-3092
▁والاج	-3093
▁استمرت	-3094
▁الكويت	-3095
▁النساء	-3096
▁محاوله	-3097
▁الرافدين	-3098
▁اللاتينيه	-3099
60	-3100
ائد	-3101
اتف	-3102
حوا	-3103
خال	-3104
صرف	-3105
ناق	-3106
وست	-3107
▁28	-3108
▁صن	-3109
▁فل	-3110
اريس	-3111
جاره	-3112
رفيه	-3113
ضمام	-3114
طلقت	-3115
عتها	-3116
علوم	-3117
▁اسب	-3118
▁اوب	-3119
▁حزب	-3120
▁لله	-3121
▁هما	-3122
▁يون	-3123
البيه	-3124
تمعات	-3125
▁الها	-3126
▁بدون	-3127
▁بعده	-3128
▁تحمل	-3129
▁حكوم	-3130
▁سقوط	-3131
▁عاصي	-3132
▁للام	-3133
▁وبلغ	-3134
▁وتعد	-3135
▁ومنذ	-3136
▁يقول	-3137
▁2010،	-3138
▁البال	-3139
▁التسع	-3140
▁الواق	-3141
▁توفير	-3142
▁قابوس	-3143
▁محطات	-3144
▁الاثار	-3145
▁انفسهم	-3146
▁الاطلسي	-3147
▁الاماكن	-3148
▁الاوامر	-3149
▁الجمهور	-3150
▁المسؤول	-3151
▁مجموعات	-3152
▁الفرنسيه	-3153
▁الكائنات	-3154
▁المتعلقه	-3155
طط	-3156
ازي	-3157
اهر	-3158
باء	-3159
ثلث	-3160
حدد	-3161
راز	-3162
صاء	-3163
نيا	-3164
هما	-3165
▁21	-3166
▁حز	-3167
▁ذو	-3168
حتيه	-3169
حركه	-3170
ريده	-3171
وزيع	-3172
▁باي	-3173
▁جيش	-3174
▁خان	-3175
▁كني	-3176
▁مكه	-3177
▁وكل	-3178
▁يرت	-3179
انويه	-3180
▁1999	-3181
▁النب	-3182
▁اولي	-3183
▁تحوي	-3184
▁حياه	-3185
▁زالت	-3186
▁صوره	-3187
▁قاده	-3188
▁كابل	-3189
▁لديه	-3190
▁لهذه	-3191
▁وجدت	-3192
▁ومست	-3193
▁يؤدي	-3194
▁يعني	-3195
ولايات	-3196
▁2009،	-3197
▁2011،	-3198
▁احتيا	-3199
▁احداث	-3200
▁اعتبر	-3201
▁الممت	-3202
▁اماره	-3203
▁تحديد	-3204
▁حمايه	-3205
▁طريقه	-3206
▁قرابه	-3207
▁وايضا	-3208
▁الاربع	-3209
▁البيزن	-3210
▁العالي	-3211
▁العمله	-3212
▁المسجد	-3213
▁الاداره	-3214
▁الانتاج	-3215
▁البدايه	-3216
▁الرومان	-3217
▁السلطنه	-3218
▁السياسه	-3219
▁الشمالي	-3220
▁الاتحاديه	-3221
▁الرومانيه	-3222
▁الانجليزيه	-3223
▁الالكترونيه	-3224
70	-3225
ئين	-3226
رجم	-3227
عين	-3228
فضل	-3229
قها	-3230
مهم	-3231
▁سف	-3232
▁لر	-3233
اربه	-3234
خصوص	-3235
رائب	-3236
لبيه	-3237
وجات	-3238
▁بلد	-3239
▁داخ	-3240
▁لاف	-3241
▁لتق	-3242
راقبه	-3243
شركات	-3244
غرافي	-3245
▁التا	-3246
▁النم	-3247
▁الوث	-3248
▁بالج	-3249
▁بحسب	-3250
▁بحيث	-3251
▁دخول	-3252
▁ساهم	-3253
▁كجزء	-3254
▁مكتب	-3255
▁نادي	-3256
▁ومصر	-3257
▁ويتم	-3258
▁اسماء	-3259
▁اعلان	-3260
▁المقر	-3261
▁الوطن	-3262
▁تحقيق	-3263
▁دائره	-3264
▁نفسها	-3265
▁وشمال	-3266
▁الاعلي	-3267
▁الجانب	-3268
▁الجهاد	-3269
▁الهجره	-3270
▁الوحيد	-3271
▁مهرجان	-3272
▁وغيرهم	-3273
▁الاسواق	-3274
▁الاشترا	-3275
▁البلطيق	-3276
▁العلماء	-3277
▁العلميه	-3278
▁المعروفه	-3279
▁كيلومترا	-3280
▁المهاجرين	-3281
80	-3282
او	-3283
باع	-3284
جين	-3285
حاث	-3286
خاب	-3287
روه	-3288
ضيف	-3289
عدم	-3290
كذا	-3291
لائ	-3292
ماك	-3293
وتي	-3294
وقي	-3295
وكه	-3296
يون	-3297
▁بض	-3298
▁رح	-3299
▁مغ	-3300
▁نه	-3301
اكمه	-3302
ديات	-3303
ضايا	-3304
ظمهم	-3305
عمار	-3306
فيذي	-3307
يفيه	-3308
▁انف	-3309
▁سنت	-3310
▁محت	-3311
▁ومس	-3312
▁2003	-3313
▁الوي	-3314
▁بهذا	-3315
▁تظهر	-3316
▁خصوص	-3317
▁سميت	-3318
▁منصب	-3319
▁وراء	-3320
▁2020،	-3321
▁القسم	-3322
▁كثيره	-3323
▁والده	-3324
▁الالاف	-3325
▁الثلاث	-3326
▁الخامس	-3327
▁الشعبي	-3328
▁الطبيه	-3329
▁النحاس	-3330
▁استخدمت	-3331
▁الاخبار	-3332
▁التحتيه	-3333
▁الدراسه	-3334
▁الصحراء	-3335
▁العامله	-3336
▁المساجد	-3337
▁المشروع	-3338
▁اليهوديه	-3339
▁المستخدمه	-3340
30	-3341
40	-3342
500	-3343
باح	-3344
بدو	-3345
ديث	-3346
قطع	-3347
ميل	-3348
ياس	-3349
▁60	-3350
▁مم	-3351
احات	-3352
حوذت	-3353
حيات	-3354
قبال	-3355
قلاب	-3356
نائي	-3357
نوات	-3358
يميا	-3359
▁500	-3360
▁باد	-3361
▁رقم	-3362
▁لاب	-3363
▁لاك	-3364
▁للف	-3365
▁مدي	-3366
▁يمن	-3367
مارسه	-3368
▁1998	-3369
▁الخي	-3370
▁حاول	-3371
▁عربي	-3372
▁فانه	-3373
▁لانت	-3374
▁لبعض	-3375
▁للبر	-3376
▁لندن	-3377
▁مرات	-3378
▁معها	-3379
▁معين	-3380
▁وبقي	-3381
▁اعقاب	-3382
▁الاخت	-3383
▁البرت	-3384
▁الحرف	-3385
▁السكن	-3386
▁الشكل	-3387
▁بموجب	-3388
▁تالين	-3389
▁تتكون	-3390
▁تعرضت	-3391
▁عليهم	-3392
▁كثيرا	-3393
▁لنظام	-3394
▁مرحله	-3395
▁البريه	-3396
▁المجال	-3397
▁المواد	-3398
▁الموصل	-3399
▁بطريقه	-3400
▁لفيروز	-3401
▁مجالات	-3402
▁معاهده	-3403
▁الملكيه	-3404
▁النهرين	-3405
▁الاستوني	-3406
▁الساحليه	-3407
▁بريطانيا	-3408
▁الاقليميه	-3409
▁المواطنين	-3410
16	-3411
ذر	-3412
صم	-3413
فذ	-3414
احب	-3415
راح	-3416
راس	-3417
ضاع	-3418
فيس	-3419
ورت	-3420
وضي	-3421
▁1,	-3422
▁جع	-3423
▁حف	-3424
▁خس	-3425
▁رك	-3426
▁عه	-3427
▁فب	-3428
▁قط	-3429
▁لخ	-3430
▁نم	-3431
اريا	-3432
جهات	-3433
هميه	-3434
▁بدء	-3435
▁بكل	-3436
▁تور	-3437
▁عصر	-3438
▁فمن	-3439
▁واغ	-3440
▁وتص	-3441
▁وله	-3442
▁يمت	-3443
جموعه	-3444
قاومه	-3445
▁2004	-3446
▁2017	-3447
▁ارسل	-3448
▁العد	-3449
▁القص	-3450
▁اللي	-3451
▁تكري	-3452
▁حدوث	-3453
▁ساعد	-3454
▁عمرو	-3455
▁لاعب	-3456
▁واعل	-3457
▁وقال	-3458
▁وهذه	-3459
▁2003،	-3460
▁اتفاق	-3461
▁اشكال	-3462
▁اعتمد	-3463
▁الروا	-3464
▁بوجود	-3465
▁تتميز	-3466
▁تحالف	-3467
▁تطبيق	-3468
▁سيطرت	-3469
▁محدده	-3470
▁ناحيه	-3471
▁وبذلك	-3472
▁الجبال	-3473
▁مستخدم	-3474
▁ولكنها	-3475
▁ويعتبر	-3476
▁استراتي	-3477
▁الارقام	-3478
▁الالمان	-3479
▁الغابات	-3480
▁المباني	-3481
▁المعرفه	-3482
▁المواقع	-3483
▁الوحيده	-3484
▁الروماني	-3485
▁المجالات	-3486
▁المجاهدين	-3487
▁الانتخابات	-3488
ثم	-3489
ئيا	-3490
جلت	-3491
خصه	-3492
شطه	-3493
كلم	-3494
ليف	-3495
موت	-3496
نبي	-3497
واح	-3498
ونا	-3499
ويج	-3500
▁سر	-3501
▁مث	-3502
▁نص	-3503
▁هر	-3504
▁يا	-3505
اليم	-3506
تهرت	-3507
ركات	-3508
فعات	-3509
قيات	-3510
موما	-3511
وبات	-3512
وقيه	-3513
ولات	-3514
▁رجل	-3515
▁سجل	-3516
▁سقط	-3517
▁مال	-3518
▁مرا	-3519
▁منح	-3520
▁ويش	-3521
لافات	-3522
▁2005	-3523
▁الاض	-3524
▁السف	-3525
▁المذ	-3526
▁اليد	-3527
▁حصلت	-3528
▁سيما	-3529
▁صالح	-3530
▁مسلم	-3531
▁وترك	-3532
▁وقعت	-3533
قاطعات	-3534
كندريه	-3535
▁اتحاد	-3536
▁اساسي	-3537
▁الاير	-3538
▁الباب	-3539
▁الغاز	-3540
▁النظر	-3541
▁بطوله	-3542
▁كلمات	-3543
▁لصالح	-3544
▁هجمات	-3545
▁والمح	-3546
▁ويوجد	-3547
▁احتلال	-3548
▁اكتشاف	-3549
▁الشباب	-3550
▁الكهرب	-3551
▁النصوص	-3552
▁امريكا	-3553
▁سياسيه	-3554
▁فيلمون	-3555
▁للبلاد	-3556
▁استحوذت	-3557
▁الامطار	-3558
▁التاليه	-3559
▁التحالف	-3560
▁التعريف	-3561
▁المنظمه	-3562
▁الزراعيه	-3563
▁الاتصالات	-3564
▁الحيوانات	-3565
▁القانونيه	-3566
▁المستشفيات	-3567
11	-3568
14	-3569
45	-3570
اغ	-3571
تو	-3572
جت	-3573
لق	-3574
ابر	-3575
اعي	-3576
بير	-3577
ذين	-3578
رين	-3579
ضبه	-3580
ضيع	-3581
لبه	-3582
ناس	-3583
واط	-3584
ويض	-3585
▁70	-3586
▁حص	-3587
ابول	-3588
باره	-3589
برات	-3590
خفاض	-3591
ربيع	-3592
رتها	-3593
رجمه	-3594
رنها	-3595
ساعد	-3596
فاعل	-3597
فهوم	-3598
وائر	-3599
واحل	-3600
▁باص	-3601
▁بعي	-3602
▁حلف	-3603
▁خمس	-3604
▁درا	-3605
▁سبب	-3606
▁سري	-3607
▁لقب	-3608
▁مسل	-3609
▁مطل	-3610
▁ووف	-3611
امعات	-3612
ريقيه	-3613
ماليه	-3614
▁البع	-3615
▁الحب	-3616
▁الرك	-3617
▁الكم	-3618
▁امير	-3619
▁بهدف	-3620
▁تميز	-3621
▁ثقاف	-3622
▁فعلي	-3623
▁مثلا	-3624
▁والز	-3625
▁ويعد	-3626
▁2014،	-3627
▁الابت	-3628
▁الدور	-3629
▁الصيد	-3630
▁بسرعه	-3631
▁بلدان	-3632
▁تسجيل	-3633
▁تصميم	-3634
▁تعتمد	-3635
▁تعداد	-3636
▁تقرير	-3637
▁رئيسا	-3638
▁مؤخرا	-3639
رياضيات	-3640
▁اختيار	-3641
▁البنيه	-3642
▁البيئه	-3643
▁التعلي	-3644
▁الدوري	-3645
▁المتحف	-3646
▁المراه	-3647
▁المهام	-3648
▁انتشرت	-3649
▁للشركه	-3650
▁للغايه	-3651
▁الاجانب	-3652
▁الاندلس	-3653
▁الشهيره	-3654
▁اليمنيه	-3655
▁بالكامل	-3656
▁الصناعات	-3657
▁المؤرخين	-3658
▁المستقله	-3659
▁المشتركه	-3660
▁المعماري	-3661
▁اللبنانيين	-3662
يك	-3663
▁0	-3664
200	-3665
ائب	-3666
ابت	-3667
الا	-3668
بري	-3669
بيت	-3670
حته	-3671
حيط	-3672
رفض	-3673
زاب	-3674
ستر	-3675
طرق	-3676
ظمي	-3677
كير	-3678
ناد	-3679
ندا	-3680
يئه	-3681
▁نا	-3682
بورغ	-3683
ثمار	-3684
وائف	-3685
واتف	-3686
وسطه	-3687
▁بسي	-3688
▁ترت	-3689
▁جون	-3690
▁خطط	-3691
▁دين	-3692
▁سكن	-3693
▁سلي	-3694
▁عين	-3695
▁قرر	-3696
▁قصر	-3697
▁لتش	-3698
▁لتع	-3699
▁لتن	-3700
▁مخت	-3701
▁معت	-3702
▁هند	-3703
▁واص	-3704
▁وجد	-3705
▁ولد	-3706
اليات	-3707
ساعده	-3708
▁ابتد	-3709
▁الجد	-3710
▁انشا	-3711
▁بشان	-3712
▁تضمن	-3713
▁توفي	-3714
▁حساب	-3715
▁حكمه	-3716
▁رجال	-3717
▁رسوم	-3718
▁صلاح	-3719
▁فران	-3720
▁قرار	-3721
▁كلها	-3722
▁كميه	-3723
▁مسجد	-3724
▁مقتل	-3725
▁وجعل	-3726
▁ويست	-3727
دراليه	-3728
رنهايت	-3729
▁2006،	-3730
▁الاسر	-3731
▁الاصل	-3732
▁الجوي	-3733
▁الحمي	-3734
▁بعضهم	-3735
▁تابعه	-3736
▁تعريف	-3737
▁خصوصا	-3738
▁راديو	-3739
▁علاقه	-3740
▁قديمه	-3741
▁قليله	-3742
▁قواعد	-3743
▁كانون	-3744
▁مسؤول	-3745
▁مصادر	-3746
▁مصطلح	-3747
▁نسبيا	-3748
▁نهائي	-3749
▁واكثر	-3750
▁والاف	-3751
▁والتح	-3752
▁والمه	-3753
▁يقارب	-3754
▁العقبه	-3755
▁المهمه	-3756
▁رئيسيه	-3757
▁عالميه	-3758
▁قندهار	-3759
▁والمست	-3760
▁وعندما	-3761
▁الاخوان	-3762
▁الاشوري	-3763
▁التخطيط	-3764
▁التركيه	-3765
▁التنفيذ	-3766
▁التنميه	-3767
▁السلطات	-3768
▁المحتوي	-3769
▁المراكز	-3770
▁المركزي	-3771
▁باعتبار	-3772
▁تاريخيا	-3773
▁السياحيه	-3774
▁فهرنهايت	-3775
▁والمملكه	-3776
▁الاجتماعي	-3777
10	-3778
24	-3779
حث	-3780
اسب	-3781
جود	-3782
ساد	-3783
صات	-3784
ضمت	-3785
طرا	-3786
ماس	-3787
ماه	-3788
ناف	-3789
نيع	-3790
وزع	-3791
وطه	-3792
▁3.	-3793
▁جذ	-3794
▁سد	-3795
▁هن	-3796
▁يغ	-3797
▁يل	-3798
اردن	-3799
رافق	-3800
ظروف	-3801
كونه	-3802
لاسي	-3803
مبيه	-3804
نائس	-3805
وجيه	-3806
وسيع	-3807
▁راي	-3808
▁صدر	-3809
▁ضرب	-3810
▁غزو	-3811
▁فلا	-3812
▁لام	-3813
▁ماء	-3814
▁مجد	-3815
▁نشا	-3816
▁نظر	-3817
▁وشر	-3818
▁يري	-3819
ضرموت	-3820
كتابه	-3821
هابيه	-3822
وطنات	-3823
▁1991	-3824
▁1996	-3825
▁2002	-3826
▁الجه	-3827
▁الخر	-3828
▁السه	-3829
▁النز	-3830
▁تحول	-3831
▁تسمح	-3832
▁تغير	-3833
▁تموز	-3834
▁ثوره	-3835
▁سلطه	-3836
▁شهره	-3837
▁فريق	-3838
▁كبري	-3839
▁مصدر	-3840
▁نشات	-3841
▁واعت	-3842
▁واول	-3843
▁وسوق	-3844
▁يشار	-3845
▁2007،	-3846
▁الاوز	-3847
▁الروس	-3848
▁السفن	-3849
▁الصحه	-3850
▁المحم	-3851
▁بالان	-3852
▁بصوره	-3853
▁عائله	-3854
▁لفتره	-3855
▁يحتوي	-3856
▁ابرزها	-3857
▁احيانا	-3858
▁البرتغ	-3859
▁الحجري	-3860
▁الدوحه	-3861
▁الرحمن	-3862
▁الطلاب	-3863
▁المحيط	-3864
▁حزيران	-3865
▁واستمر	-3866
▁وتعتبر	-3867
▁الاصليه	-3868
▁الحضاره	-3869
▁الداخلي	-3870
▁الرعايه	-3871
▁الشريعه	-3872
▁الطبيعه	-3873
▁الكلاسي	-3874
▁المحيطه	-3875
▁الهندسه	-3876
▁لطالبان	-3877
▁الاراميه	-3878
▁الافغاني	-3879
▁المسرحيه	-3880
▁الديمقراطيه	-3881
12	-3882
95	-3883
ؤها	-3884
برت	-3885
جري	-3886
جيا	-3887
داه	-3888
عاء	-3889
فره	-3890
لاط	-3891
لها	-3892
منه	-3893
نهر	-3894
وجل	-3895
وقه	-3896
يته	-3897
▁طن	-3898
▁مض	-3899
▁نب	-3900
▁يك	-3901
اضيه	-3902
انين	-3903
حوال	-3904
ديان	-3905
ريطه	-3906
زيمه	-3907
سترا	-3908
طلاع	-3909
ناها	-3910
هاده	-3911
وفره	-3912
▁خطه	-3913
▁سير	-3914
▁فعل	-3915
▁قان	-3916
▁قلب	-3917
▁لبن	-3918
▁ميز	-3919
▁وست	-3920
▁وفق	-3921
جانات	-3922
جيرات	-3923
راءات	-3924
راهيم	-3925
وزاره	-3926
▁اتخذ	-3927
▁اشار	-3928
▁بالد	-3929
▁تغطي	-3930
▁حمله	-3931
▁ظفار	-3932
▁للفن	-3933
▁مريم	-3934
▁معرض	-3935
▁موطن	-3936
▁وجهه	-3937
▁يقدم	-3938
▁اطلقت	-3939
▁الاله	-3940
▁الامه	-3941
▁الدخل	-3942
▁الراي	-3943
▁المهر	-3944
▁اهداف	-3945
▁بمعني	-3946
▁تصنيف	-3947
▁سيطره	-3948
▁عموما	-3949
▁كامله	-3950
▁لانها	-3951
▁للماء	-3952
▁وبدات	-3953
▁وتشمل	-3954
▁استطاع	-3955
▁الاستخ	-3956
▁الاسره	-3957
▁البناء	-3958
▁الصراع	-3959
▁العلمي	-3960
▁الغذاء	-3961
▁الفيني	-3962
▁المكتب	-3963
▁رئيسيا	-3964
▁مستشفي	-3965
▁مقارنه	-3966
▁يعيشون	-3967
▁استعمال	-3968
▁الاحداث	-3969
▁التنظيم	-3970
▁السودان	-3971
▁الكنيسه	-3972
▁المؤسسه	-3973
▁برمجيات	-3974
▁معلومات	-3975
▁والعديد	-3976
▁التنفيذي	-3977
▁السويديه	-3978
▁النباتات	-3979
▁انتخابات	-3980
▁والهندسه	-3981
25	-3982
33	-3983
86	-3984
سك	-3985
شب	-3986
▁,	-3987
اصب	-3988
جاح	-3989
حوث	-3990
دري	-3991
راي	-3992
عام	-3993
ماج	-3994
نون	-3995
وعي	-3996
ياب	-3997
▁90	-3998
▁خي	-3999
▁رم	-4000
▁غض	-4001
▁كا	-4002
ائعه	-4003
ابيع	-4004
اصيل	-4005
اليد	-4006
حريه	-4007
دياد	-4008
ديين	-4009
كاتب	-4010
كتاب	-4011
كوين	-4012
لكيه	-4013
نامج	-4014
وافل	-4015
وانئ	-4016
وتها	-4017
يلاء	-4018
▁186	-4019
▁ايل	-4020
▁بري	-4021
▁جمع	-4022
▁خرج	-4023
▁رفع	-4024
▁سار	-4025
▁عثر	-4026
▁فرق	-4027
▁قرب	-4028
▁للر	-4029
▁مسؤ	-4030
▁مقد	-4031
▁نور	-4032
▁وتق	-4033
ائلات	-4034
اثولي	-4035
بيعات	-4036
كانيه	-4037
ماعيل	-4038
واهري	-4039
▁العض	-4040
▁باقي	-4041
▁بنيت	-4042
▁تقدر	-4043
▁جورج	-4044
▁ساحه	-4045
▁شارك	-4046
▁فارس	-4047
▁قدره	-4048
▁لسنه	-4049
▁للاش	-4050
▁ملوك	-4051
▁واجه	-4052
▁وتقع	-4053
▁وعبد	-4054
▁يرجع	-4055
▁يطلق	-4056
▁يظهر	-4057
▁2016،	-4058
▁ادوات	-4059
▁الطائ	-4060
▁القاد	-4061
▁الكتب	-4062
▁المخت	-4063
▁الويب	-4064
▁تسميه	-4065
▁شمالا	-4066
▁مجتمع	-4067
▁والاح	-4068
▁وبحسب	-4069
▁ولكنه	-4070
▁وهكذا	-4071
▁يتعلق	-4072
▁يعتمد	-4073
▁اشتهرت	-4074
▁الباحث	-4075
▁البالغ	-4076
▁البشري	-4077
▁التشري	-4078
▁الكلمه	-4079
▁المكان	-4080
▁خلالها	-4081
▁دولارا	-4082
▁للقوات	-4083
▁متنوعه	-4084
▁مسرحيه	-4085
▁ابراهيم	-4086
▁القطريه	-4087
▁الكيميا	-4088
▁المنصور	-4089
▁تدريجيا	-4090
▁الاداريه	-4091
▁الثانويه	-4092
▁الحضارات	-4093
▁الدراسات	-4094
▁السيارات	-4095
▁العباسيه	-4096
▁المشاريع	-4097
▁والاجتما	-4098
▁والعشرين	-4099
▁السوفياتي	-4100
حق	-4101
غب	-4102
اعر	-4103
تهي	-4104
ثار	-4105
جاد	-4106
درج	-4107
سهل	-4108
شوا	-4109
صلت	-4110
ضيق	-4111
عدل	-4112
كين	-4113
▁(6	-4114
▁جد	-4115
▁حس	-4116
▁فص	-4117
▁فم	-4118
عامل	-4119
غداد	-4120
قيام	-4121
ليون	-4122
نوان	-4123
وجين	-4124
وطنه	-4125
وفيه	-4126
وويه	-4127
▁300	-4128
▁حال	-4129
▁حسن	-4130
▁صنا	-4131
▁طور	-4132
▁فون	-4133
▁قيد	-4134
▁منف	-4135
▁موض	-4136
▁مول	-4137
▁هار	-4138
▁هنا	-4139
▁وبن	-4140
▁وعل	-4141
▁1920	-4142
▁ابنه	-4143
▁الحف	-4144
▁الكث	-4145
▁بلغه	-4146
▁تدعي	-4147
▁تنتج	-4148
▁حاكم	-4149
▁دوره	-4150
▁ساحل	-4151
▁فيصل	-4152
▁قلعه	-4153
▁كبار	-4154
▁لعده	-4155
▁مجله	-4156
▁معتد	-4157
▁منتج	-4158
▁نجاح	-4159
▁وضعت	-4160
▁وقام	-4161
لمانيه	-4162
▁2004،	-4163
▁2015،	-4164
▁ابطال	-4165
▁اقسام	-4166
▁الحزب	-4167
▁السوم	-4168
▁الفتح	-4169
▁الفني	-4170
▁الكون	-4171
▁المحد	-4172
▁المطب	-4173
▁ترخيص	-4174
▁تقسيم	-4175
▁حالات	-4176
▁حديثه	-4177
▁شبكات	-4178
▁كابول	-4179
▁كنيسه	-4180
▁والسل	-4181
▁وخصوص	-4182
▁يتكون	-4183
▁يمتلك	-4184
▁اضافيه	-4185
▁الجبهه	-4186
▁الحاجه	-4187
▁الحقوق	-4188
▁الرجال	-4189
▁السبئي	-4190
▁الشرطه	-4191
▁القائد	-4192
▁القيمه	-4193
▁الموسي	-4194
▁النشاط	-4195
▁الهندي	-4196
▁الوحده	-4197
▁بتاريخ	-4198
▁بعنوان	-4199
▁رياضيه	-4200
▁لتطوير	-4201
▁محدوده	-4202
▁معظمهم	-4203
▁موجوده	-4204
▁وفرنسا	-4205
▁الادويه	-4206
▁الترخيص	-4207
▁التصميم	-4208
▁الجنسيه	-4209
▁الذاكره	-4210
▁الصناعه	-4211
▁العاليه	-4212
▁العناصر	-4213
▁المسائل	-4214
▁المنازل	-4215
▁الناحيه	-4216
▁مليارات	-4217
▁الاحتلال	-4218
▁المدنيين	-4219
▁باستثناء	-4220
▁الاميركيه	-4221
▁العراقيين	-4222
▁والاقتصاد	-4223
▁الامريكيين	-4224
▁الديمقراطي	-4225
18	-4226
ضح	-4227
عف	-4228
نب	-4229
اجر	-4230
بيع	-4231
حها	-4232
خار	-4233
سمه	-4234
شاب	-4235
شرف	-4236
عته	-4237
عهم	-4238
فرد	-4239
فيض	-4240
قاع	-4241
لنك	-4242
نطن	-4243
نوع	-4244
▁صد	-4245
امنه	-4246
ثابه	-4247
ثلاث	-4248
حواذ	-4249
دامه	-4250
ساهم	-4251
مائه	-4252
مجيه	-4253
وامل	-4254
ونها	-4255
▁اخذ	-4256
▁ايه	-4257
▁بور	-4258
▁تاي	-4259
▁جان	-4260
▁داع	-4261
▁سيد	-4262
▁صور	-4263
▁عدا	-4264
▁مان	-4265
▁متز	-4266
▁نصر	-4267
▁وتد	-4268
▁ودم	-4269
▁ومص	-4270
▁ووا	-4271
▁ينب	-4272
طاليا	-4273
لاحقه	-4274
نائها	-4275
▁1970	-4276
▁اسمه	-4277
▁التو	-4278
▁الحل	-4279
▁الفص	-4280
▁المض	-4281
▁تتبع	-4282
▁تونس	-4283
▁جوجل	-4284
▁ربما	-4285
▁عضوا	-4286
▁كليه	-4287
▁لعدد	-4288
▁واحت	-4289
▁واهم	-4290
▁وبدا	-4291
▁وتمت	-4292
▁وذكر	-4293
▁يحدث	-4294
فاوضات	-4295
▁2010.	-4296
▁2018،	-4297
▁ابناء	-4298
▁اصلاح	-4299
▁افراد	-4300
▁الادب	-4301
▁الاسي	-4302
▁الحجر	-4303
▁الحين	-4304
▁السفر	-4305
▁السما	-4306
▁المبا	-4307
▁المشه	-4308
▁بالمق	-4309
▁تكريت	-4310
▁تنتشر	-4311
▁سيكون	-4312
▁قرطاج	-4313
▁محمود	-4314
▁مشاكل	-4315
▁معالج	-4316
▁والكر	-4317
▁والمع	-4318
▁وتوجد	-4319
▁وظيفه	-4320
▁ووفقا	-4321
▁يونكس	-4322
▁استضاف	-4323
▁الحاضر	-4324
▁الحروب	-4325
▁المغول	-4326
▁الهواء	-4327
▁الهيدر	-4328
▁بانشاء	-4329
▁معظمها	-4330
▁واليمن	-4331
▁وخصوصا	-4332
بلوماسيه	-4333
▁الاسماك	-4334
▁الاشخاص	-4335
▁الالفيه	-4336
▁الباديه	-4337
▁التعبير	-4338
▁الثلاثه	-4339
▁الجنوبي	-4340
▁العلاقه	-4341
▁المتوقع	-4342
▁الممالك	-4343
▁الهجمات	-4344
▁الواقعه	-4345
▁مستويات	-4346
▁والجنوب	-4347
▁الجغرافي	-4348
▁المشاركه	-4349
▁التطبيقات	-4350
▁الكمبيوتر	-4351
▁المجتمعات	-4352
▁العثمانيون	-4353
▁الكيميائيه	-4354
▁الاستخبارات	-4355
75	-4356
83	-4357
92	-4358
بس	-4359
جح	-4360
قص	-4361
ادئ	-4362
ارع	-4363
اكس	-4364
ثوذ	-4365
خله	-4366
داب	-4367
ريش	-4368
سري	-4369
فال	-4370
مير	-4371
نين	-4372
هضه	-4373
هلك	-4374
▁33	-4375
▁65	-4376
▁جر	-4377
▁جل	-4378
▁صي	-4379
▁فق	-4380
ابته	-4381
ارته	-4382
ارير	-4383
تيال	-4384
داخل	-4385
ديما	-4386
ريمه	-4387
زيره	-4388
سيطر	-4389
طاقه	-4390
ظهور	-4391
عدام	-4392
كسيه	-4393
ودها	-4394
وقات	-4395
▁ابل	-4396
▁بعل	-4397
▁تمن	-4398
▁جنب	-4399
▁حره	-4400
▁صار	-4401
▁فلم	-4402
▁فيل	-4403
▁لمح	-4404
▁واج	-4405
▁واع	-4406
▁وسب	-4407
▁وعم	-4408
▁ومه	-4409
▁يقت	-4410
اتجاه	-4411
▁اداء	-4412
▁اذار	-4413
▁اقصي	-4414
▁البت	-4415
▁التم	-4416
▁الثل	-4417
▁الخض	-4418
▁السر	-4419
▁العا	-4420
▁بالش	-4421
▁بانت	-4422
▁بقيه	-4423
▁خطوط	-4424
▁زعيم	-4425
▁شرقا	-4426
▁صاحب	-4427
▁قريه	-4428
▁مؤسس	-4429
▁مئات	-4430
▁مبني	-4431
▁مدار	-4432
▁مدير	-4433
▁مقرا	-4434
▁نسخه	-4435
▁وابن	-4436
▁واخت	-4437
▁والط	-4438
▁واما	-4439
▁وانه	-4440
▁وصلت	-4441
▁يتبع	-4442
▁يذكر	-4443
▁ابرهه	-4444
▁اخبار	-4445
▁ازداد	-4446
▁اساسا	-4447
▁اطراف	-4448
▁الاكت	-4449
▁البشت	-4450
▁الترا	-4451
▁السبب	-4452
▁الشمس	-4453
▁الطلب	-4454
▁العقل	-4455
▁الفرد	-4456
▁المطل	-4457
▁النيل	-4458
▁الهدف	-4459
▁الوضع	-4460
▁انتهت	-4461
▁انخفض	-4462
▁انضمت	-4463
▁تتضمن	-4464
▁تتمتع	-4465
▁تعديل	-4466
▁تعيين	-4467
▁ثانيه	-4468
▁حديقه	-4469
▁دائما	-4470
▁قبيله	-4471
▁قديما	-4472
▁قصيره	-4473
▁كميات	-4474
▁لاكثر	-4475
▁لتكون	-4476
▁محتوي	-4477
▁منصور	-4478
▁موارد	-4479
▁وافقت	-4480
▁والات	-4481
▁ومحمد	-4482
▁ابتداء	-4483
▁الاسود	-4484
▁الاصلي	-4485
▁الرشيد	-4486
▁الغالب	-4487
▁القومي	-4488
▁انتخاب	-4489
▁بالرغم	-4490
▁بحوالي	-4491
▁بمثابه	-4492
▁وتطوير	-4493
▁ولبنان	-4494
▁ويعتقد	-4495
▁اسماعيل	-4496
▁الاربعه	-4497
▁الاغاني	-4498
▁الاغنيه	-4499
▁الحضريه	-4500
▁الخلفاء	-4501
▁السريعه	-4502
▁السنويه	-4503
▁الصحافه	-4504
▁القائمه	-4505
▁القرنين	-4506
▁المحكمه	-4507
▁تاريخيه	-4508
▁تطبيقات	-4509
▁والفرات	-4510
▁الاشوريه	-4511
▁البيزنطي	-4512
▁الحديديه	-4513
▁الظواهري	-4514
▁القانوني	-4515
▁المنظمات	-4516
▁الاردنيين	-4517
▁الاستقرار	-4518
▁الاشتراكي	-4519
ذن	-4520
رر	-4521
سع	-4522
طت	-4523
ئله	-4524
ارد	-4525
افا	-4526
حدر	-4527
رال	-4528
سعه	-4529
سوم	-4530
طبق	-4531
كيد	-4532
يور	-4533
▁75	-4534
ارضه	-4535
الحه	-4536
حاول	-4537
حتها	-4538
ريون	-4539
مرار	-4540
ويين	-4541
ياغه	-4542
▁190	-4543
▁بيع	-4544
▁ثال	-4545
▁رفي	-4546
▁طار	-4547
▁علا	-4548
▁كور	-4549
▁مهم	-4550
▁وجي	-4551
▁وقع	-4552
▁ولل	-4553
ؤسسات	-4554
ثلاثه	-4555
وريات	-4556
▁1994	-4557
▁استر	-4558
▁اقام	-4559
▁اقلي	-4560
▁الرم	-4561
▁الكر	-4562
▁اللغ	-4563
▁النظ	-4564
▁انتق	-4565
▁انضم	-4566
▁بحكم	-4567
▁تجاه	-4568
▁حدثت	-4569
▁رؤيه	-4570
▁رسول	-4571
▁شؤون	-4572
▁شعار	-4573
▁صغير	-4574
▁فروع	-4575
▁فقال	-4576
▁قرون	-4577
▁مترا	-4578
▁مستط	-4579
▁ملحو	-4580
▁مناف	-4581
▁نوعا	-4582
▁يؤمن	-4583
▁يجمع	-4584
▁يدعي	-4585
طرابات	-4586
لاجئين	-4587
▁2005،	-4588
▁2007.	-4589
▁2012،	-4590
▁احياء	-4591
▁اخرين	-4592
▁اسعار	-4593
▁اسمها	-4594
▁اقامه	-4595
▁الجمع	-4596
▁الدائ	-4597
▁السكك	-4598
▁العقد	-4599
▁امانه	-4600
▁امثال	-4601
▁بحيره	-4602
▁بنظام	-4603
▁توحيد	-4604
▁دوليه	-4605
▁سياسي	-4606
▁شخصيه	-4607
▁عددهم	-4608
▁فكانت	-4609
▁فهناك	-4610
▁قنوات	-4611
▁للاست	-4612
▁للمره	-4613
▁لهيئه	-4614
▁والال	-4615
▁وثيقه	-4616
▁يتالف	-4617
▁ازدهار	-4618
▁البروت	-4619
▁البصره	-4620
▁الحقبه	-4621
▁الشخصي	-4622
▁العظيم	-4623
▁العقود	-4624
▁القرون	-4625
▁المذهب	-4626
▁الواحد	-4627
▁انتهاء	-4628
▁تتراوح	-4629
▁سليمان	-4630
▁غالبيه	-4631
▁لاداره	-4632
▁للعديد	-4633
▁مؤسسات	-4634
▁مباراه	-4635
▁يستعمل	-4636
▁الاصلاح	-4637
▁الانباط	-4638
▁الانهار	-4639
▁البحرين	-4640
▁البطوله	-4641
▁التاثير	-4642
▁الضرائب	-4643
▁العمران	-4644
▁الفيديو	-4645
▁القنوات	-4646
▁المدنيه	-4647
▁المساحه	-4648
▁الاقليمي	-4649
▁الانتداب	-4650
▁التقليدي	-4651
▁الكاثولي	-4652
▁تيمورلنك	-4653
▁والاتحاد	-4654
▁والتعليم	-4655
▁والتنميه	-4656
▁الاستخدام	-4657
▁الاولمبيه	-4658
▁المسيحيين	-4659
▁اليونانيه	-4660
▁الفلسطينيه	-4661
.2	-4662
85	-4663
90	-4664
99	-4665
ؤه	-4666
خم	-4667
دف	-4668
زع	-4669
اثر	-4670
اطئ	-4671
الق	-4672
بيا	-4673
بيب	-4674
بيد	-4675
حول	-4676
خلص	-4677
ريض	-4678
سيق	-4679
شيه	-4680
طوط	-4681
فتح	-4682
قين	-4683
كما	-4684
هدت	-4685
وضه	-4686
وفا	-4687
ويس	-4688
يتي	-4689
▁ضر	-4690
▁هج	-4691
▁يز	-4692
افات	-4693
اليب	-4694
انها	-4695
بيين	-4696
جديه	-4697
رائي	-4698
راكه	-4699
صائص	-4700
صلات	-4701
ظهرت	-4702
لاحظ	-4703
متها	-4704
وتيه	-4705
وحات	-4706
يهود	-4707
▁400	-4708
▁بشر	-4709
▁ترا	-4710
▁ثلث	-4711
▁جبر	-4712
▁حصه	-4713
▁حمو	-4714
▁شيد	-4715
▁طرف	-4716
▁عدن	-4717
▁لبر	-4718
▁وعر	-4719
باريه	-4720
ثقافه	-4721
طبيعه	-4722
ملوكه	-4723
ولايه	-4724
▁1995	-4725
▁2016	-4726
▁اراض	-4727
▁اصدر	-4728
▁اعظم	-4729
▁اقرب	-4730
▁الدم	-4731
▁المك	-4732
▁النت	-4733
▁الور	-4734
▁اولا	-4735
▁بنيه	-4736
▁تبقي	-4737
▁تسبب	-4738
▁تمتد	-4739
▁توقف	-4740
▁خالد	-4741
▁خليج	-4742
▁رسمي	-4743
▁عراق	-4744
▁عمله	-4745
▁قائد	-4746
▁قويه	-4747
▁كالي	-4748
▁كلغه	-4749
▁مقات	-4750
▁مكون	-4751
▁مواط	-4752
▁هاجر	-4753
▁وجاء	-4754
▁يقدر	-4755
▁يوفر	-4756
غرافيا	-4757
▁2008،	-4758
▁اتباع	-4759
▁احتلت	-4760
▁استبد	-4761
▁القدس	-4762
▁النار	-4763
▁النوع	-4764
▁بالام	-4765
▁بينهم	-4766
▁تختلف	-4767
▁تدريب	-4768
▁تراجع	-4769
▁تغيير	-4770
▁مدارس	-4771
▁مسعود	-4772
▁مواطن	-4773
▁موجود	-4774
▁ميناء	-4775
▁والاب	-4776
▁وفاته	-4777
▁افتتاح	-4778
▁الاصول	-4779
▁البحار	-4780
▁البحري	-4781
▁التوسع	-4782
▁الجليد	-4783
▁الحادي	-4784
▁الذكيه	-4785
▁السريع	-4786
▁السياح	-4787
▁العزيز	-4788
▁الغناء	-4789
▁الماده	-4790
▁الممكن	-4791
▁كتابات	-4792
▁للحصول	-4793
▁مشتركه	-4794
▁واشنطن	-4795
▁يستطيع	-4796
▁استقبال	-4797
▁الانشطه	-4798
▁الثقافي	-4799
▁الحقيقي	-4800
▁الحكومي	-4801
▁الحلفاء	-4802
▁الخامسه	-4803
▁الرياضه	-4804
▁العملات	-4805
▁المتاحف	-4806
▁المحطات	-4807
▁المشترك	-4808
▁والثقاف	-4809
▁الانتقال	-4810
▁التاريخي	-4811
▁الجماعات	-4812
▁الفارسيه	-4813
▁المتخصصه	-4814
▁المعاصره	-4815
▁المنتجات	-4816
▁الموافقه	-4817
▁والبرامج	-4818
▁التطبيقيه	-4819
▁المعادلات	-4820
▁الثمانينات	-4821
▁العثمانيين	-4822
▁المستخدمين	-4823
▁امبراطوريه	-4824
87	-4825
ئل	-4826
صن	-4827
غا	-4828
غن	-4829
ائط	-4830
اخر	-4831
اصر	-4832
افر	-4833
بعد	-4834
ثرت	-4835
خرج	-4836
دخل	-4837
ديس	-4838
رام	-4839
شفت	-4840
صفح	-4841
عضو	-4842
غرب	-4843
قوا	-4844
هاء	-4845
وبا	-4846
ويق	-4847
▁0.	-4848
▁جب	-4849
▁ضم	-4850
▁يو	-4851
امون	-4852
تمام	-4853
جلات	-4854
حلول	-4855
رابل	-4856
غلال	-4857
هلاك	-4858
وائز	-4859
وقعه	-4860
▁180	-4861
▁باف	-4862
▁رائ	-4863
▁سام	-4864
▁سان	-4865
▁سمح	-4866
▁سيف	-4867
▁صرح	-4868
▁عاش	-4869
▁فرع	-4870
▁لبث	-4871
▁نظم	-4872
▁وتل	-4873
▁وكن	-4874
▁ومد	-4875
▁يشت	-4876
▁ينص	-4877
صرفيه	-4878
وانيه	-4879
▁2018	-4880
▁اخذت	-4881
▁الرب	-4882
▁القل	-4883
▁بالخ	-4884
▁تؤدي	-4885
▁تاتي	-4886
▁تدير	-4887
▁تصبح	-4888
▁جامع	-4889
▁جمال	-4890
▁جندي	-4891
▁جهود	-4892
▁حققت	-4893
▁داعش	-4894
▁زياد	-4895
▁شروط	-4896
▁عادت	-4897
▁عامل	-4898
▁فرقه	-4899
▁مؤشر	-4900
▁معني	-4901
▁مهما	-4902
▁نفوذ	-4903
▁وباك	-4904
▁ودول	-4905
▁اسواق	-4906
▁الايط	-4907
▁البنك	-4908
▁البير	-4909
▁الجاه	-4910
▁السلط	-4911
▁الصين	-4912
▁العاب	-4913
▁الفكر	-4914
▁الكتر	-4915
▁الميد	-4916
▁اماكن	-4917
▁انشئت	-4918
▁بحريه	-4919
▁بقيمه	-4920
▁تحرير	-4921
▁تحسين	-4922
▁تدمير	-4923
▁ثقافه	-4924
▁حراره	-4925
▁رساله	-4926
▁ظاهره	-4927
▁فرعيه	-4928
▁للعمل	-4929
▁محليه	-4930
▁مشترك	-4931
▁معسكر	-4932
▁مفهوم	-4933
▁مكتبه	-4934
▁ممالك	-4935
▁واحدا	-4936
▁والاش	-4937
▁والاك	-4938
▁والتص	-4939
▁والرا	-4940
▁والشر	-4941
▁ورئيس	-4942
▁وقامت	-4943
▁التجري	-4944
▁التحكم	-4945
▁التطور	-4946
▁الجدار	-4947
▁الجهاز	-4948
▁الحريه	-4949
▁الدواء	-4950
▁الرياح	-4951
▁الساعه	-4952
▁الشبكه	-4953
▁الفيلم	-4954
▁القدره	-4955
▁القضاء	-4956
▁المزيد	-4957
▁المطار	-4958
▁النسخه	-4959
▁النطاق	-4960
▁الهجوم	-4961
▁الوهاب	-4962
▁انتقلت	-4963
▁باعاده	-4964
▁قطاعات	-4965
▁مشاريع	-4966
▁مفتوحه	-4967
▁مقاطعه	-4968
▁منتجات	-4969
▁ميلادي	-4970
▁يتجاوز	-4971
▁الارثوذ	-4972
▁الاموال	-4973
▁الاهميه	-4974
▁التقنيه	-4975
▁الجامعي	-4976
▁الجبريه	-4977
▁الرابعه	-4978
▁الرياضي	-4979
▁الزراعي	-4980
▁الفلسفه	-4981
▁القبليه	-4982
▁الماضيه	-4983
▁المقدسه	-4984
▁الممتده	-4985
▁النقديه	-4986
▁امكانيه	-4987
▁للاتحاد	-4988
▁والعالم	-4989
▁القضائيه	-4990
▁الكهرباء	-4991
▁المستقبل	-4992
▁الموسيقيه	-4993
.،	-4994
17	-4995
35	-4996
54	-4997
84	-4998
ئذ	-4999
خا	-5000
نز	-5001
▁[	-5002
▁؛	-5003
800	-5004
اصل	-5005
باق	-5006
حكم	-5007
دود	-5008
ذيه	-5009
صاص	-5010
لان	-5011
نيد	-5012
واز	-5013
وزه	-5014
وكي	-5015
يبه	-5016
▁تض	-5017
▁سك	-5018
▁قح	-5019
اتيه	-5020
ايده	-5021
ايير	-5022
دهرت	-5023
رجان	-5024
رنسي	-5025
شارع	-5026
ضائع	-5027
طاعم	-5028
طوره	-5029
طيات	-5030
عترف	-5031
قليل	-5032
لندا	-5033
ماذج	-5034
ندوق	-5035
واجه	-5036
وادم	-5037
وبيه	-5038
وسبه	-5039
ونات	-5040
▁(20	-5041
▁بام	-5042
▁بهم	-5043
▁خطا	-5044
▁ذوي	-5045
▁زال	-5046
▁سبع	-5047
▁شعب	-5048
▁صيف	-5049
▁فور	-5050
▁قضي	-5051
▁قله	-5052
▁قيا	-5053
▁قيم	-5054
▁كرد	-5055
▁لات	-5056
▁لاج	-5057
▁لحن	-5058
▁للز	-5059
▁لمو	-5060
▁مده	-5061
▁مقت	-5062
▁منع	-5063
▁نهي	-5064
▁هات	-5065
▁هدف	-5066
▁هير	-5067
▁واز	-5068
▁وتج	-5069
▁ودي	-5070
▁ورا	-5071
▁وفر	-5072
▁ومي	-5073
اريين	-5074
اليين	-5075
دائيه	-5076
رابلس	-5077
راعات	-5078
سيطره	-5079
ليموس	-5080
ماثيل	-5081
ماليك	-5082
▁1980	-5083
▁اصغر	-5084
▁الحو	-5085
▁الدع	-5086
▁الصخ	-5087
▁المم	-5088
▁النص	-5089
▁بلده	-5090
▁تدعم	-5091
▁تركز	-5092
▁تصدر	-5093
▁توقي	-5094
▁حريه	-5095
▁دفعت	-5096
▁ساعه	-5097
▁عالي	-5098
▁عقود	-5099
▁علاج	-5100
▁عهده	-5101
▁فريد	-5102
▁للاد	-5103
▁مكعب	-5104
▁مناز	-5105
▁نبات	-5106
▁نهاد	-5107
▁ودخل	-5108
▁وسمي	-5109
▁ولعل	-5110
▁يوما	-5111
اديميه	-5112
فاقيات	-5113
▁2001،	-5114
▁اتجاه	-5115
▁اجراء	-5116
▁اغلاق	-5117
▁اكتشف	-5118
▁الصحف	-5119
▁المسل	-5120
▁الميت	-5121
▁انشات	-5122
▁اوروب	-5123
▁تقنيه	-5124
▁جماعه	-5125
▁حديثا	-5126
▁حضاره	-5127
▁حينها	-5128
▁قائلا	-5129
▁كيفيه	-5130
▁لحقوق	-5131
▁مجددا	-5132
▁والبي	-5133
▁والفر	-5134
▁وبلاد	-5135
▁وتمكن	-5136
▁وجوده	-5137
▁يتمتع	-5138
▁يتميز	-5139
▁ينبغي	-5140
▁يوميا	-5141
▁استعمل	-5142
▁التربه	-5143
▁الحجاز	-5144
▁الحفاظ	-5145
▁الخطوط	-5146
▁الذاتي	-5147
▁الروسي	-5148
▁السنوي	-5149
▁الصحرا	-5150
▁الطيور	-5151
▁العظمي	-5152
▁الكامل	-5153
▁المنطق	-5154
▁الناطق	-5155
▁النواب	-5156
▁انهيار	-5157
▁بالاست	-5158
▁بينهما	-5159
▁ثمانيه	-5160
▁دوراني	-5161
▁قضائيه	-5162
▁معالجه	-5163
▁واعاده	-5164
▁والغرب	-5165
▁وبحلول	-5166
▁وجامعه	-5167
▁استضافت	-5168
▁اسلاميه	-5169
▁الاخرين	-5170
▁الادوات	-5171
▁الاغريق	-5172
▁التعامل	-5173
▁الشوارع	-5174
▁الطوائف	-5175
▁القضايا	-5176
▁الكتابه	-5177
▁المؤتمر	-5178
▁الملفات	-5179
▁الموافق	-5180
▁النهايه	-5181
▁الهنديه	-5182
▁للمدينه	-5183
▁واستمرت	-5184
▁وفلسطين	-5185
▁الاسرائي	-5186
▁الانسحاب	-5187
▁الحقيقيه	-5188
▁السكانيه	-5189
▁اللاجئين	-5190
▁المعالجه	-5191
▁التعليميه	-5192
▁الجغرافيه	-5193
▁المحافظات	-5194
▁المرتفعات	-5195
▁والسياسيه	-5196
▁التلفزيونيه	-5197
,0	-5198
.6	-5199
88	-5200
شح	-5201
صا	-5202
فو	-5203
لل	-5204
اخذ	-5205
تون	-5206
زيج	-5207
ستي	-5208
سيد	-5209
شاه	-5210
ضعف	-5211
طرح	-5212
طرد	-5213
فيف	-5214
قلت	-5215
لاس	-5216
مام	-5217
مرد	-5218
وبل	-5219
ورن	-5220
▁ذي	-5221
▁عث	-5222
اتهم	-5223
ارها	-5224
انتو	-5225
اهيم	-5226
برمج	-5227
رائم	-5228
رتبه	-5229
سيحي	-5230
عمان	-5231
قيمت	-5232
مرات	-5233
ملها	-5234
وكول	-5235
يتها	-5236
يلاد	-5237
▁150	-5238
▁انق	-5239
▁باح	-5240
▁بتح	-5241
▁بتش	-5242
▁بتق	-5243
▁بصف	-5244
▁بنو	-5245
▁حفظ	-5246
▁ربط	-5247
▁ربع	-5248
▁رمز	-5249
▁ريث	-5250
▁زوج	-5251
▁عقب	-5252
▁فشل	-5253
▁قصه	-5254
▁كات	-5255
▁محي	-5256
▁مرض	-5257
▁مشه	-5258
▁ممن	-5259
▁منز	-5260
▁نقص	-5261
▁يسم	-5262
زيوني	-5263
▁1945	-5264
▁1966	-5265
▁1967	-5266
▁1973	-5267
▁1975	-5268
▁1989	-5269
▁1992	-5270
▁ابدا	-5271
▁ازمه	-5272
▁الوظ	-5273
▁بارك	-5274
▁بالك	-5275
▁بضعه	-5276
▁بعدم	-5277
▁بنحو	-5278
▁تجري	-5279
▁تقام	-5280
▁توسع	-5281
▁حصول	-5282
▁دوري	-5283
▁رشيد	-5284
▁سبعه	-5285
▁سجلت	-5286
▁سيطر	-5287
▁شراء	-5288
▁شرقي	-5289
▁طاقه	-5290
▁عزام	-5291
▁فاست	-5292
▁كارل	-5293
▁مؤقت	-5294
▁مثال	-5295
▁معهد	-5296
▁معهم	-5297
▁منزل	-5298
▁نواه	-5299
▁نيوز	-5300
▁هاما	-5301
▁هرمز	-5302
▁ونصف	-5303
▁يقال	-5304
طبيقات	-5305
عمليات	-5306
لفزيون	-5307
ولوجيه	-5308
▁اتصال	-5309
▁اجريت	-5310
▁اذاعه	-5311
▁ارباح	-5312
▁افكار	-5313
▁الارت	-5314
▁الحجم	-5315
▁الحدث	-5316
▁الرائ	-5317
▁الصفر	-5318
▁القول	-5319
▁المتب	-5320
▁المرا	-5321
▁المسا	-5322
▁النصف	-5323
▁امتدت	-5324
▁برمجه	-5325
▁بنفسه	-5326
▁تحولت	-5327
▁تحويل	-5328
▁تعاني	-5329
▁تكلفه	-5330
▁خمسين	-5331
▁روايه	-5332
▁سياره	-5333
▁عضويه	-5334
▁فترات	-5335
▁فمثلا	-5336
▁قابله	-5337
▁كافيه	-5338
▁كونها	-5339
▁لبناء	-5340
▁لعمان	-5341
▁ليكون	-5342
▁مسافه	-5343
▁معالم	-5344
▁معرفه	-5345
▁ملحوظ	-5346
▁منخفض	-5347
▁نهيان	-5348
▁هزيمه	-5349
▁واطلق	-5350
▁والبن	-5351
▁والمؤ	-5352
▁واليا	-5353
▁وبشكل	-5354
▁ولذلك	-5355
▁ومركز	-5356
▁ازدياد	-5357
▁الاساس	-5358
▁الامور	-5359
▁البديه	-5360
▁الجامع	-5361
▁الجنسي	-5362
▁الذهبي	-5363
▁الرقمي	-5364
▁الزمان	-5365
▁الصغير	-5366
▁العثور	-5367
▁القرار	-5368
▁القيام	-5369
▁الكميه	-5370
▁المقام	-5371
▁الملكي	-5372
▁انخفاض	-5373
▁بالذكر	-5374
▁حضرموت	-5375
▁لاغراض	-5376
▁مماثله	-5377
▁والذين	-5378
▁والمعر	-5379
▁وايران	-5380
▁ومنطقه	-5381
يكروسوفت	-5382
▁استقرار	-5383
▁البتراء	-5384
▁البشتون	-5385
▁التسميه	-5386
▁التصنيف	-5387
▁التوالي	-5388
▁السكنيه	-5389
▁السياحي	-5390
▁الصناعي	-5391
▁المباشر	-5392
▁النهائي	-5393
▁الهواتف	-5394
▁كردستان	-5395
▁والاردن	-5396
▁والدوله	-5397
▁الاسيويه	-5398
▁الاقليات	-5399
▁الغنائيه	-5400
▁المعدنيه	-5401
▁والمناطق	-5402
▁وباكستان	-5403
▁استخدامها	-5404
▁الايرانيه	-5405
▁التسعينات	-5406
▁العمانيون	-5407
▁تكنولوجيا	-5408
▁للاستخدام	-5409
▁والولايات	-5410
▁استراتيجيه	-5411
▁لافغانستان	-5412
15	-5413
44	-5414
49	-5415
96	-5416
سد	-5417
اجي	-5418
افع	-5419
برز	-5420
جمه	-5421
ذره	-5422
رفع	-5423
زلج	-5424
سار	-5425
شاد	-5426
فات	-5427
قاق	-5428
لوث	-5429
ليز	-5430
ماط	-5431
مده	-5432
نعه	-5433
همت	-5434
وكل	-5435
▁35	-5436
▁حظ	-5437
▁رج	-5438
▁شك	-5439
▁طر	-5440
▁فح	-5441
▁مظ	-5442
▁مو	-5443
ؤسسه	-5444
اخره	-5445
التي	-5446
اهمه	-5447
حدود	-5448
حويل	-5449
خاصه	-5450
دريب	-5451
ربون	-5452
رجال	-5453
رعان	-5454
رفين	-5455
رويج	-5456
ساقط	-5457
عيات	-5458
فيات	-5459
قاعد	-5460
قايا	-5461
قتها	-5462
لامي	-5463
ليني	-5464
ناسب	-5465
نتها	-5466
واقف	-5467
▁120	-5468
▁140	-5469
▁187	-5470
▁اير	-5471
▁بتن	-5472
▁بكر	-5473
▁خلق	-5474
▁دمج	-5475
▁ريف	-5476
▁سعر	-5477
▁سين	-5478
▁شعر	-5479
▁صله	-5480
▁ظلت	-5481
▁فات	-5482
▁فهم	-5483
▁قمه	-5484
▁كاف	-5485
▁لزي	-5486
▁للك	-5487
▁لنا	-5488
▁موز	-5489
▁وبح	-5490
▁ويع	-5491
▁ويل	-5492
ادثات	-5493
اعدات	-5494
دارات	-5495
راسان	-5496
طالبه	-5497
▁(200	-5498
▁اراد	-5499
▁استش	-5500
▁استي	-5501
▁اطول	-5502
▁اقوي	-5503
▁الاو	-5504
▁الجر	-5505
▁الخب	-5506
▁امين	-5507
▁اندل	-5508
▁بعمل	-5509
▁بهذه	-5510
▁تجمع	-5511
▁جعفر	-5512
▁جيوش	-5513
▁حافظ	-5514
▁حكام	-5515
▁حلول	-5516
▁دعوي	-5517
▁صلاه	-5518
▁طارق	-5519
▁طويل	-5520
▁طيله	-5521
▁عروض	-5522
▁عنصر	-5523
▁عوده	-5524
▁قالت	-5525
▁قليل	-5526
▁مؤرخ	-5527
▁مارب	-5528
▁موقف	-5529
▁نشاط	-5530
▁هجره	-5531
▁وارت	-5532
▁وتحت	-5533
▁وقتل	-5534
▁وهما	-5535
▁يبدو	-5536
▁يحمل	-5537
برانتو	-5538
غييرات	-5539
▁2000،	-5540
▁2005.	-5541
▁2006.	-5542
▁ادخال	-5543
▁اشجار	-5544
▁اعوام	-5545
▁البدو	-5546
▁البعث	-5547
▁البيت	-5548
▁الحري	-5549
▁الخمس	-5550
▁الريف	-5551
▁المشر	-5552
▁الموض	-5553
▁الياب	-5554
▁باريس	-5555
▁بعلبك	-5556
▁تتوفر	-5557
▁تجاره	-5558
▁تعليم	-5559
▁تنتمي	-5560
▁تنقسم	-5561
▁جزئيا	-5562
▁جمعيه	-5563
▁جنوبي	-5564
▁حياته	-5565
▁شاركت	-5566
▁شوارع	-5567
▁طبيعه	-5568
▁عنوان	-5569
▁لجميع	-5570
▁لغتهم	-5571
▁لمجلس	-5572
▁مباشر	-5573
▁متعدد	-5574
▁محكمه	-5575
▁مدنيه	-5576
▁مراحل	-5577
▁مشكله	-5578
▁مكانه	-5579
▁ميثاق	-5580
▁نيسان	-5581
▁واتخذ	-5582
▁واعلن	-5583
▁والاي	-5584
▁والحض	-5585
▁والمد	-5586
▁والمق	-5587
▁وتعرض	-5588
▁وشركه	-5589
▁وطنيه	-5590
▁ونسبه	-5591
▁ويبلغ	-5592
▁ويعود	-5593
وركسترا	-5594
▁اساسيه	-5595
▁الادني	-5596
▁التخصص	-5597
▁التقدم	-5598
▁الحمله	-5599
▁الخصوص	-5600
▁السنين	-5601
▁الشريف	-5602
▁الظروف	-5603
▁القائم	-5604
▁الكعبه	-5605
▁المسيح	-5606
▁المنتج	-5607
▁المنزل	-5608
▁المهند	-5609
▁الهاتف	-5610
▁الوجود	-5611
▁اليمني	-5612
▁بدورها	-5613
▁حكوميه	-5614
▁طائرات	-5615
▁لانتاج	-5616
▁مبيعات	-5617
▁مرتفعه	-5618
▁مشاركه	-5619
▁والانت	-5620
▁والمدن	-5621
▁وبرامج	-5622
▁وجودها	-5623
▁وزياده	-5624
▁وكانوا	-5625
▁ونظريه	-5626
▁اقليميه	-5627
▁الاتفاق	-5628
▁الاحوال	-5629
▁الاسلحه	-5630
▁الانجاز	-5631
▁الانواع	-5632
▁البرمجه	-5633
▁الترفيه	-5634
▁التقرير	-5635
▁الرقميه	-5636
▁الضواحي	-5637
▁العديده	-5638
▁القصيره	-5639
▁القوميه	-5640
▁النظريه	-5641
▁اليوميه	-5642
▁امريكيه	-5643
▁اهتماما	-5644
▁بطليموس	-5645
▁تلفزيون	-5646
▁يتحدثون	-5647
▁الاغلبيه	-5648
▁الشخصيات	-5649
▁العائلات	-5650
▁المحموله	-5651
▁المماليك	-5652
▁باعتباره	-5653
▁لالمانيا	-5654
▁للمستخدم	-5655
▁والاجهزه	-5656
▁والثقافه	-5657
▁والحكومه	-5658
▁الاستيلاء	-5659
▁الاعلانات	-5660
▁التنفيذيه	-5661
▁السوفييتي	-5662
▁المقاطعات	-5663
▁باعتبارها	-5664
▁تلفزيونيه	-5665
▁والمنظمات	-5666
▁الاستونيين	-5667
▁الاسرائيلي	-5668
▁السبعينيات	-5669
▁المستوطنات	-5670
▁والاجتماعيه	-5671
39	-5672
76	-5673
ؤل	-5674
جو	-5675
قس	-5676
لد	-5677
يق	-5678
اءه	-5679
ائح	-5680
ائن	-5681
ابق	-5682
الك	-5683
انع	-5684
اوز	-5685
بعا	-5686
تيح	-5687
جيع	-5688
حام	-5689
خاذ	-5690
خيص	-5691
ديق	-5692
ذبه	-5693
ساس	-5694
صدر	-5695
عاش	-5696
غبه	-5697
فان	-5698
كوس	-5699
ليش	-5700
واي	-5701
ولف	-5702
▁32	-5703
▁37	-5704
▁63	-5705
▁خر	-5706
▁دب	-5707
▁عز	-5708
▁قم	-5709
▁لض	-5710
الما	-5711
حدات	-5712
خصيص	-5713
ريقي	-5714
شارد	-5715
شاور	-5716
صيده	-5717
طباء	-5718
طلاب	-5719
ظيمه	-5720
عتين	-5721
عومه	-5722
غطيه	-5723
فتوح	-5724
ناول	-5725
واطئ	-5726
وانب	-5727
وحيه	-5728
وسعت	-5729
ومان	-5730
ويلا	-5731
▁اعد	-5732
▁بمح	-5733
▁بنك	-5734
▁تقي	-5735
▁جلب	-5736
▁جمه	-5737
▁حاج	-5738
▁حجر	-5739
▁حدد	-5740
▁حمد	-5741
▁دعا	-5742
▁ريت	-5743
▁زاد	-5744
▁زعم	-5745
▁سما	-5746
▁غنت	-5747
▁فاس	-5748
▁كام	-5749
▁لاخ	-5750
▁لتس	-5751
▁للض	-5752
▁للط	-5753
▁مرك	-5754
▁وتر	-5755
▁وتس	-5756
▁ورب	-5757
▁وسل	-5758
▁ومؤ	-5759
▁ويؤ	-5760
▁يخت	-5761
▁يقل	-5762
جاجات	-5763
رادات	-5764
رياضه	-5765
فالات	-5766
ليديه	-5767
▁1000	-5768
▁1979	-5769
▁1988	-5770
▁1997	-5771
▁2021	-5772
▁اختر	-5773
▁اسما	-5774
▁اشور	-5775
▁البخ	-5776
▁الصل	-5777
▁بارت	-5778
▁ببعض	-5779
▁بدءا	-5780
▁بدعم	-5781
▁بروت	-5782
▁بشده	-5783
▁تتخذ	-5784
▁تدخل	-5785
▁تربط	-5786
▁تلعب	-5787
▁تهدف	-5788
▁جافا	-5789
▁جدار	-5790
▁جنبا	-5791
▁جنيه	-5792
▁حقبه	-5793
▁حيدر	-5794
▁دليل	-5795
▁دولي	-5796
▁سلاح	-5797
▁ضخمه	-5798
▁قاعه	-5799
▁لعبت	-5800
▁لنقل	-5801
▁مضيق	-5802
▁نشرت	-5803
▁نموا	-5804
▁نوبل	-5805
▁وحلف	-5806
▁وعمل	-5807
▁وقبل	-5808
▁ويقع	-5809
▁ياتي	-5810
▁يمتد	-5811
ستوريه	-5812
سيحيين	-5813
▁1996،	-5814
▁2013،	-5815
▁احصاء	-5816
▁اخرون	-5817
▁ارتبا	-5818
▁ارسال	-5819
▁اشاره	-5820
▁الاكس	-5821
▁السيد	-5822
▁السير	-5823
▁الشهر	-5824
▁الضغط	-5825
▁العشر	-5826
▁الكره	-5827
▁الكلي	-5828
▁المرج	-5829
▁المرض	-5830
▁الهاش	-5831
▁باسمه	-5832
▁بخاري	-5833
▁بعدما	-5834
▁بكثير	-5835
▁تتطلب	-5836
▁تتعلق	-5837
▁تجاري	-5838
▁ترجمه	-5839
▁تفجير	-5840
▁تقليد	-5841
▁تمويل	-5842
▁تناول	-5843
▁تواجد	-5844
▁توزيع	-5845
▁زياره	-5846
▁شديده	-5847
▁عامين	-5848
▁قدرها	-5849
▁قراءه	-5850
▁لتصبح	-5851
▁مؤتمر	-5852
▁مستقل	-5853
▁معروف	-5854
▁مكاتب	-5855
▁واجهه	-5856
▁وتبلغ	-5857
▁وتقوم	-5858
▁وزراء	-5859
▁وشهدت	-5860
▁ويكون	-5861
حيوانات	-5862
▁استولي	-5863
▁اعتماد	-5864
▁الازمه	-5865
▁الاقصي	-5866
▁الجنود	-5867
▁الحاكم	-5868
▁الحصار	-5869
▁الديني	-5870
▁الرموز	-5871
▁السويد	-5872
▁الفساد	-5873
▁القتال	-5874
▁القلعه	-5875
▁الكريم	-5876
▁المستع	-5877
▁المعيش	-5878
▁المقدس	-5879
▁النمسا	-5880
▁انسحاب	-5881
▁اهتمام	-5882
▁باتجاه	-5883
▁بالفعل	-5884
▁برئاسه	-5885
▁بنائها	-5886
▁حضارات	-5887
▁ديمقرا	-5888
▁طبيعيه	-5889
▁مسيحيه	-5890
▁معدلات	-5891
▁مواطني	-5892
▁موقعها	-5893
▁ومملكه	-5894
▁يجعلها	-5895
▁الاتصال	-5896
▁الاجزاء	-5897
▁الاحزاب	-5898
▁الاطلاق	-5899
▁الامويه	-5900
▁الانفاق	-5901
▁الثامنه	-5902
▁الجميله	-5903
▁الحمراء	-5904
▁الحيويه	-5905
▁الخيريه	-5906
▁السائده	-5907
▁العضويه	-5908
▁الفارسي	-5909
▁المحتله	-5910
▁المعارض	-5911
▁المعارك	-5912
▁المعالج	-5913
▁المعالم	-5914
▁المعركه	-5915
▁الميثاق	-5916
▁النتائج	-5917
▁الولايه	-5918
▁انتشارا	-5919
▁بالعديد	-5920
▁مساحتها	-5921
▁مستطيله	-5922
▁والدواء	-5923
▁استرليني	-5924
▁الامبراط	-5925
▁الامويين	-5926
▁المؤرخون	-5927
▁بالعربيه	-5928
▁لاستخدام	-5929
▁والتجاره	-5930
▁الاتفاقيه	-5931
▁الانسانيه	-5932
▁الحميريين	-5933
▁السياسيين	-5934
▁العباسيين	-5935
▁الاسكندريه	-5936
▁التسعينيات	-5937
▁الفنلنديين	-5938
▁الهيدروجين	-5939
▁التكنولوجيا	-5940
):	-5941
,7	-5942
.7	-5943
.8	-5944
41	-5945
82	-5946
98	-5947
تك	-5948
غد	-5949
نم	-5950
اهب	-5951
اهل	-5952
ايت	-5953
بنت	-5954
بول	-5955
ثوم	-5956
جون	-5957
حاق	-5958
حبت	-5959
رار	-5960
رضت	-5961
رهم	-5962
سور	-5963
سيج	-5964
صنه	-5965
طرف	-5966
عدا	-5967
غال	-5968
قار	-5969
كيم	-5970
مون	-5971
ناخ	-5972
ندق	-5973
نده	-5974
واض	-5975
وضح	-5976
▁(5	-5977
▁45	-5978
▁76	-5979
▁95	-5980
▁بذ	-5981
▁حج	-5982
▁خض	-5983
▁ذا	-5984
▁عا	-5985
▁كق	-5986
▁كه	-5987
▁مذ	-5988
ادله	-5989
اضول	-5990
اميم	-5991
باعه	-5992
جايه	-5993
خطيط	-5994
ديقه	-5995
ديله	-5996
ديون	-5997
زايد	-5998
ستها	-5999
سلات	-6000
صلحه	-6001
عماء	-6002
عمله	-6003
فاءه	-6004
فيين	-6005
قاطع	-6006
قامه	-6007
لابس	-6008
نفور	-6009
واها	-6010
واهر	-6011
وراه	-6012
وزيف	-6013
وصفه	-6014
ويات	-6015
▁امو	-6016
▁برا	-6017
▁بمت	-6018
▁بنت	-6019
▁تدل	-6020
▁تشت	-6021
▁تشي	-6022
▁تعا	-6023
▁تلت	-6024
▁حظر	-6025
▁درس	-6026
▁زرا	-6027
▁سعي	-6028
▁صيد	-6029
▁عكس	-6030
▁عيد	-6031
▁فاع	-6032
▁قطع	-6033
▁لذا	-6034
▁ماه	-6035
▁متن	-6036
▁نجد	-6037
▁هزم	-6038
▁واث	-6039
▁وبا	-6040
▁وبم	-6041
▁وبه	-6042
▁وتف	-6043
▁وسم	-6044
▁وعد	-6045
▁وقف	-6046
▁يمر	-6047
ارسات	-6048
افلات	-6049
حاوله	-6050
رائيه	-6051
راجعه	-6052
ساتين	-6053
سلمين	-6054
قيمين	-6055
لامات	-6056
وكاله	-6057
▁1918	-6058
▁3000	-6059
▁اسرع	-6060
▁اعيد	-6061
▁اغني	-6062
▁التك	-6063
▁الجو	-6064
▁السم	-6065
▁الضر	-6066
▁الكا	-6067
▁اللق	-6068
▁امرا	-6069
▁ايدي	-6070
▁بالغ	-6071
▁بدور	-6072
▁تاثر	-6073
▁تاسس	-6074
▁تدرس	-6075
▁ثالث	-6076
▁داود	-6077
▁دفاع	-6078
▁دمرت	-6079
▁ذاته	-6080
▁سقطت	-6081
▁سلام	-6082
▁شباط	-6083
▁شكلت	-6084
▁صحار	-6085
▁صفقه	-6086
▁طبقا	-6087
▁فقام	-6088
▁فلما	-6089
▁قاسم	-6090
▁قصير	-6091
▁قيود	-6092
▁كالم	-6093
▁للتن	-6094
▁للسل	-6095
▁ليله	-6096
▁ماده	-6097
▁مدين	-6098
▁مطلع	-6099
▁ممثل	-6100
▁نصيب	-6101
▁واخر	-6102
▁واقت	-6103
▁وبول	-6104
▁وتضم	-6105
▁ووصف	-6106
▁يحكم	-6107
▁يحوي	-6108
▁يربط	-6109
▁يشمل	-6110
جموعات	-6111
ولوجيا	-6112
▁2001.	-6113
▁2003.	-6114
▁2009.	-6115
▁2017،	-6116
▁اختار	-6117
▁اسلوب	-6118
▁اقيمت	-6119
▁الانف	-6120
▁الاور	-6121
▁الحرم	-6122
▁الحفل	-6123
▁الحيه	-6124
▁الخطا	-6125
▁الربع	-6126
▁العدل	-6127
▁الغاء	-6128
▁الفعل	-6129
▁القري	-6130
▁المنز	-6131
▁النات	-6132
▁النمط	-6133
▁انتهي	-6134
▁انجاز	-6135
▁ايجاد	-6136
▁بالتج	-6137
▁تعاون	-6138
▁تعزيز	-6139
▁توافق	-6140
▁جديدا	-6141
▁دستور	-6142
▁رئاسه	-6143
▁شهاده	-6144
▁صنعاء	-6145
▁صياغه	-6146
▁عباده	-6147
▁عثمان	-6148
▁عشرين	-6149
▁عناصر	-6150
▁غيرها	-6151
▁كثافه	-6152
▁كلثوم	-6153
▁للامم	-6154
▁ليصبح	-6155
▁لينوس	-6156
▁محدود	-6157
▁مسيحي	-6158
▁موظفي	-6159
▁نتائج	-6160
▁واشهر	-6161
▁واغلب	-6162
▁والاز	-6163
▁والصح	-6164
▁والمص	-6165
▁وبلغت	-6166
▁وتكون	-6167
▁وجامع	-6168
▁وسيله	-6169
▁يتمكن	-6170
▁ينتشر	-6171
▁اجنبيه	-6172
▁التابع	-6173
▁التمرد	-6174
▁الخصيب	-6175
▁الشاعر	-6176
▁العلاج	-6177
▁المطاف	-6178
▁المكون	-6179
▁النادي	-6180
▁النسبه	-6181
▁النهضه	-6182
▁خارجيه	-6183
▁خراسان	-6184
▁داخليه	-6185
▁لتحقيق	-6186
▁للحفاظ	-6187
▁للسكان	-6188
▁لمدينه	-6189
▁مرتبطه	-6190
▁ممارسه	-6191
▁واداره	-6192
▁والبحر	-6193
▁وخدمات	-6194
▁ومنظمه	-6195
▁ونتيجه	-6196
▁يشكلون	-6197
▁استمرار	-6198
▁الاتراك	-6199
▁الاشكال	-6200
▁الامثله	-6201
▁الاهوار	-6202
▁البارده	-6203
▁البضائع	-6204
▁التصوير	-6205
▁التفكير	-6206
▁الحريري	-6207
▁الخضراء	-6208
▁الديانه	-6209
▁الشائعه	-6210
▁العموني	-6211
▁الكامله	-6212
▁المبكره	-6213
▁المحاكم	-6214
▁المشاكل	-6215
▁المعاصر	-6216
▁المعنيه	-6217
▁النوويه	-6218
▁للاطفال	-6219
▁للميلاد	-6220
▁واوروبا	-6221
▁ويستخدم	-6222
▁اجتماعيه	-6223
▁الاجتماع	-6224
▁الاذاعيه	-6225
▁الحكومات	-6226
▁القرارات	-6227
▁المباراه	-6228
▁المتعدده	-6229
▁المحافظه	-6230
▁المفتوحه	-6231
▁بالمدينه	-6232
▁استقلالها	-6233
▁الاستثمار	-6234
▁للرياضيات	-6235
▁الباكستاني	-6236
▁الخمسينيات	-6237
▁الكلاسيكيه	-6238
▁الثمانينيات	-6239
34	-6240
47	-6241
عو	-6242
غت	-6243
غو	-6244
قف	-6245
ئمه	-6246
ابا	-6247
باه	-6248
بني	-6249
ثمر	-6250
جبه	-6251
حرص	-6252
حله	-6253
خبه	-6254
خيل	-6255
دره	-6256
دمج	-6257
ساع	-6258
سكو	-6259
سوف	-6260
طبه	-6261
غوط	-6262
كيف	-6263
لقي	-6264
لون	-6265
منت	-6266
نام	-6267
وكر	-6268
▁41	-6269
▁ذر	-6270
▁فج	-6271
▁كع	-6272
▁وذ	-6273
ائهم	-6274
ارين	-6275
الذي	-6276
اويه	-6277
بطيه	-6278
بيات	-6279
تمون	-6280
ثيين	-6281
جابه	-6282
راقب	-6283
ساطه	-6284
ستخد	-6285
ستون	-6286
فيفه	-6287
قيمه	-6288
لفيه	-6289
مييز	-6290
نازل	-6291
وادث	-6292
وافذ	-6293
وحيد	-6294
وظبي	-6295
ياكل	-6296
يلان	-6297
▁1.5	-6298
▁اتش	-6299
▁ارج	-6300
▁اري	-6301
▁اغت	-6302
▁افغ	-6303
▁انع	-6304
▁باج	-6305
▁بتس	-6306
▁بحث	-6307
▁بحق	-6308
▁بمن	-6309
▁بنا	-6310
▁تده	-6311
▁جاك	-6312
▁جزر	-6313
▁جير	-6314
▁حاد	-6315
▁حلب	-6316
▁حلت	-6317
▁خسر	-6318
▁ذهب	-6319
▁سفي	-6320
▁سوء	-6321
▁صنف	-6322
▁ضعف	-6323
▁طرح	-6324
▁عود	-6325
▁غني	-6326
▁فئه	-6327
▁فري	-6328
▁قطب	-6329
▁قوي	-6330
▁كيو	-6331
▁لبي	-6332
▁لتص	-6333
▁لتم	-6334
▁لكي	-6335
▁للي	-6336
▁لمس	-6337
▁ليف	-6338
▁مات	-6339
▁ماد	-6340
▁مدر	-6341
▁مرب	-6342
▁مسب	-6343
▁مشر	-6344
▁معم	-6345
▁مها	-6346
▁ناد	-6347
▁هام	-6348
▁واه	-6349
▁وخل	-6350
▁وزي	-6351
▁وعن	-6352
▁يضم	-6353
▁يقط	-6354
ارسال	-6355
حتلال	-6356
دادات	-6357
ديلات	-6358
عاربه	-6359
قادات	-6360
ناعات	-6361
والتي	-6362
وريين	-6363
وسائل	-6364
▁1968	-6365
▁1993	-6366
▁اثرت	-6367
▁الته	-6368
▁الحس	-6369
▁السط	-6370
▁القم	-6371
▁الوك	-6372
▁ايمن	-6373
▁بالص	-6374
▁باله	-6375
▁بفعل	-6376
▁تبدا	-6377
▁تشار	-6378
▁تعيش	-6379
▁جيده	-6380
▁حديد	-6381
▁رفعت	-6382
▁سانت	-6383
▁سريه	-6384
▁شخصا	-6385
▁شعوب	-6386
▁شيئا	-6387
▁صحيح	-6388
▁ضفاف	-6389
▁طوال	-6390
▁غيره	-6391
▁فرضت	-6392
▁فنيه	-6393
▁فيله	-6394
▁قتلت	-6395
▁قديم	-6396
▁كشفت	-6397
▁كونه	-6398
▁لدول	-6399
▁لعمل	-6400
▁للاخ	-6401
▁للبي	-6402
▁لهجه	-6403
▁مارك	-6404
▁مجان	-6405
▁مستق	-6406
▁مكاف	-6407
▁مناس	-6408
▁مناه	-6409
▁مواد	-6410
▁موسم	-6411
▁موظف	-6412
▁هجوم	-6413
▁هنري	-6414
▁ورغم	-6415
▁وسام	-6416
▁وشكل	-6417
▁وعدم	-6418
▁وعرض	-6419
▁وعضو	-6420
▁وكتب	-6421
▁ولما	-6422
▁ولها	-6423
▁ويمت	-6424
▁يجري	-6425
▁يدخل	-6426
سيارات	-6427
صائيات	-6428
علومات	-6429
قاتلين	-6430
▁2017.	-6431
▁2019،	-6432
▁ابحاث	-6433
▁ابواب	-6434
▁اختلف	-6435
▁اخيرا	-6436
▁ارتبط	-6437
▁اشتهر	-6438
▁اعمار	-6439
▁الاقت	-6440
▁الالت	-6441
▁الاوب	-6442
▁البول	-6443
▁التاي	-6444
▁الجسم	-6445
▁الروح	-6446
▁الساس	-6447
▁الصرف	-6448
▁الصله	-6449
▁الضفه	-6450
▁الطول	-6451
▁العرش	-6452
▁الفائ	-6453
▁الفرق	-6454
▁القمر	-6455
▁المثل	-6456
▁المره	-6457
▁المفر	-6458
▁الموظ	-6459
▁الناش	-6460
▁النشر	-6461
▁النيا	-6462
▁الوسط	-6463
▁اوفيس	-6464
▁ايلول	-6465
▁بالاس	-6466
▁بالاع	-6467
▁ببناء	-6468
▁بسيطه	-6469
▁بلديه	-6470
▁تحتاج	-6471
▁تشتهر	-6472
▁تمكنت	-6473
▁حفلات	-6474
▁دينيه	-6475
▁ذاتها	-6476
▁ذاكره	-6477
▁ستكون	-6478
▁سلطات	-6479
▁عالمي	-6480
▁لدوله	-6481
▁للجيش	-6482
▁معارك	-6483
▁منصبه	-6484
▁موجات	-6485
▁واكبر	-6486
▁والبل	-6487
▁والتع	-6488
▁والشي	-6489
▁والمل	-6490
▁وبسبب	-6491
▁وتشكل	-6492
▁وربما	-6493
▁وعاده	-6494
▁ونادي	-6495
▁ويذكر	-6496
▁ويرجع	-6497
▁ويقول	-6498
▁يساعد	-6499
▁يمارس	-6500
▁اسابيع	-6501
▁افتتحت	-6502
▁الايام	-6503
▁الجهات	-6504
▁الجيوش	-6505
▁الحاسب	-6506
▁الدرجه	-6507
▁الشهير	-6508
▁القناه	-6509
▁اللجان	-6510
▁المؤمن	-6511
▁المائي	-6512
▁المطور	-6513
▁المعهد	-6514
▁النفوذ	-6515
▁الهيئه	-6516
▁امتداد	-6517
▁انقلاب	-6518
▁بالماء	-6519
▁تديرها	-6520
▁ثنائيه	-6521
▁قوانين	-6522
▁للاردن	-6523
▁للدفاع	-6524
▁متميزه	-6525
▁متوفره	-6526
▁مركزيه	-6527
▁مستمره	-6528
▁معاويه	-6529
▁معروفه	-6530
▁والدين	-6531
▁واللغه	-6532
▁وانشاء	-6533
▁وسنفور	-6534
▁الاجنبي	-6535
▁الارهاب	-6536
▁الاصدار	-6537
▁الاماره	-6538
▁الاوائل	-6539
▁الاوليه	-6540
▁التحرير	-6541
▁التحليل	-6542
▁التطوير	-6543
▁التمويل	-6544
▁الجماعه	-6545
▁الجوفيه	-6546
▁الحقيقه	-6547
▁الراديو	-6548
▁الطريقه	-6549
▁العائله	-6550
▁الفرعيه	-6551
▁اللازمه	-6552
▁المؤقته	-6553
▁المامون	-6554
▁المهنيه	-6555
▁الواسعه	-6556
▁الوثائق	-6557
▁ايطاليا	-6558
▁بالعراق	-6559
▁تاريخها	-6560
▁محافظات	-6561
▁واحيانا	-6562
▁والعلوم	-6563
▁والفنون	-6564
▁اقتصاديه	-6565
▁الاسكندر	-6566
▁البلديات	-6567
▁الحسابيه	-6568
▁السوفييت	-6569
▁الفنانين	-6570
▁القوانين	-6571
▁المصريين	-6572
▁المنافسه	-6573
▁برلمانيه	-6574
▁مهرجانات	-6575
▁والعربيه	-6576
▁الاستراتي	-6577
▁الستينيات	-6578
▁الفينيقيه	-6579
▁المعماريه	-6580
▁البروتستان	-6581
13	-6582
42	-6583
97	-6584
ئك	-6585
بو	-6586
زف	-6587
لز	-6588
لو	-6589
نر	-6590
نو	-6591
ادق	-6592
ارئ	-6593
انج	-6594
اين	-6595
دمر	-6596
دوا	-6597
دير	-6598
ربت	-6599
سبت	-6600
سطو	-6601
شير	-6602
صيل	-6603
صين	-6604
طفي	-6605
طلع	-6606
فيل	-6607
لوا	-6608
واس	-6609
وضا	-6610
يست	-6611
▁جو	-6612
▁غز	-6613
▁فش	-6614
▁قس	-6615
ائمه	-6616
حايا	-6617
حروب	-6618
درات	-6619
دنيه	-6620
راحه	-6621
ريكا	-6622
سهيل	-6623
سيين	-6624
شقند	-6625
ضافه	-6626
طبيق	-6627
عودي	-6628
عيان	-6629
فاوت	-6630
قدار	-6631
كاني	-6632
كرون	-6633
لهجه	-6634
ليلا	-6635
ملات	-6636
ميين	-6637
نادا	-6638
واجد	-6639
واصم	-6640
ورين	-6641
ومال	-6642
ويره	-6643
ويون	-6644
▁...	-6645
▁125	-6646
▁اسط	-6647
▁اعض	-6648
▁اون	-6649
▁باخ	-6650
▁ببر	-6651
▁ببط	-6652
▁بتج	-6653
▁بمر	-6654
▁تبث	-6655
▁تخل	-6656
▁جند	-6657
▁حزم	-6658
▁حوض	-6659
▁خال	-6660
▁خفض	-6661
▁ساي	-6662
▁سلم	-6663
▁سهل	-6664
▁شمس	-6665
▁صحف	-6666
▁صلي	-6667
▁كمد	-6668
▁كول	-6669
▁لار	-6670
▁متت	-6671
▁ملت	-6672
▁ملح	-6673
▁موق	-6674
▁نزل	-6675
▁هول	-6676
▁هيل	-6677
▁وتب	-6678
▁وصي	-6679
▁ومق	-6680
▁يعت	-6681
ادرات	-6682
اريات	-6683
رنسيه	-6684
سهوله	-6685
سينما	-6686
شكلات	-6687
طلحات	-6688
غيرات	-6689
قيقات	-6690
كامله	-6691
ميزات	-6692
▁1940	-6693
▁1971	-6694
▁2019	-6695
▁2022	-6696
▁اتفق	-6697
▁اداه	-6698
▁ادخل	-6699
▁ادرك	-6700
▁استد	-6701
▁اسفر	-6702
▁التت	-6703
▁الغز	-6704
▁الفع	-6705
▁اللح	-6706
▁اوبن	-6707
▁بالز	-6708
▁بيئه	-6709
▁بيان	-6710
▁تحتل	-6711
▁تخدم	-6712
▁تدفع	-6713
▁تدفق	-6714
▁تسعه	-6715
▁تعطي	-6716
▁توجه	-6717
▁حصار	-6718
▁حمير	-6719
▁خليل	-6720
▁دوست	-6721
▁رخصه	-6722
▁سليم	-6723
▁سوره	-6724
▁سيات	-6725
▁شهرا	-6726
▁صفحه	-6727
▁طابع	-6728
▁عرضت	-6729
▁عقدت	-6730
▁فاذا	-6731
▁فحسب	-6732
▁قدرت	-6733
▁لنهر	-6734
▁مبلغ	-6735
▁مجمع	-6736
▁ملكا	-6737
▁مهام	-6738
▁هامه	-6739
▁واخذ	-6740
▁واشت	-6741
▁واضح	-6742
▁ودار	-6743
▁وسلم	-6744
▁ومعر	-6745
▁ووضع	-6746
▁يبدا	-6747
▁يدرس	-6748
▁يصبح	-6749
▁يغطي	-6750
▁يقام	-6751
▁يقصد	-6752
▁يهود	-6753
مانيين	-6754
▁1990،	-6755
▁1998.	-6756
▁2013.	-6757
▁احتفظ	-6758
▁ارسطو	-6759
▁اعترف	-6760
▁اعتنق	-6761
▁اقليه	-6762
▁البشر	-6763
▁الفلك	-6764
▁الفوز	-6765
▁القبه	-6766
▁القطع	-6767
▁الليل	-6768
▁المدر	-6769
▁المسر	-6770
▁المغت	-6771
▁المقت	-6772
▁المند	-6773
▁المنس	-6774
▁النظم	-6775
▁انتها	-6776
▁انشطه	-6777
▁بالبر	-6778
▁بجايه	-6779
▁برميل	-6780
▁بعيده	-6781
▁بورصه	-6782
▁تتالف	-6783
▁ترتيب	-6784
▁توقيع	-6785
▁جوزيف	-6786
▁دقيقه	-6787
▁ساميه	-6788
▁سرعان	-6789
▁سهوله	-6790
▁سوريه	-6791
▁شرعيه	-6792
▁شيوعا	-6793
▁عددها	-6794
▁عسكري	-6795
▁عشرات	-6796
▁علميه	-6797
▁فانها	-6798
▁فرناس	-6799
▁فيقول	-6800
▁قحطان	-6801
▁كمركز	-6802
▁لدرجه	-6803
▁لديهم	-6804
▁للدول	-6805
▁ماليه	-6806
▁محاول	-6807
▁مقرها	-6808
▁مناصب	-6809
▁والتق	-6810
▁وتطور	-6811
▁وثلاث	-6812
▁وجيزه	-6813
▁وحدات	-6814
▁وشارع	-6815
▁وظائف	-6816
▁وقتها	-6817
▁وقناه	-6818
▁وقوات	-6819
▁ووادي	-6820
▁ويطلق	-6821
▁ويعمل	-6822
▁ويقدر	-6823
▁ويقوم	-6824
▁يعادل	-6825
▁ابوظبي	-6826
▁اختلاف	-6827
▁اشهرها	-6828
▁اعماله	-6829
▁التدخل	-6830
▁الحاله	-6831
▁الحرير	-6832
▁الحكمه	-6833
▁الخطاب	-6834
▁الدنيا	-6835
▁الذكور	-6836
▁الساحه	-6837
▁الشركس	-6838
▁الشيوخ	-6839
▁الصفقه	-6840
▁الطبقه	-6841
▁العنصر	-6842
▁القليل	-6843
▁اللقاح	-6844
▁المائه	-6845
▁المشرق	-6846
▁المعني	-6847
▁المفوض	-6848
▁المقرر	-6849
▁النقوش	-6850
▁انتقال	-6851
▁اندلعت	-6852
▁بالانت	-6853
▁بكتابه	-6854
▁تستطيع	-6855
▁تستعمل	-6856
▁سياسيا	-6857
▁شماليه	-6858
▁لانشاء	-6859
▁لتقديم	-6860
▁لوزاره	-6861
▁مواجهه	-6862
▁وبخاصه	-6863
▁وتركيا	-6864
▁ومدينه	-6865
▁الاحتيا	-6866
▁الاديان	-6867
▁الاسماء	-6868
▁الافراد	-6869
▁الافكار	-6870
▁الامانه	-6871
▁البارزه	-6872
▁البلديه	-6873
▁التداول	-6874
▁التدريب	-6875
▁التشكيل	-6876
▁التوزيع	-6877
▁الحوسبه	-6878
▁الخارجي	-6879
▁الدقيقه	-6880
▁الروايه	-6881
▁الصحيحه	-6882
▁الصيفيه	-6883
▁العبريه	-6884
▁العرقيه	-6885
▁العملاء	-6886
▁القادمه	-6887
▁القوافل	-6888
▁الكثافه	-6889
▁الكربون	-6890
▁الكلمات	-6891
▁الكنائس	-6892
▁المنتخب	-6893
▁الموانئ	-6894
▁الناطقه	-6895
▁اليونان	-6896
▁تقديرات	-6897
▁للحكومه	-6898
▁للشركات	-6899
▁مفاوضات	-6900
▁ميزانيه	-6901
▁واستخدم	-6902
▁والقوات	-6903
▁وانتشار	-6904
▁الاشارات	-6905
▁الاصليين	-6906
▁الاعتماد	-6907
▁الاكسجين	-6908
▁الاناضول	-6909
▁الانتشار	-6910
▁الاهتمام	-6911
▁الباحثين	-6912
▁الثنائيه	-6913
▁الستينات	-6914
▁المتبقيه	-6915
▁المتوسطه	-6916
▁المستهلك	-6917
▁المعارضه	-6918
▁المواضيع	-6919
▁الهاشميه	-6920
▁بالقاهره	-6921
▁والاخوين	-6922
▁والتاريخ	-6923
▁والتطوير	-6924
▁والخدمات	-6925
▁والمانيا	-6926
▁الخمسينات	-6927
▁الصحراويه	-6928
▁المسؤوليه	-6929
▁المسيحيون	-6930
▁والامارات	-6931
▁والموسيقي	-6932
▁وافغانستان	-6933
▁الدبلوماسيه	-6934
,3	-6935
21	-6936
65	-6937
67	-6938
زق	-6939
صت	-6940
ئيل	-6941
اصي	-6942
بوب	-6943
تيش	-6944
جرت	-6945
جرد	-6946
حرف	-6947
زون	-6948
سيح	-6949
سير	-6950
شرا	-6951
عده	-6952
علن	-6953
عوا	-6954
فاد	-6955
فاه	-6956
فون	-6957
فيز	-6958
قبه	-6959
قده	-6960
قرت	-6961
قود	-6962
كاء	-6963
كوك	-6964
لفه	-6965
ليب	-6966
ماح	-6967
نود	-6968
وهم	-6969
ياف	-6970
يرت	-6971
▁كح	-6972
▁كخ	-6973
الفه	-6974
اندن	-6975
بيرغ	-6976
بيون	-6977
دران	-6978
زاره	-6979
ضاعف	-6980
طقيه	-6981
ظاهر	-6982
عرفه	-6983
فاضه	-6984
فورت	-6985
قلها	-6986
كتور	-6987
لاند	-6988
ليها	-6989
وساط	-6990
وصول	-6991
ونزي	-6992
وهان	-6993
يرمو	-6994
يروس	-6995
يمات	-6996
ينها	-6997
▁(17	-6998
▁2.5	-6999
▁اصط	-7000
▁اوف	-7001
▁بمس	-7002
▁بمه	-7003
▁تفس	-7004
▁تلق	-7005
▁توق	-7006
▁دام	-7007
▁دير	-7008
▁زار	-7009
▁سور	-7010
▁طرد	-7011
▁غضب	-7012
▁فجر	-7013
▁قيل	-7014
▁كرب	-7015
▁كلم	-7016
▁لسل	-7017
▁ليت	-7018
▁متف	-7019
▁مون	-7020
▁ناج	-7021
▁نقد	-7022
▁نيا	-7023
▁وبد	-7024
▁وتخ	-7025
▁وقل	-7026
▁ولت	-7027
▁ويج	-7028
ئتلاف	-7029
اتفيا	-7030
ادتها	-7031
ارتها	-7032
درالي	-7033
ستاني	-7034
شاطات	-7035
قياده	-7036
كفورت	-7037
وائيه	-7038
وانتك	-7039
ولوجي	-7040
ونسكو	-7041
ونيان	-7042
ويديه	-7043
▁1936	-7044
▁1941	-7045
▁1944	-7046
▁1960	-7047
▁1961	-7048
▁1981	-7049
▁5000	-7050
▁ابان	-7051
▁احتل	-7052
▁ادني	-7053
▁اعاد	-7054
▁اعطي	-7055
▁الخش	-7056
▁الوف	-7057
▁الين	-7058
▁انتص	-7059
▁بالط	-7060
▁بوضع	-7061
▁بيتر	-7062
▁ترجع	-7063
▁تقسم	-7064
▁تقول	-7065
▁تلقي	-7066
▁تملك	-7067
▁جعله	-7068
▁جيدا	-7069
▁حديث	-7070
▁حروف	-7071
▁حزمه	-7072
▁خلاف	-7073
▁دعما	-7074
▁سالم	-7075
▁صباح	-7076
▁صدرت	-7077
▁طلاب	-7078
▁طلال	-7079
▁غربي	-7080
▁فازت	-7081
▁قائم	-7082
▁قررت	-7083
▁لابن	-7084
▁لدعم	-7085
▁لقاح	-7086
▁للاس	-7087
▁للمس	-7088
▁لموا	-7089
▁مبكر	-7090
▁مزيج	-7091
▁مسير	-7092
▁مشهد	-7093
▁معبد	-7094
▁ممكن	-7095
▁منحت	-7096
▁والض	-7097
▁وتنت	-7098
▁وحكم	-7099
▁وضعه	-7100
▁وعاد	-7101
▁وقدم	-7102
▁ونشر	-7103
▁ويضم	-7104
▁ويلي	-7105
▁يؤكد	-7106
▁يحدد	-7107
▁يحصل	-7108
▁يدعم	-7109
▁يرغب	-7110
▁يهدف	-7111
ثمارات	-7112
فورنيا	-7113
ويندوز	-7114
▁1994،	-7115
▁1995،	-7116
▁1999،	-7117
▁2002،	-7118
▁2008.	-7119
▁اثبات	-7120
▁اخراج	-7121
▁اسبوع	-7122
▁اغاني	-7123
▁اقترح	-7124
▁الابد	-7125
▁الابن	-7126
▁الاته	-7127
▁الالب	-7128
▁الالف	-7129
▁البوم	-7130
▁التعد	-7131
▁التقي	-7132
▁التوا	-7133
▁الجهه	-7134
▁الحضر	-7135
▁الدقه	-7136
▁الراق	-7137
▁الرجل	-7138
▁الرقص	-7139
▁الشيء	-7140
▁الطفل	-7141
▁العنف	-7142
▁الفاط	-7143
▁الفضل	-7144
▁الفلس	-7145
▁القتل	-7146
▁اللقب	-7147
▁المئه	-7148
▁المفت	-7149
▁الملح	-7150
▁المهد	-7151
▁الموت	-7152
▁الميز	-7153
▁النسب	-7154
▁النور	-7155
▁الوار	-7156
▁اليهم	-7157
▁بناها	-7158
▁تاثرت	-7159
▁تامين	-7160
▁تايمز	-7161
▁تجاوز	-7162
▁تسويه	-7163
▁تضمنت	-7164
▁تنميه	-7165
▁جنوبا	-7166
▁خريطه	-7167
▁رحلات	-7168
▁سفيان	-7169
▁سواحل	-7170
▁سينما	-7171
▁شمالي	-7172
▁طبقات	-7173
▁طويلا	-7174
▁عراقي	-7175
▁علامه	-7176
▁غربيه	-7177
▁فارما	-7178
▁فرنسي	-7179
▁كرئيس	-7180
▁لاداء	-7181
▁لضمان	-7182
▁للبحر	-7183
▁للفرد	-7184
▁لوجود	-7185
▁محاكم	-7186
▁مخصصه	-7187
▁مستمر	-7188
▁مشابه	-7189
▁مصطفي	-7190
▁معتدل	-7191
▁موانئ	-7192
▁نسبته	-7193
▁واحمد	-7194
▁والاغ	-7195
▁والتج	-7196
▁والجز	-7197
▁واليه	-7198
▁وبهذا	-7199
▁وتسمي	-7200
▁وتوفر	-7201
▁وقالت	-7202
▁وقيام	-7203
▁ومجلس	-7204
▁ومنهم	-7205
▁يتطلب	-7206
▁يحتاج	-7207
▁ازدهرت	-7208
▁استعاد	-7209
▁اعتمدت	-7210
▁الابرا	-7211
▁الاعظم	-7212
▁البحته	-7213
▁الثروه	-7214
▁الرومي	-7215
▁السحاب	-7216
▁الشؤون	-7217
▁الشيعي	-7218
▁العادي	-7219
▁العباس	-7220
▁العذبه	-7221
▁العروض	-7222
▁الفخار	-7223
▁الفضاء	-7224
▁الفكره	-7225
▁القديس	-7226
▁الكوفه	-7227
▁الملحن	-7228
▁الممثل	-7229
▁اليسون	-7230
▁اندلاع	-7231
▁بالمئه	-7232
▁بمنطقه	-7233
▁بيشاور	-7234
▁تاريخه	-7235
▁تتجاوز	-7236
▁روايات	-7237
▁قدمتها	-7238
▁لاجراء	-7239
▁لتوفير	-7240
▁للعلوم	-7241
▁مبادره	-7242
▁متخصصه	-7243
▁مقابله	-7244
▁مقاتلي	-7245
▁مملوكه	-7246
▁واجهزه	-7247
▁واخيرا	-7248
▁واعتبر	-7249
▁والبعض	-7250
▁والشرق	-7251
▁والعرب	-7252
▁وانتشر	-7253
▁وبعدها	-7254
▁وبعضها	-7255
▁ومراكز	-7256
▁يعملون	-7257
▁ينتمون	-7258
▁ارتباطا	-7259
▁الابحاث	-7260
▁الاحياء	-7261
▁الاخشاب	-7262
▁الاسعار	-7263
▁الاشاره	-7264
▁الاشياء	-7265
▁الاصوات	-7266
▁الاطراف	-7267
▁الاعدام	-7268
▁الاعمار	-7269
▁الاقليم	-7270
▁الباقيه	-7271
▁البيئيه	-7272
▁الترتيب	-7273
▁التركيز	-7274
▁التصويت	-7275
▁التطبيق	-7276
▁الجنرال	-7277
▁الحاكمه	-7278
▁الحالات	-7279
▁الحفلات	-7280
▁الدراما	-7281
▁الزمنيه	-7282
▁السواحل	-7283
▁السوداء	-7284
▁العبادي	-7285
▁القياده	-7286
▁اللهجات	-7287
▁المتحدث	-7288
▁المحتمل	-7289
▁المقابل	-7290
▁المقدمه	-7291
▁المميزه	-7292
▁المنخفض	-7293
▁الموحده	-7294
▁اليدويه	-7295
▁برامجها	-7296
▁بمساعده	-7297
▁تقليديا	-7298
▁جغرافيا	-7299
▁قانونيه	-7300
▁للثقافه	-7301
▁والشمال	-7302
▁والمغرب	-7303
▁والموصل	-7304
▁ومستشفي	-7305
▁اتفاقيات	-7306
▁الاحتفال	-7307
▁البابليه	-7308
▁التقارير	-7309
▁الحافلات	-7310
▁الرياضات	-7311
▁السومريه	-7312
▁الصليبيه	-7313
▁العاملين	-7314
▁الغالبيه	-7315
▁الغذائيه	-7316
▁المؤمنين	-7317
▁المساعده	-7318
▁المستشار	-7319
▁المعدلات	-7320
▁المهرجان	-7321
▁اليعاربه	-7322
▁واستخدام	-7323
▁الايرادات	-7324
▁السبعينات	-7325
▁السينمائي	-7326
▁المسؤولين	-7327
▁المواصلات	-7328
▁الالكتروني	-7329
▁الفيدراليه	-7330
▁المهرجانات	-7331
▁كاليفورنيا	-7332
▁والتلفزيون	-7333
-3	-7334
43	-7335
62	-7336
64	-7337
ذف	-7338
رز	-7339
رم	-7340
ئها	-7341
ارث	-7342
الع	-7343
الل	-7344
اهي	-7345
باس	-7346
بما	-7347
تاد	-7348
حار	-7349
حرر	-7350
حوذ	-7351
دها	-7352
ذور	-7353
ذيب	-7354
راغ	-7355
سله	-7356
شفه	-7357
صرا	-7358
صرح	-7359
صفت	-7360
ضان	-7361
ضور	-7362
طله	-7363
طوا	-7364
طيب	-7365
عله	-7366
غطي	-7367
غلب	-7368
قدت	-7369
قطت	-7370
قيد	-7371
كند	-7372
كوف	-7373
كيا	-7374
ليس	-7375
ووي	-7376
ويم	-7377
ينغ	-7378
ينو	-7379
▁تث	-7380
▁ثر	-7381
▁ثل	-7382
▁خز	-7383
▁خص	-7384
▁دخ	-7385
▁زم	-7386
▁قض	-7387
▁كد	-7388
-200	-7389
ابقه	-7390
اثير	-7391
اسمه	-7392
اهيل	-7393
بالغ	-7394
باني	-7395
بعاد	-7396
بياء	-7397
تيبه	-7398
جدده	-7399
حدها	-7400
حيفه	-7401
خرفه	-7402
داره	-7403
رقاء	-7404
ركيه	-7405
زمات	-7406
عدات	-7407
فاده	-7408
فورد	-7409
قتال	-7410
قسمت	-7411
قطار	-7412
قيين	-7413
لافا	-7414
لفاز	-7415
لفين	-7416
لندي	-7417
ماله	-7418
نتاج	-7419
وبرت	-7420
وحنا	-7421
وسطي	-7422
وضاع	-7423
وظيف	-7424
ولان	-7425
وهات	-7426
ويكي	-7427
يتهم	-7428
▁(18	-7429
▁183	-7430
▁185	-7431
▁600	-7432
▁700	-7433
▁ابت	-7434
▁ارق	-7435
▁اقر	-7436
▁اور	-7437
▁بتص	-7438
▁بيك	-7439
▁تبر	-7440
▁تبع	-7441
▁تري	-7442
▁تلا	-7443
▁تمر	-7444
▁تهي	-7445
▁جام	-7446
▁جذب	-7447
▁جزي	-7448
▁جسر	-7449
▁حاض	-7450
▁حفل	-7451
▁حيا	-7452
▁خاض	-7453
▁خطي	-7454
▁دوس	-7455
▁سلط	-7456
▁صمم	-7457
▁ضغط	-7458
▁ضمت	-7459
▁غاز	-7460
▁فخر	-7461
▁فرد	-7462
▁فما	-7463
▁قرن	-7464
▁ككل	-7465
▁كيف	-7466
▁لمت	-7467
▁مدف	-7468
▁مرج	-7469
▁مطب	-7470
▁مغل	-7471
▁مفر	-7472
▁ملم	-7473
▁نائ	-7474
▁ناب	-7475
▁نبو	-7476
▁نجح	-7477
▁نحن	-7478
▁نسخ	-7479
▁نمط	-7480
▁وبل	-7481
▁وطن	-7482
▁وكر	-7483
▁ونز	-7484
▁ونظ	-7485
▁وني	-7486
▁وور	-7487
▁ويح	-7488
ادلات	-7489
ارجيه	-7490
اميرا	-7491
بيديا	-7492
جمعات	-7493
داوله	-7494
درويد	-7495
شافات	-7496
شتراك	-7497
ضروره	-7498
علماء	-7499
غدادي	-7500
فورمي	-7501
لاسفه	-7502
ويضات	-7503
يرموك	-7504
▁1500	-7505
▁1964	-7506
▁1972	-7507
▁1982	-7508
▁1987	-7509
▁2500	-7510
▁ادله	-7511
▁اسست	-7512
▁الحن	-7513
▁الرئ	-7514
▁انتج	-7515
▁انهي	-7516
▁ايار	-7517
▁برزت	-7518
▁بعيد	-7519
▁بفضل	-7520
▁بقوه	-7521
▁بينه	-7522
▁تحكم	-7523
▁تخضع	-7524
▁تذكر	-7525
▁تشهد	-7526
▁تغلب	-7527
▁تقدي	-7528
▁تكلم	-7529
▁ثابت	-7530
▁جاءت	-7531
▁جذور	-7532
▁جعلت	-7533
▁حاجه	-7534
▁حلقه	-7535
▁خلفا	-7536
▁دواء	-7537
▁راسه	-7538
▁رحله	-7539
▁رشاد	-7540
▁رفيق	-7541
▁سائر	-7542
▁سببا	-7543
▁سرعه	-7544
▁سعود	-7545
▁سمحت	-7546
▁شديد	-7547
▁شرطه	-7548
▁شملت	-7549
▁صراع	-7550
▁صلات	-7551
▁عارف	-7552
▁عمره	-7553
▁عملت	-7554
▁غرار	-7555
▁غربا	-7556
▁غضون	-7557
▁فاصب	-7558
▁قضاء	-7559
▁كتبه	-7560
▁كمال	-7561
▁لاري	-7562
▁للات	-7563
▁للمج	-7564
▁للمو	-7565
▁لمنع	-7566
▁مالك	-7567
▁محدد	-7568
▁محرك	-7569
▁مخطط	-7570
▁مدرب	-7571
▁مرور	-7572
▁مزار	-7573
▁نائب	-7574
▁نادر	-7575
▁نجحت	-7576
▁نوري	-7577
▁هرات	-7578
▁هيكل	-7579
▁واذا	-7580
▁واصل	-7581
▁وافق	-7582
▁واقع	-7583
▁واكت	-7584
▁والذ	-7585
▁وامت	-7586
▁وحسب	-7587
▁وحصل	-7588
▁ودعم	-7589
▁وصفت	-7590
▁وصور	-7591
▁وظهر	-7592
▁وفيه	-7593
▁وهنا	-7594
▁ووسط	-7595
▁يبقي	-7596
▁يجوز	-7597
▁يسكن	-7598
▁يشبه	-7599
▁يعرض	-7600
▁يقبل	-7601
▁يقسم	-7602
▁ينظر	-7603
ستخدمي	-7604
ليشيات	-7605
▁1989،	-7606
▁1994.	-7607
▁2011.	-7608
▁ارجاء	-7609
▁اسباب	-7610
▁اسلحه	-7611
▁اشترت	-7612
▁اشخاص	-7613
▁اغتيل	-7614
▁الارز	-7615
▁الافت	-7616
▁البري	-7617
▁البكر	-7618
▁البيع	-7619
▁الجزر	-7620
▁الجزي	-7621
▁الحاد	-7622
▁الحسن	-7623
▁الحمد	-7624
▁السله	-7625
▁السيخ	-7626
▁الشرب	-7627
▁الصخر	-7628
▁الضرب	-7629
▁الطرف	-7630
▁القلب	-7631
▁الكنع	-7632
▁المدم	-7633
▁المنه	-7634
▁المور	-7635
▁النفس	-7636
▁انهار	-7637
▁اهلها	-7638
▁اولئك	-7639
▁اولاد	-7640
▁باديه	-7641
▁بانهم	-7642
▁بدوره	-7643
▁بعيدا	-7644
▁تخزين	-7645
▁تخطيط	-7646
▁تصريف	-7647
▁تطورت	-7648
▁تعترف	-7649
▁تميزت	-7650
▁جبران	-7651
▁جريده	-7652
▁جوانب	-7653
▁خاصيه	-7654
▁خسائر	-7655
▁خصائص	-7656
▁زراعه	-7657
▁سابقه	-7658
▁ساهمت	-7659
▁سريعه	-7660
▁سياتل	-7661
▁صحراء	-7662
▁ضريبه	-7663
▁طائره	-7664
▁طائفه	-7665
▁طشقند	-7666
▁علاوه	-7667
▁عودته	-7668
▁فريده	-7669
▁فلسفه	-7670
▁قادرا	-7671
▁قادره	-7672
▁قريبه	-7673
▁لبلاد	-7674
▁لسكان	-7675
▁للحرب	-7676
▁للحكم	-7677
▁مؤقتا	-7678
▁مبنيه	-7679
▁متحدث	-7680
▁مرتين	-7681
▁مشاهد	-7682
▁موزعه	-7683
▁ميدان	-7684
▁ميديا	-7685
▁نجاحا	-7686
▁نفقات	-7687
▁هائله	-7688
▁واعيد	-7689
▁والتف	-7690
▁والقب	-7691
▁والقد	-7692
▁وانما	-7693
▁وبناء	-7694
▁وتعني	-7695
▁وثقاف	-7696
▁وثيقا	-7697
▁وحدها	-7698
▁وضعها	-7699
▁وعليه	-7700
▁ونظام	-7701
▁ويشكل	-7702
▁يتولي	-7703
▁يحاول	-7704
▁يشارك	-7705
▁يشتهر	-7706
▁يقتصر	-7707
▁يوحنا	-7708
ريطانيا	-7709
▁اختراع	-7710
▁اداريا	-7711
▁استقال	-7712
▁الارمن	-7713
▁الاستش	-7714
▁الالات	-7715
▁الاوزب	-7716
▁البحوث	-7717
▁التسوق	-7718
▁الجمعه	-7719
▁الجوار	-7720
▁الحكام	-7721
▁الدخول	-7722
▁الرسوم	-7723
▁الركاب	-7724
▁السهول	-7725
▁الشامل	-7726
▁الصباح	-7727
▁العاده	-7728
▁العاشر	-7729
▁الغلاف	-7730
▁الفريق	-7731
▁الفوضي	-7732
▁القضيه	-7733
▁اللقاء	-7734
▁اللهجه	-7735
▁المخرج	-7736
▁المخطط	-7737
▁المرضي	-7738
▁المشهد	-7739
▁المعرض	-7740
▁المنصب	-7741
▁المهدي	-7742
▁الموسم	-7743
▁النجاح	-7744
▁الوليد	-7745
▁باسماء	-7746
▁بدايات	-7747
▁برمجيه	-7748
▁تستضيف	-7749
▁تفاصيل	-7750
▁تقدمها	-7751
▁دراسته	-7752
▁ستالين	-7753
▁طرابلس	-7754
▁قانوني	-7755
▁لاعاده	-7756
▁للطلاب	-7757
▁مجاوره	-7758
▁مراقبه	-7759
▁مساعده	-7760
▁منفصله	-7761
▁مواضيع	-7762
▁موسيقي	-7763
▁نظريات	-7764
▁وادوات	-7765
▁والجزر	-7766
▁وتاريخ	-7767
▁وتتكون	-7768
▁وجزيره	-7769
▁ودراسه	-7770
▁وصناعه	-7771
▁وفيروز	-7772
اندنبورغ	-7773
▁ارهابيه	-7774
▁الامراض	-7775
▁الامنيه	-7776
▁الانبار	-7777
▁الاوقات	-7778
▁الايوبي	-7779
▁التامين	-7780
▁التسجيل	-7781
▁التواصل	-7782
▁الجاريه	-7783
▁الحريات	-7784
▁الرقابه	-7785
▁السكاني	-7786
▁الصادره	-7787
▁الطائره	-7788
▁الطيران	-7789
▁الفصائل	-7790
▁القدماء	-7791
▁القليله	-7792
▁المالكي	-7793
▁المذكور	-7794
▁المستمر	-7795
▁المشارك	-7796
▁المصطلح	-7797
▁المغولي	-7798
▁الوحدات	-7799
▁اليرموك	-7800
▁اليهودي	-7801
▁انفورمي	-7802
▁ريتشارد	-7803
▁عاصمتها	-7804
▁لبنانيه	-7805
▁للاسلام	-7806
▁للحاسوب	-7807
▁للمنطقه	-7808
▁محادثات	-7809
▁والثاني	-7810
▁والحفاظ	-7811
▁ارتفاعها	-7812
▁استخدامه	-7813
▁اقتصاديا	-7814
▁الاقاليم	-7815
▁الانضمام	-7816
▁البرتغال	-7817
▁البغدادي	-7818
▁الخلافات	-7819
▁الديانات	-7820
▁الرسوميه	-7821
▁المتجدده	-7822
▁المحليين	-7823
▁المستمره	-7824
▁المقاطعه	-7825
▁المقاومه	-7826
▁المكتوبه	-7827
▁المنتشره	-7828
▁الموسوعه	-7829
▁الموظفين	-7830
▁الناطقين	-7831
▁باستمرار	-7832
▁بالمقابل	-7833
▁لجمهوريه	-7834
▁للبرنامج	-7835
▁وافريقيا	-7836
▁والبحرين	-7837
▁والقاعده	-7838
▁الاشوريين	-7839
▁الاصلاحات	-7840
▁البيزنطيه	-7841
▁التشريعيه	-7842
▁الفلسطيني	-7843
▁الكلاسيكي	-7844
▁المصطلحات	-7845
▁المغتربين	-7846
▁الموضوعات	-7847
▁والثقافيه	-7848
▁ويكيبيديا	-7849
▁الاسبرانتو	-7850
▁الاضطرابات	-7851
▁التلفزيوني	-7852
▁اللبنانيون	-7853
▁الارثوذكسيه	-7854
▁والاقتصاديه	-7855
,2	-7856
.1	-7857
.3	-7858
27	-7859
6)	-7860
89	-7861
ضب	-7862
نغ	-7863
400	-7864
اتب	-7865
اتن	-7866
اجم	-7867
ارح	-7868
ازه	-7869
الس	-7870
باك	-7871
بدا	-7872
تاح	-7873
تيا	-7874
جنب	-7875
حيي	-7876
ديف	-7877
رجي	-7878
رغم	-7879
ريس	-7880
سكي	-7881
صري	-7882
صود	-7883
قرر	-7884
قيب	-7885
كلف	-7886
ليو	-7887
مته	-7888
مدت	-7889
مسه	-7890
ممه	-7891
مها	-7892
ناز	-7893
ورس	-7894
وسه	-7895
ولد	-7896
ولم	-7897
ينن	-7898
▁1،	-7899
▁36	-7900
▁38	-7901
▁43	-7902
▁68	-7903
▁خش	-7904
▁شن	-7905
▁فخ	-7906
▁فك	-7907
▁يث	-7908
ابيه	-7909
اجيك	-7910
ادته	-7911
ارتو	-7912
اكاه	-7913
تهما	-7914
تيات	-7915
ثافه	-7916
ثيقه	-7917
جهود	-7918
حابه	-7919
داوه	-7920
رابي	-7921
رهان	-7922
ساوي	-7923
ستوي	-7924
ستين	-7925
صافه	-7926
طالب	-7927
عوبه	-7928
فالد	-7929
قيده	-7930
كرمه	-7931
كلات	-7932
كوره	-7933
لسات	-7934
ماعه	-7935
مليه	-7936
ناطه	-7937
نافر	-7938
نتين	-7939
نوبر	-7940
نيين	-7941
وايه	-7942
وفها	-7943
وقيع	-7944
يروت	-7945
▁163	-7946
▁800	-7947
▁اثي	-7948
▁اين	-7949
▁برز	-7950
▁تام	-7951
▁تخت	-7952
▁تقت	-7953
▁تقل	-7954
▁تلم	-7955
▁جري	-7956
▁جيد	-7957
▁حار	-7958
▁حاك	-7959
▁حام	-7960
▁حرف	-7961
▁حقق	-7962
▁حقل	-7963
▁دان	-7964
▁دعي	-7965
▁ربه	-7966
▁شمل	-7967
▁صحه	-7968
▁طبق	-7969
▁عائ	-7970
▁عكا	-7971
▁غزا	-7972
▁فائ	-7973
▁فلي	-7974
▁فين	-7975
▁قات	-7976
▁قبر	-7977
▁قري	-7978
▁كبر	-7979
▁لاص	-7980
▁لحل	-7981
▁للذ	-7982
▁لمع	-7983
▁مؤك	-7984
▁مبر	-7985
▁متح	-7986
▁مشي	-7987
▁مند	-7988
▁منظ	-7989
▁مهد	-7990
▁موط	-7991
▁ميش	-7992
▁نار	-7993
▁وبت	-7994
▁ومل	-7995
▁ووز	-7996
▁يخص	-7997
▁يدل	-7998
جلترا	-7999
ديدات	-8000
راجات	-8001
راسيه	-8002
ركبات	-8003
ساسنه	-8004
سنوات	-8005
شاريع	-8006
عاءات	-8007
عماره	-8008
غلبيه	-8009
مامات	-8010
نافسه	-8011
نمارك	-8012
هائيه	-8013
وندست	-8014
▁1935	-8015
▁1939	-8016
▁1950	-8017
▁1962	-8018
▁1963	-8019
▁1976	-8020
▁1984	-8021
▁1985	-8022
▁اباد	-8023
▁اتجه	-8024
▁اجري	-8025
▁اجور	-8026
▁احدث	-8027
▁اسهم	-8028
▁اصلا	-8029
▁اضاف	-8030
▁اضطر	-8031
▁التز	-8032
▁التض	-8033
▁الخل	-8034
▁الده	-8035
▁الشم	-8036
▁الضو	-8037
▁الطف	-8038
▁الفا	-8039
▁الفق	-8040
▁اللو	-8041
▁النج	-8042
▁انشئ	-8043
▁بامر	-8044
▁بصفه	-8045
▁بصوت	-8046
▁بيوت	-8047
▁تحدد	-8048
▁تراج	-8049
▁ترام	-8050
▁تسعي	-8051
▁تسقط	-8052
▁تلقت	-8053
▁تنوع	-8054
▁جنود	-8055
▁جويه	-8056
▁حبيب	-8057
▁حكمت	-8058
▁خطوه	-8059
▁ذكره	-8060
▁ربيع	-8061
▁رفضت	-8062
▁رمزا	-8063
▁زمان	-8064
▁سابق	-8065
▁سريع	-8066
▁شيدت	-8067
▁صعيد	-8068
▁طبقه	-8069
▁طبيه	-8070
▁عشوا	-8071
▁عصور	-8072
▁علوم	-8073
▁فالم	-8074
▁فرصه	-8075
▁فصله	-8076
▁فقدت	-8077
▁فهذا	-8078
▁فيني	-8079
▁قاسي	-8080
▁قبول	-8081
▁قبيل	-8082
▁قضيه	-8083
▁قطعه	-8084
▁كليا	-8085
▁كنده	-8086
▁لتلك	-8087
▁لحكم	-8088
▁لعدم	-8089
▁للاح	-8090
▁للاص	-8091
▁للتص	-8092
▁للمن	-8093
▁مائه	-8094
▁مترو	-8095
▁محيط	-8096
▁ملكه	-8097
▁نقلت	-8098
▁نورث	-8099
▁هاجم	-8100
▁واسس	-8101
▁وافت	-8102
▁وبني	-8103
▁وعده	-8104
▁وعرف	-8105
▁وعين	-8106
▁وقيل	-8107
▁يؤثر	-8108
▁يريد	-8109
▁يقيم	-8110
▁يملك	-8111
▁2019.	-8112
▁اتخذت	-8113
▁اثاره	-8114
▁استاذ	-8115
▁اسرته	-8116
▁افتتح	-8117
▁اكسيد	-8118
▁الاجر	-8119
▁الاشر	-8120
▁التسل	-8121
▁الحشد	-8122
▁السعي	-8123
▁السلع	-8124
▁السند	-8125
▁السور	-8126
▁الشرف	-8127
▁الصوت	-8128
▁العين	-8129
▁الفيز	-8130
▁القيا	-8131
▁المصف	-8132
▁النوم	-8133
▁الوسي	-8134
▁امراه	-8135
▁اهليه	-8136
▁بالسل	-8137
▁بالمر	-8138
▁بشريه	-8139
▁بصفته	-8140
▁بقايا	-8141
▁بكثره	-8142
▁بمعدل	-8143
▁بوابه	-8144
▁تجربه	-8145
▁تخفيض	-8146
▁ترتفع	-8147
▁تشكلت	-8148
▁تغطيه	-8149
▁تقارب	-8150
▁تقدير	-8151
▁توجيه	-8152
▁ثنائي	-8153
▁حاولت	-8154
▁حدائق	-8155
▁حملات	-8156
▁حيويه	-8157
▁خلاله	-8158
▁رباني	-8159
▁رسائل	-8160
▁روابط	-8161
▁رياضه	-8162
▁سلاله	-8163
▁سيرفر	-8164
▁سيناء	-8165
▁صندوق	-8166
▁ضمنها	-8167
▁ضواحي	-8168
▁عاديه	-8169
▁عرقيه	-8170
▁قسمين	-8171
▁قليلا	-8172
▁كتبها	-8173
▁كمدرب	-8174
▁لكثير	-8175
▁للانت	-8176
▁لموقع	-8177
▁مبادئ	-8178
▁مباني	-8179
▁متاحف	-8180
▁محافظ	-8181
▁محليا	-8182
▁مرتفع	-8183
▁مسائل	-8184
▁مساجد	-8185
▁مقاعد	-8186
▁ملفات	-8187
▁ملكيه	-8188
▁منهما	-8189
▁موضوع	-8190
▁نادره	-8191
▁نماذج	-8192
▁نوعيه	-8193
▁وارسل	-8194
▁واسعا	-8195
▁واضحه	-8196
▁والكن	-8197
▁والمج	-8198
▁وجميع	-8199
▁وجهات	-8200
▁وخارج	-8201
▁وساعد	-8202
▁وشملت	-8203
▁وصولا	-8204
▁وصوله	-8205
▁وقدمت	-8206
▁ولهذا	-8207
▁ويعيش	-8208
▁ويقدم	-8209
▁يتضمن	-8210
▁يختلف	-8211
▁ينقسم	-8212
▁يومنا	-8213
▁اختصار	-8214
▁اذاعيه	-8215
▁اساسيا	-8216
▁الاخضر	-8217
▁الاصغر	-8218
▁الامين	-8219
▁البقاء	-8220
▁البنوك	-8221
▁البيوس	-8222
▁التزلج	-8223
▁التنوع	-8224
▁التيار	-8225
▁الخلاف	-8226
▁الذهاب	-8227
▁الرسول	-8228
▁السبعه	-8229
▁الشعار	-8230
▁الضخمه	-8231
▁الطراز	-8232
▁الطلبه	-8233
▁القلاع	-8234
▁المادي	-8235
▁المبني	-8236
▁المحطه	-8237
▁المدير	-8238
▁المرور	-8239
▁المسند	-8240
▁المطبخ	-8241
▁الملوك	-8242
▁النجوم	-8243
▁الهلال	-8244
▁الوالي	-8245
▁امبراط	-8246
▁انقسمت	-8247
▁بالعمل	-8248
▁بروسيا	-8249
▁بزياده	-8250
▁بلادهم	-8251
▁بولايه	-8252
▁تستهدف	-8253
▁تقديرا	-8254
▁تكاليف	-8255
▁تلمسان	-8256
▁جميعها	-8257
▁لتحديد	-8258
▁للمياه	-8259
▁مساحات	-8260
▁منخفضه	-8261
▁موافقه	-8262
▁والباب	-8263
▁والثال	-8264
▁وانتهي	-8265
▁وتوفير	-8266
▁وطبيعه	-8267
▁وغالبا	-8268
▁ولايات	-8269
▁ويتكون	-8270
▁100,000	-8271
▁احتياطي	-8272
▁استحواذ	-8273
▁استعاده	-8274
▁استغلال	-8275
▁استنادا	-8276
▁الاسباب	-8277
▁الاسطول	-8278
▁الانباء	-8279
▁الاهداف	-8280
▁الاوراق	-8281
▁الاوزبك	-8282
▁البطاله	-8283
▁التوراه	-8284
▁الثورات	-8285
▁الجمعيه	-8286
▁الحربيه	-8287
▁الحملات	-8288
▁الحوادث	-8289
▁الحيوان	-8290
▁الخليجي	-8291
▁الدوائر	-8292
▁الشيوعي	-8293
▁الصالحه	-8294
▁الطويله	-8295
▁العاديه	-8296
▁العوامل	-8297
▁القريبه	-8298
▁اللاحقه	-8299
▁المحمول	-8300
▁المصارف	-8301
▁المصنعه	-8302
▁الملابس	-8303
▁المناسب	-8304
▁المنشات	-8305
▁الموجود	-8306
▁النازيه	-8307
▁الوسائط	-8308
▁الوظائف	-8309
▁اوروبيه	-8310
▁تفجيرات	-8311
▁للادويه	-8312
▁للاشاره	-8313
▁للدلاله	-8314
▁مستوطنه	-8315
▁معماريه	-8316
▁والسويد	-8317
▁وتحديدا	-8318
▁الاختراع	-8319
▁الافريقي	-8320
▁الاندماج	-8321
▁الايطالي	-8322
▁البحيرات	-8323
▁البديهيه	-8324
▁البرونزي	-8325
▁التقنيات	-8326
▁الدنمارك	-8327
▁السبئيون	-8328
▁السبئيين	-8329
▁السلطاني	-8330
▁الفتوحات	-8331
▁القطاعات	-8332
▁القطريين	-8333
▁المتقدمه	-8334
▁المرتبطه	-8335
▁المستشرق	-8336
▁المقيمين	-8337
▁المنزليه	-8338
▁الواقعيه	-8339
▁بالتعاون	-8340
▁فارماسيا	-8341
▁للانضمام	-8342
▁للولايات	-8343
▁والجزائر	-8344
▁والرومان	-8345
▁احتياطيات	-8346
▁استراتيجي	-8347
▁الارهابيه	-8348
▁الانجازات	-8349
▁الانجيليه	-8350
▁التلفازيه	-8351
▁الدستوريه	-8352
▁السريانيه	-8353
▁الكاثوليك	-8354
▁المشاهدين	-8355
▁المفاوضات	-8356
▁انفورميكس	-8357
▁بالمقارنه	-8358
▁ديمقراطيه	-8359
▁فرانكفورت	-8360
▁للجمهوريه	-8361
▁والجامعات	-8362
▁والجنوبيه	-8363
▁والعالميه	-8364
▁والعلاقات	-8365
▁الابتدائيه	-8366
▁الامبراطور	-8367
▁البرلمانيه	-8368
▁السينمائيه	-8369
▁براندنبورغ	-8370
▁الفلسطينيين	-8371
▁ومايكروسوفت	-8372
▁للامبراطوريه	-8373
),	-8374
77	-8375
79	-8376
حض	-8377
سو	-8378
صح	-8379
ظل	-8380
مش	-8381
نس	-8382
يس	-8383
-15	-8384
...	-8385
احد	-8386
اعم	-8387
افئ	-8388
برغ	-8389
ثيق	-8390
جدل	-8391
جزه	-8392
جها	-8393
حيا	-8394
خلل	-8395
ذان	-8396
رده	-8397
رنج	-8398
ريغ	-8399
زئه	-8400
زاي	-8401
زوج	-8402
سمت	-8403
سوب	-8404
شدا	-8405
صاب	-8406
طوع	-8407
عاه	-8408
عمه	-8409
عوب	-8410
عوم	-8411
عون	-8412
عيا	-8413
فرع	-8414
فير	-8415
قاد	-8416
قاذ	-8417
قطب	-8418
كسو	-8419
لته	-8420
لوب	-8421
ليح	-8422
ماز	-8423
منز	-8424
نزه	-8425
نهب	-8426
واص	-8427
وتن	-8428
وتو	-8429
وثه	-8430
وعت	-8431
ونت	-8432
يان	-8433
يرو	-8434
يلم	-8435
▁34	-8436
▁39	-8437
▁46	-8438
▁49	-8439
▁55	-8440
▁57	-8441
▁92	-8442
▁شج	-8443
▁شغ	-8444
▁صر	-8445
▁ضع	-8446
▁طل	-8447
▁فغ	-8448
▁هل	-8449
ؤوله	-8450
ئناف	-8451
ائقي	-8452
ابيب	-8453
ادسه	-8454
ارقه	-8455
اصره	-8456
اكثر	-8457
الها	-8458
ترات	-8459
تماد	-8460
جران	-8461
جلون	-8462
حادي	-8463
حلال	-8464
رائط	-8465
رتيب	-8466
رحيل	-8467
ريال	-8468
زايا	-8469
سحاب	-8470
سيطه	-8471
شابه	-8472
صلون	-8473
عياد	-8474
غذيه	-8475
فتاء	-8476
فيده	-8477
قتين	-8478
قهاء	-8479
قيون	-8480
كرره	-8481
كشاف	-8482
لينا	-8483
مويه	-8484
ميقه	-8485
نافس	-8486
نايه	-8487
نيفه	-8488
وائد	-8489
واصف	-8490
وافد	-8491
واهد	-8492
وبيا	-8493
وذيه	-8494
ولون	-8495
يشان	-8496
ينوي	-8497
▁(10	-8498
▁1.2	-8499
▁175	-8500
▁250	-8501
▁اضع	-8502
▁امه	-8503
▁باز	-8504
▁باش	-8505
▁برج	-8506
▁بسل	-8507
▁بون	-8508
▁بيد	-8509
▁تشر	-8510
▁تضر	-8511
▁تكر	-8512
▁جاه	-8513
▁جده	-8514
▁جرت	-8515
▁حيز	-8516
▁ركن	-8517
▁ريد	-8518
▁سبق	-8519
▁سوف	-8520
▁سيل	-8521
▁شان	-8522
▁شرب	-8523
▁شغل	-8524
▁صلا	-8525
▁ضعي	-8526
▁فسي	-8527
▁فضل	-8528
▁فلس	-8529
▁قمر	-8530
▁قوم	-8531
▁كنع	-8532
▁كوك	-8533
▁متم	-8534
▁مرف	-8535
▁مكن	-8536
▁ملف	-8537
▁ممت	-8538
▁منش	-8539
▁ناق	-8540
▁نبي	-8541
▁نتج	-8542
▁نفط	-8543
▁نمت	-8544
▁نوح	-8545
▁هدم	-8546
▁هرب	-8547
▁وحر	-8548
▁وحي	-8549
▁وشي	-8550
▁وطب	-8551
▁وول	-8552
▁ويق	-8553
▁يحق	-8554
▁يخل	-8555
▁يلي	-8556
ائقيه	-8557
ائيين	-8558
اراته	-8559
اريما	-8560
بيتور	-8561
جابيه	-8562
ستهلك	-8563
سياسه	-8564
سيحيه	-8565
طولات	-8566
كاريه	-8567
لاطون	-8568
مدينه	-8569
وريون	-8570
▁1948	-8571
▁1949	-8572
▁1955	-8573
▁1958	-8574
▁1959	-8575
▁1965	-8576
▁1969	-8577
▁اتهم	-8578
▁اختي	-8579
▁اخرج	-8580
▁استع	-8581
▁اسكت	-8582
▁الخز	-8583
▁الصي	-8584
▁الغي	-8585
▁الهج	-8586
▁انتل	-8587
▁اوسع	-8588
▁باخت	-8589
▁بخار	-8590
▁بكاس	-8591
▁بوست	-8592
▁بوكس	-8593
▁بيسك	-8594
▁تبعد	-8595
▁تدار	-8596
▁ترجم	-8597
▁تعبر	-8598
▁تفوق	-8599
▁تمنح	-8600
▁تنظم	-8601
▁تنفذ	-8602
▁ثمان	-8603
▁جلال	-8604
▁جوده	-8605
▁حروب	-8606
▁حسان	-8607
▁حكما	-8608
▁خروج	-8609
▁خضعت	-8610
▁دائم	-8611
▁دعوه	-8612
▁رابع	-8613
▁رموز	-8614
▁روما	-8615
▁زادت	-8616
▁سافر	-8617
▁ستيف	-8618
▁سينا	-8619
▁شريط	-8620
▁شريف	-8621
▁شهور	-8622
▁عرضه	-8623
▁علما	-8624
▁علمي	-8625
▁غرفه	-8626
▁غنيه	-8627
▁فئات	-8628
▁فندق	-8629
▁فنون	-8630
▁قادر	-8631
▁كالت	-8632
▁كانا	-8633
▁كوفي	-8634
▁لعبه	-8635
▁للمت	-8636
▁للمش	-8637
▁لمصر	-8638
▁ليتم	-8639
▁هضبه	-8640
▁وابو	-8641
▁واجب	-8642
▁وانش	-8643
▁وبحر	-8644
▁وتتم	-8645
▁وجبه	-8646
▁وحدث	-8647
▁ودون	-8648
▁وديه	-8649
▁وزوج	-8650
▁وسيا	-8651
▁وعمر	-8652
▁وفرض	-8653
▁وقوع	-8654
▁ومثل	-8655
▁ومقر	-8656
▁ومما	-8657
▁ومنح	-8658
▁ونزل	-8659
▁وهبي	-8660
▁ويجب	-8661
▁يتيح	-8662
▁يحقق	-8663
▁يشغل	-8664
▁يعطي	-8665
▁يكتب	-8666
▁يميز	-8667
درائيه	-8668
ربيعيه	-8669
زيديين	-8670
عتقدات	-8671
وكهولم	-8672
ومانيه	-8673
▁1920،	-8674
▁1990.	-8675
▁1996.	-8676
▁1998،	-8677
▁اتخاذ	-8678
▁اثنين	-8679
▁اجنبي	-8680
▁احزاب	-8681
▁اسلام	-8682
▁اصحاب	-8683
▁الالي	-8684
▁الاهم	-8685
▁البلا	-8686
▁البني	-8687
▁البوس	-8688
▁التقد	-8689
▁الجبل	-8690
▁الخطه	-8691
▁الذهب	-8692
▁الرقم	-8693
▁الرقه	-8694
▁الصور	-8695
▁الفئه	-8696
▁الفاض	-8697
▁القصر	-8698
▁القطر	-8699
▁الكيل	-8700
▁اللاس	-8701
▁اللحي	-8702
▁اللفظ	-8703
▁اللون	-8704
▁المبت	-8705
▁المتم	-8706
▁المحر	-8707
▁المدي	-8708
▁النحو	-8709
▁اموال	-8710
▁انسحب	-8711
▁ايمان	-8712
▁بارزه	-8713
▁باكثر	-8714
▁بالاش	-8715
▁بدرجه	-8716
▁بمجرد	-8717
▁بمرور	-8718
▁تتركز	-8719
▁تتمثل	-8720
▁تجارب	-8721
▁تجميع	-8722
▁ترتبط	-8723
▁تصنيع	-8724
▁تطورا	-8725
▁تعبير	-8726
▁تلفاز	-8727
▁تليها	-8728
▁توافر	-8729
▁جرائم	-8730
▁جوائز	-8731
▁حاكما	-8732
▁حقيقه	-8733
▁حكمهم	-8734
▁دوائر	-8735
▁دوليا	-8736
▁دينار	-8737
▁ديوان	-8738
▁رعايه	-8739
▁روبرت	-8740
▁ساعات	-8741
▁ساعدت	-8742
▁سفينه	-8743
▁سنتين	-8744
▁سنويه	-8745
▁شامله	-8746
▁شهيره	-8747
▁شواطئ	-8748
▁عمليا	-8749
▁غنتها	-8750
▁قاموا	-8751
▁قصيده	-8752
▁قضايا	-8753
▁قواته	-8754
▁لقوات	-8755
▁للاعل	-8756
▁للجدل	-8757
▁للعام	-8758
▁مترجم	-8759
▁محترف	-8760
▁مرورا	-8761
▁مساله	-8762
▁مصالح	-8763
▁معارض	-8764
▁معامل	-8765
▁مقدمه	-8766
▁مقياس	-8767
▁منتخب	-8768
▁منزله	-8769
▁موقعا	-8770
▁نظاما	-8771
▁نوويه	-8772
▁واجهت	-8773
▁واشار	-8774
▁واضاف	-8775
▁واعاد	-8776
▁والسب	-8777
▁والصف	-8778
▁والطب	-8779
▁وبقيت	-8780
▁وتعرف	-8781
▁وشارك	-8782
▁وعمان	-8783
▁وغيره	-8784
▁وفيها	-8785
▁ومصيف	-8786
▁ويسمي	-8787
▁ويقال	-8788
▁ويمتد	-8789
▁ويمثل	-8790
▁يتكلم	-8791
▁يرتبط	-8792
▁ينتمي	-8793
▁اجتماع	-8794
▁ازدادت	-8795
▁اساليب	-8796
▁اغتيال	-8797
▁اغلبيه	-8798
▁افغاني	-8799
▁اقتراح	-8800
▁الاداء	-8801
▁الاراء	-8802
▁الاسبق	-8803
▁الاشهر	-8804
▁الانتق	-8805
▁البراز	-8806
▁التركي	-8807
▁التلوث	-8808
▁التوجه	-8809
▁التوزي	-8810
▁الجهود	-8811
▁الحروف	-8812
▁الحزمه	-8813
▁الخصبه	-8814
▁الخليه	-8815
▁الربيع	-8816
▁الزواج	-8817
▁السدود	-8818
▁السماء	-8819
▁السماح	-8820
▁الصحفي	-8821
▁الصفحه	-8822
▁الطابع	-8823
▁الطالب	-8824
▁الفرصه	-8825
▁القاده	-8826
▁القطري	-8827
▁القويه	-8828
▁الكاظم	-8829
▁الكلام	-8830
▁المئات	-8831
▁المبكر	-8832
▁المشاه	-8833
▁المقري	-8834
▁الملكه	-8835
▁المناق	-8836
▁المناه	-8837
▁الناصر	-8838
▁النبطي	-8839
▁النخيل	-8840
▁النقاد	-8841
▁النهار	-8842
▁الهامه	-8843
▁الهضبه	-8844
▁الهويه	-8845
▁الواضح	-8846
▁الولاه	-8847
▁ببغداد	-8848
▁بتقديم	-8849
▁بسهوله	-8850
▁بمقدار	-8851
▁تتعامل	-8852
▁تجاريا	-8853
▁جامعات	-8854
▁جماعات	-8855
▁ساحليه	-8856
▁صناعيه	-8857
▁عراقيه	-8858
▁قاسيون	-8859
▁لاجهزه	-8860
▁لاسباب	-8861
▁لتشغيل	-8862
▁لتعزيز	-8863
▁للشباب	-8864
▁للصلاه	-8865
▁للطاقه	-8866
▁للفنون	-8867
▁للقطاع	-8868
▁للقيام	-8869
▁لليهود	-8870
▁مسؤولا	-8871
▁مساهمه	-8872
▁مستقبل	-8873
▁مصنوعه	-8874
▁مقاومه	-8875
▁والادب	-8876
▁والامن	-8877
▁والانج	-8878
▁والجبر	-8879
▁والدول	-8880
▁والغاز	-8881
▁وانظمه	-8882
▁واهمها	-8883
▁وبدايه	-8884
▁وبرلين	-8885
▁وتحتوي	-8886
▁وتنظيم	-8887
▁وثلاثه	-8888
▁وليبيا	-8889
▁ويليام	-8890
▁يتبعون	-8891
▁يتراوح	-8892
▁اخباريه	-8893
▁اراضيها	-8894
▁اسبانيا	-8895
▁استعملت	-8896
▁استهلاك	-8897
▁اصلاحات	-8898
▁اعمالها	-8899
▁الاحكام	-8900
▁الادبيه	-8901
▁الاشجار	-8902
▁الاطباق	-8903
▁الاقسام	-8904
▁الاكادي	-8905
▁الاوضاع	-8906
▁الايمان	-8907
▁الباطنه	-8908
▁البعثات	-8909
▁البيضاء	-8910
▁الثابته	-8911
▁الحديدي	-8912
▁الخبراء	-8913
▁الخصائص	-8914
▁الدعايه	-8915
▁الدينار	-8916
▁الزرقاء	-8917
▁السادسه	-8918
▁السعودي	-8919
▁السويدي	-8920
▁الشبكات	-8921
▁الشديده	-8922
▁الشعراء	-8923
▁الصفحات	-8924
▁الصلوات	-8925
▁الصوتيه	-8926
▁الطبقات	-8927
▁الظاهره	-8928
▁الظواهر	-8929
▁القواعد	-8930
▁الكثيره	-8931
▁الماديه	-8932
▁المانيه	-8933
▁المحدده	-8934
▁المخصصه	-8935
▁المسجله	-8936
▁المعادن	-8937
▁المكونه	-8938
▁المواطن	-8939
▁النادره	-8940
▁الناشئه	-8941
▁انجلترا	-8942
▁بالسكان	-8943
▁بالعالم	-8944
▁باللغات	-8945
▁برنامجا	-8946
▁بيوانتك	-8947
▁تاسيسها	-8948
▁تورفالد	-8949
▁توزيعات	-8950
▁فريدريش	-8951
▁فنلنديه	-8952
▁كمبيوتر	-8953
▁للاجهزه	-8954
▁للتعليم	-8955
▁للتنميه	-8956
▁للجمهور	-8957
▁للزراعه	-8958
▁للقاعده	-8959
▁لمساعده	-8960
▁محتويات	-8961
▁واستطاع	-8962
▁واستولي	-8963
▁واقتصاد	-8964
▁والاداب	-8965
▁والدفاع	-8966
▁والمسرح	-8967
▁وبالرغم	-8968
▁ومجموعه	-8969
▁ومهرجان	-8970
▁يعتبرون	-8971
▁الابجديه	-8972
▁الازدهار	-8973
▁الانتهاء	-8974
▁التراثيه	-8975
▁الجليديه	-8976
▁السحابيه	-8977
▁الشيوعيه	-8978
▁الطائرات	-8979
▁العمراني	-8980
▁الفيلسوف	-8981
▁اللاتيني	-8982
▁المتنوعه	-8983
▁المذكوره	-8984
▁المسؤوله	-8985
▁المساواه	-8986
▁المشهوره	-8987
▁المطلوبه	-8988
▁المفوضيه	-8989
▁بالمانيا	-8990
▁بريطانيه	-8991
▁والاراضي	-8992
▁والاعلام	-8993
▁والجامعه	-8994
▁والرياضه	-8995
▁والصناعه	-8996
▁والفلسفه	-8997
▁يستخدمون	-8998
▁استحواذها	-8999
▁الاستحواذ	-9000
▁الاعلاميه	-9001
▁الاغريقيه	-9002
▁الفيدرالي	-9003
▁المقاتلين	-9004
▁دبلوماسيه	-9005
▁والمقابله	-9006
▁واليهوديه	-9007
▁وبالاضافه	-9008
▁الاشتراكيه	-9009
▁والاتصالات	-9010
▁والرياضيات	-9011
▁الكاثوليكيه	-9012
▁والتكنولوجيا	-9013
,5	-9014
32	-9015
46	-9016
48	-9017
69	-9018
بث	-9019
رو	-9020
شن	-9021
فز	-9022
فف	-9023
قش	-9024
لع	-9025
نج	-9026
يء	-9027
ؤاد	-9028
ؤلؤ	-9029
ئون	-9030
احل	-9031
اطه	-9032
اكو	-9033
اها	-9034
اور	-9035
اوف	-9036
ايب	-9037
باش	-9038
ببه	-9039
بدل	-9040
برع	-9041
بوه	-9042
تهت	-9043
جام	-9044
حيل	-9045
ددت	-9046
ذاء	-9047
ذاب	-9048
ذار	-9049
ذيع	-9050
رحه	-9051
رقص	-9052
زار	-9053
شون	-9054
صاف	-9055
صفه	-9056
عمق	-9057
غره	-9058
فظه	-9059
قاش	-9060
قون	-9061
قيا	-9062
كاب	-9063
كسي	-9064
كيك	-9065
لقه	-9066
لكي	-9067
ليج	-9068
مود	-9069
ميت	-9070
نفط	-9071
هره	-9072
هلا	-9073
هود	-9074
وجي	-9075
وذه	-9076
وظف	-9077
وظه	-9078
ومن	-9079
ياع	-9080
يرك	-9081
يفه	-9082
يمن	-9083
▁(7	-9084
▁(8	-9085
▁),	-9086
▁42	-9087
▁84	-9088
▁حا	-9089
▁حب	-9090
▁شط	-9091
▁طف	-9092
▁ظر	-9093
▁عش	-9094
▁فس	-9095
▁كف	-9096
احبه	-9097
ادين	-9098
ارطه	-9099
اريف	-9100
اسعه	-9101
اضعه	-9102
اعون	-9103
الوا	-9104
امجه	-9105
اهنه	-9106
باقي	-9107
بلور	-9108
تمين	-9109
جزاء	-9110
جيكا	-9111
داقه	-9112
دهره	-9113
رافه	-9114
رياء	-9115
ريجي	-9116
ريحه	-9117
سلين	-9118
شاره	-9119
شمير	-9120
صدير	-9121
طراب	-9122
طرفه	-9123
عارض	-9124
عاقب	-9125
عربه	-9126
فعيل	-9127
قتهم	-9128
قراض	-9129
قوله	-9130
لكات	-9131
ليان	-9132
ليوس	-9133
ميمه	-9134
ناقص	-9135
هايه	-9136
هريه	-9137
همات	-9138
وائح	-9139
وائي	-9140
وارج	-9141
وحده	-9142
وران	-9143
ورون	-9144
وفات	-9145
وقاز	-9146
وليس	-9147
ونكس	-9148
▁1.3	-9149
▁10.	-9150
▁189	-9151
▁اذن	-9152
▁اسر	-9153
▁امل	-9154
▁انط	-9155
▁ايد	-9156
▁بتع	-9157
▁بحد	-9158
▁بخط	-9159
▁بزي	-9160
▁بسط	-9161
▁بطي	-9162
▁بوش	-9163
▁بوض	-9164
▁بيب	-9165
▁تاب	-9166
▁تخص	-9167
▁تسع	-9168
▁تطل	-9169
▁تنص	-9170
▁توس	-9171
▁ثبت	-9172
▁ثور	-9173
▁حدا	-9174
▁حضر	-9175
▁خام	-9176
▁خبر	-9177
▁دبي	-9178
▁دمر	-9179
▁ردا	-9180
▁زين	-9181
▁سال	-9182
▁سحب	-9183
▁سفر	-9184
▁سفن	-9185
▁سكك	-9186
▁سكه	-9187
▁سهم	-9188
▁شائ	-9189
▁شتي	-9190
▁صرف	-9191
▁صيغ	-9192
▁ظبي	-9193
▁عال	-9194
▁عمق	-9195
▁غزه	-9196
▁فتم	-9197
▁قاط	-9198
▁كله	-9199
▁لاه	-9200
▁لتت	-9201
▁لفظ	-9202
▁لمه	-9203
▁لود	-9204
▁مبت	-9205
▁مجه	-9206
▁مسن	-9207
▁موت	-9208
▁مور	-9209
▁وتو	-9210
▁ورف	-9211
▁وطر	-9212
▁ومر	-9213
▁ويف	-9214
▁يبق	-9215
▁يحل	-9216
▁يفت	-9217
ادليه	-9218
ارسيه	-9219
اريون	-9220
اميان	-9221
اميين	-9222
انيها	-9223
انيوم	-9224
حاريه	-9225
ديدان	-9226
رياته	-9227
ريبيه	-9228
شلونه	-9229
طنبول	-9230
عبدون	-9231
فاقات	-9232
كندنا	-9233
لاجقه	-9234
لاحظه	-9235
ماثله	-9236
مينيه	-9237
نانين	-9238
واريخ	-9239
واليد	-9240
وايات	-9241
وثائق	-9242
وكلين	-9243
ونيات	-9244
▁1624	-9245
▁1900	-9246
▁1926	-9247
▁1946	-9248
▁1983	-9249
▁ابنا	-9250
▁احتف	-9251
▁اراء	-9252
▁اسوا	-9253
▁اصاب	-9254
▁الثق	-9255
▁الصغ	-9256
▁القا	-9257
▁القض	-9258
▁الكف	-9259
▁الني	-9260
▁امنه	-9261
▁امور	-9262
▁بابي	-9263
▁باحث	-9264
▁بالذ	-9265
▁بدفع	-9266
▁بديه	-9267
▁بردي	-9268
▁بروك	-9269
▁بقاء	-9270
▁بقدر	-9271
▁بقيت	-9272
▁بلقب	-9273
▁بلوغ	-9274
▁بهما	-9275
▁تابع	-9276
▁تباع	-9277
▁تبني	-9278
▁تجنب	-9279
▁تحسن	-9280
▁تحصل	-9281
▁تحقق	-9282
▁تحيط	-9283
▁تخرج	-9284
▁تراث	-9285
▁تريد	-9286
▁تزيد	-9287
▁تصنف	-9288
▁تكتب	-9289
▁توصل	-9290
▁ثروه	-9291
▁جاءه	-9292
▁جمله	-9293
▁جيشا	-9294
▁حليم	-9295
▁خسرت	-9296
▁دفعه	-9297
▁دومه	-9298
▁رجلا	-9299
▁زارت	-9300
▁زعمت	-9301
▁سامي	-9302
▁ستان	-9303
▁ستست	-9304
▁سرير	-9305
▁سهول	-9306
▁سيتم	-9307
▁شاطئ	-9308
▁شتاء	-9309
▁صدور	-9310
▁صعود	-9311
▁صنفت	-9312
▁ضباط	-9313
▁ضريح	-9314
▁ضمان	-9315
▁عائل	-9316
▁عاشت	-9317
▁عصبه	-9318
▁عمون	-9319
▁عنان	-9320
▁عنهم	-9321
▁غادر	-9322
▁غازي	-9323
▁فانت	-9324
▁فعال	-9325
▁قتله	-9326
▁قدمه	-9327
▁قريب	-9328
▁قطار	-9329
▁كاست	-9330
▁كتبت	-9331
▁كلما	-9332
▁كهرب	-9333
▁كيلو	-9334
▁لاسم	-9335
▁لقتل	-9336
▁للتح	-9337
▁للحد	-9338
▁للمر	-9339
▁لوحه	-9340
▁مالي	-9341
▁مبان	-9342
▁مجتم	-9343
▁مصري	-9344
▁مصنع	-9345
▁منصه	-9346
▁موجه	-9347
▁ميزه	-9348
▁ناشر	-9349
▁نصوص	-9350
▁نقاط	-9351
▁نموذ	-9352
▁نهري	-9353
▁هدفا	-9354
▁هطول	-9355
▁هيرد	-9356
▁واسب	-9357
▁وتصل	-9358
▁وجبل	-9359
▁وحزب	-9360
▁ودعا	-9361
▁ودفع	-9362
▁وذهب	-9363
▁ورفض	-9364
▁ورفع	-9365
▁وشرق	-9366
▁وصرح	-9367
▁وصفه	-9368
▁وطلب	-9369
▁وعاش	-9370
▁وفتح	-9371
▁وقطر	-9372
▁وكما	-9373
▁ونحو	-9374
▁ووجه	-9375
▁ووصل	-9376
▁ياخذ	-9377
▁يحيي	-9378
▁يسود	-9379
▁يصنف	-9380
▁يطلب	-9381
▁يفوز	-9382
▁يقطن	-9383
توانيا	-9384
فاعلات	-9385
قطاعات	-9386
واحيها	-9387
واصلات	-9388
وراتيه	-9389
▁2014.	-9390
▁2020.	-9391
▁2021،	-9392
▁2022،	-9393
▁ابنها	-9394
▁اتساع	-9395
▁اثريه	-9396
▁احكام	-9397
▁احوال	-9398
▁اخرها	-9399
▁ادويه	-9400
▁ارتفع	-9401
▁ارقام	-9402
▁استقر	-9403
▁اصوات	-9404
▁اطفال	-9405
▁اظهرت	-9406
▁الازد	-9407
▁الالز	-9408
▁التام	-9409
▁التحق	-9410
▁الجدل	-9411
▁الجذر	-9412
▁الجمه	-9413
▁الجند	-9414
▁الجنس	-9415
▁الحاج	-9416
▁الحان	-9417
▁الدفع	-9418
▁الراس	-9419
▁الراش	-9420
▁الراه	-9421
▁السني	-9422
▁السهل	-9423
▁السين	-9424
▁الصدر	-9425
▁الطقس	-9426
▁الظهر	-9427
▁الغير	-9428
▁الفات	-9429
▁الكشف	-9430
▁اللحم	-9431
▁المار	-9432
▁المتح	-9433
▁النصر	-9434
▁الهاد	-9435
▁انماط	-9436
▁انهاء	-9437
▁بالاج	-9438
▁بالاح	-9439
▁بالتح	-9440
▁بالتن	-9441
▁بالمس	-9442
▁بالمع	-9443
▁بيريت	-9444
▁تاليف	-9445
▁تبادل	-9446
▁تتولي	-9447
▁تحديث	-9448
▁تزداد	-9449
▁تساهم	-9450
▁تسليم	-9451
▁تسيطر	-9452
▁تعادل	-9453
▁تفاعل	-9454
▁تمارس	-9455
▁تمثال	-9456
▁توسيع	-9457
▁توليد	-9458
▁جعلها	-9459
▁جمادي	-9460
▁جنسيه	-9461
▁جيران	-9462
▁حافظت	-9463
▁حينما	-9464
▁دوستم	-9465
▁ذاتيه	-9466
▁رؤساء	-9467
▁رابطه	-9468
▁زعماء	-9469
▁زوجته	-9470
▁سقطري	-9471
▁سياحه	-9472
▁سياده	-9473
▁عجلون	-9474
▁عظيمه	-9475
▁عمرها	-9476
▁فليفل	-9477
▁فيديو	-9478
▁فيكون	-9479
▁كوفيد	-9480
▁لتشمل	-9481
▁لحساب	-9482
▁لحيان	-9483
▁للنفط	-9484
▁للنقل	-9485
▁ليسوا	-9486
▁متصفح	-9487
▁متميز	-9488
▁مجالس	-9489
▁مجانا	-9490
▁مجاني	-9491
▁مربعه	-9492
▁مشتقه	-9493
▁مغلقه	-9494
▁مقعدا	-9495
▁مكانا	-9496
▁منتزه	-9497
▁منشات	-9498
▁منفصل	-9499
▁مواقف	-9500
▁موطنا	-9501
▁نادرا	-9502
▁نوعها	-9503
▁هارون	-9504
▁هنالك	-9505
▁وابرز	-9506
▁واخري	-9507
▁وارنر	-9508
▁واسمه	-9509
▁والعب	-9510
▁والقي	-9511
▁وانشا	-9512
▁وانضم	-9513
▁وانها	-9514
▁وتحوي	-9515
▁وتشير	-9516
▁وتقدم	-9517
▁وتمتد	-9518
▁وتمثل	-9519
▁وتميز	-9520
▁وجهاء	-9521
▁وسميت	-9522
▁وسيطر	-9523
▁وصلوا	-9524
▁وعرفت	-9525
▁وكثير	-9526
▁وكندا	-9527
▁ومعظم	-9528
▁ويعرف	-9529
▁يشاهد	-9530
▁ينحدر	-9531
▁اختبار	-9532
▁اربعين	-9533
▁اقاليم	-9534
▁الابار	-9535
▁الابتد	-9536
▁الازرق	-9537
▁الاطار	-9538
▁الافضل	-9539
▁الاقدم	-9540
▁الاونه	-9541
▁البقاع	-9542
▁البيوت	-9543
▁التفاض	-9544
▁الثلوج	-9545
▁الجفاف	-9546
▁الجمال	-9547
▁الجماه	-9548
▁الجوده	-9549
▁الجيزه	-9550
▁الحبشي	-9551
▁الحجاج	-9552
▁الحداد	-9553
▁الخروج	-9554
▁الخطوه	-9555
▁الدائم	-9556
▁الذكري	-9557
▁السلاح	-9558
▁الشائع	-9559
▁الشارع	-9560
▁الشاطئ	-9561
▁الشامي	-9562
▁الشروط	-9563
▁الشوري	-9564
▁الصالح	-9565
▁الصحيح	-9566
▁الطعام	-9567
▁العنكب	-9568
▁الفصحي	-9569
▁القريب	-9570
▁القريه	-9571
▁القيود	-9572
▁الكاتب	-9573
▁الكليه	-9574
▁اللواء	-9575
▁الماني	-9576
▁المبلغ	-9577
▁المستق	-9578
▁المستن	-9579
▁المطلب	-9580
▁الموقف	-9581
▁الهجري	-9582
▁الهيكل	-9583
▁امارات	-9584
▁انترنت	-9585
▁انتصار	-9586
▁اندماج	-9587
▁انفصال	-9588
▁باعداد	-9589
▁ببطوله	-9590
▁بتنفيذ	-9591
▁بدراسه	-9592
▁بمدينه	-9593
▁بوزاره	-9594
▁تشارلز	-9595
▁تقارير	-9596
▁تهديدا	-9597
▁ثقافيه	-9598
▁حسابات	-9599
▁دولتهم	-9600
▁ساريما	-9601
▁سامراء	-9602
▁سياسات	-9603
▁شخصيات	-9604
▁طريقها	-9605
▁غرناطه	-9606
▁فيلهلم	-9607
▁كربلاء	-9608
▁لتامين	-9609
▁لتغيير	-9610
▁لتقرير	-9611
▁لتنظيم	-9612
▁لجامعه	-9613
▁لحوالي	-9614
▁لزيدان	-9615
▁لصناعه	-9616
▁للجميع	-9617
▁للجهاد	-9618
▁للحركه	-9619
▁للحياه	-9620
▁للسلام	-9621
▁للنظام	-9622
▁متابعه	-9623
▁متطوره	-9624
▁متقدمه	-9625
▁متوسطه	-9626
▁مجانيه	-9627
▁مسؤوله	-9628
▁مساحته	-9629
▁معايير	-9630
▁مكافحه	-9631
▁مكتبات	-9632
▁موسوعه	-9633
▁ميكروس	-9634
▁واعلنت	-9635
▁والترك	-9636
▁والسري	-9637
▁والشام	-9638
▁والصين	-9639
▁والعمل	-9640
▁والكيم	-9641
▁وانتاج	-9642
▁وانتهت	-9643
▁وتوزيع	-9644
▁وتوسيع	-9645
▁وحديقه	-9646
▁وحمايه	-9647
▁وقواعد	-9648
▁وكالات	-9649
▁وهؤلاء	-9650
▁يعرفون	-9651
وبولوجيا	-9652
▁استخراج	-9653
▁استفتاء	-9654
▁اعلانات	-9655
▁افلاطون	-9656
▁الابراج	-9657
▁الاتجاه	-9658
▁الاتهام	-9659
▁الاثنان	-9660
▁الاداري	-9661
▁الادباء	-9662
▁الارضيه	-9663
▁الازمات	-9664
▁الاطاحه	-9665
▁الاطباء	-9666
▁الالياف	-9667
▁الاوبرا	-9668
▁البالغه	-9669
▁البلدين	-9670
▁التعدين	-9671
▁الجريمه	-9672
▁الجماعي	-9673
▁الجوائز	-9674
▁الذهبيه	-9675
▁الرحلات	-9676
▁الرساله	-9677
▁الزياده	-9678
▁الساحلي	-9679
▁السبئيه	-9680
▁السعاده	-9681
▁الشيعيه	-9682
▁العماله	-9683
▁الفكريه	-9684
▁القراءه	-9685
▁الكليات	-9686
▁المالكه	-9687
▁المبرمج	-9688
▁المتاحه	-9689
▁المرافق	-9690
▁المطاعم	-9691
▁المطلوب	-9692
▁المعدات	-9693
▁المعيشه	-9694
▁المنوره	-9695
▁المهندس	-9696
▁الناميه	-9697
▁النموذج	-9698
▁الهزاره	-9699
▁الواجهه	-9700
▁الوظيفه	-9701
▁الوكاله	-9702
▁انتفاضه	-9703
▁اندرويد	-9704
▁ايرلندا	-9705
▁بالمائه	-9706
▁بمحافظه	-9707
▁تسميتها	-9708
▁للمملكه	-9709
▁متزايده	-9710
▁محاولات	-9711
▁مساعدات	-9712
▁مستخدمي	-9713
▁معسكرات	-9714
▁والاربع	-9715
▁والارمن	-9716
▁والبناء	-9717
▁والكتاب	-9718
▁والمنطق	-9719
▁والمواد	-9720
▁والنظام	-9721
▁واليهود	-9722
▁وحرياته	-9723
▁وويندوز	-9724
▁اجتماعات	-9725
▁الائتلاف	-9726
▁الاحتفاظ	-9727
▁الاذاعات	-9728
▁الارتفاع	-9729
▁الاميركي	-9730
▁الانبياء	-9731
▁البرمجيه	-9732
▁التطورات	-9733
▁التعليمي	-9734
▁التقاليد	-9735
▁الثقافات	-9736
▁الجنسيات	-9737
▁السماويه	-9738
▁الغساسنه	-9739
▁الفلاسفه	-9740
▁اللوثريه	-9741
▁المبادره	-9742
▁المجانيه	-9743
▁المصدريه	-9744
▁المصرفيه	-9745
▁المعتمده	-9746
▁المفروضه	-9747
▁المكتبيه	-9748
▁المكونات	-9749
▁المناسبه	-9750
▁الوزارات	-9751
▁اليونسكو	-9752
▁بروتوكول	-9753
▁للمسلمين	-9754
▁للموسيقي	-9755
▁منتجاتها	-9756
▁واستونيا	-9757
▁والاطفال	-9758
▁والثانيه	-9759
▁والشركات	-9760
▁والغربيه	-9761
▁والمعروف	-9762
▁الاخباريه	-9763
▁الاستهلاك	-9764
▁الاشوريون	-9765
▁الاعلانيه	-9766
▁الافريقيه	-9767
▁الايطاليه	-9768
▁البيروتيه	-9769
▁التجريبيه	-9770
▁التحقيقات	-9771
▁الترفيهيه	-9772
▁التوراتيه	-9773
▁السلطانيه	-9774
▁الصليبيين	-9775
▁العمانيين	-9776
▁الفاطميين	-9777
▁المساعدات	-9778
▁المسرحيات	-9779
▁الممارسات	-9780
▁الموسوعات	-9781
▁الميزانيه	-9782
▁بالاشتراك	-9783
▁ميكروسوفت	-9784
▁والبيانات	-9785
▁والخارجيه	-9786
▁والفرنسيه	-9787
▁والمؤسسات	-9788
▁الاحتفالات	-9789
▁والحيوانات	-9790
▁والمسيحيين	-9791
▁والمعلومات	-9792
▁الاستراتيجي	-9793
▁البرتغاليين	-9794
▁والانجليزيه	-9795
,9	-9796
.4	-9797
1)	-9798
2)	-9799
23	-9800
5)	-9801
68	-9802
:-	-9803
ئر	-9804
بق	-9805
تب	-9806
تل	-9807
خط	-9808
سخ	-9809
طم	-9810
قن	-9811
-17	-9812
-20	-9813
ؤال	-9814
ؤدي	-9815
ؤيه	-9816
اءت	-9817
ائز	-9818
ابس	-9819
الغ	-9820
انك	-9821
اوي	-9822
تحت	-9823
تلر	-9824
تيم	-9825
حاء	-9826
حبه	-9827
حرق	-9828
دفق	-9829
دوس	-9830
رفه	-9831
ريخ	-9832
زما	-9833
ساي	-9834
ستا	-9835
سوق	-9836
سيخ	-9837
شمل	-9838
صون	-9839
طيف	-9840
ظيف	-9841
عفر	-9842
عوي	-9843
فاذ	-9844
فقه	-9845
قان	-9846
قبت	-9847
قلا	-9848
قوط	-9849
كنت	-9850
لاغ	-9851
ميس	-9852
ميق	-9853
هله	-9854
ودر	-9855
وصي	-9856
وود	-9857
ويش	-9858
يتر	-9859
يدا	-9860
▁(9	-9861
▁2,	-9862
▁48	-9863
▁58	-9864
▁71	-9865
▁77	-9866
▁85	-9867
▁93	-9868
▁94	-9869
▁98	-9870
▁بز	-9871
▁رد	-9872
▁شو	-9873
▁صم	-9874
▁ضي	-9875
▁كج	-9876
.000	-9877
000)	-9878
0000	-9879
ائفه	-9880
ائيا	-9881
ابئه	-9882
اتيح	-9883
اثره	-9884
ارمه	-9885
اسبه	-9886
اطئه	-9887
اكنه	-9888
املا	-9889
ايام	-9890
بارك	-9891
تسمي	-9892
جهيز	-9893
دمشق	-9894
رائح	-9895
رائق	-9896
راجه	-9897
رجاع	-9898
ريره	-9899
شرات	-9900
شييد	-9901
صفها	-9902
صوره	-9903
ضييق	-9904
طنها	-9905
طهاد	-9906
ظهار	-9907
عاقد	-9908
عراء	-9909
عمده	-9910
فارد	-9911
فيحه	-9912
قاقه	-9913
قبله	-9914
قرون	-9915
قليم	-9916
قلين	-9917
قييم	-9918
كبير	-9919
كساس	-9920
كيله	-9921
لائل	-9922
لاعب	-9923
ليدي	-9924
ليفه	-9925
ليكس	-9926
ماشي	-9927
مهيد	-9928
موجه	-9929
نتوس	-9930
ندات	-9931
نسبه	-9932
نهوض	-9933
هرات	-9934
همين	-9935
واحد	-9936
وادي	-9937
وارئ	-9938
وانه	-9939
وتهم	-9940
وريت	-9941
وفيق	-9942
وكرك	-9943
ولها	-9944
وليت	-9945
ونين	-9946
يتين	-9947
▁(15	-9948
▁1.4	-9949
▁105	-9950
▁115	-9951
▁153	-9952
▁450	-9953
▁750	-9954
▁ابا	-9955
▁ابد	-9956
▁اتت	-9957
▁اته	-9958
▁ادب	-9959
▁ادم	-9960
▁اسه	-9961
▁اقد	-9962
▁اكل	-9963
▁اوت	-9964
▁ايا	-9965
▁باه	-9966
▁ببي	-9967
▁بدل	-9968
▁بدي	-9969
▁بوب	-9970
▁بوت	-9971
▁تاج	-9972
▁تجب	-9973
▁تحس	-9974
▁ترج	-9975
▁جنا	-9976
▁جور	-9977
▁خدم	-9978
▁درب	-9979
▁روي	-9980
▁سرا	-9981
▁سطر	-9982
▁شرح	-9983
▁شلل	-9984
▁عمه	-9985
▁غزت	-9986
▁فحص	-9987
▁فوز	-9988
▁قصد	-9989
▁كاد	-9990
▁كري	-9991
▁كشف	-9992
▁كمن	-9993
▁كين	-9994
▁لتج	-9995
▁لست	-9996
▁لسي	-9997
▁لوك	-9998
▁مئه	-9999
▁ماخ	-10000
▁متي	-10001
▁مخط	-10002
▁مرح	-10003
▁مرس	-10004
▁مسر	-10005
▁منق	-10006
▁مير	-10007
▁مين	-10008
▁ناش	-10009
▁ناف	-10010
▁ناه	-10011
▁نفذ	-10012
▁نفي	-10013
▁نيو	-10014
▁هان	-10015
▁وته	-10016
▁ورح	-10017
▁وسا	-10018
▁وضم	-10019
▁وقر	-10020
▁وكت	-10021
▁ونش	-10022
▁ويخ	-10023
▁يتح	-10024
▁يصف	-10025
0.000	-10026
اربعه	-10027
ارتنا	-10028
الفعل	-10029
المعر	-10030
انتوس	-10031
اندلس	-10032
اهرات	-10033
تياله	-10034
جاجيه	-10035
خصيات	-10036
راحات	-10037
راسها	-10038
ريحات	-10039
سانيه	-10040
ستطيع	-10041
سيمات	-10042
شداشه	-10043
طلبات	-10044
طورين	-10045
فونيه	-10046
قولات	-10047
كيفيه	-10048
لاهما	-10049
مائيه	-10050
مالها	-10051
ملوكي	-10052
ناسبه	-10053
وزراء	-10054
وظائف	-10055
ومسون	-10056
ويتها	-10057
ويسرا	-10058
يستمز	-10059
▁1930	-10060
▁1951	-10061
▁1957	-10062
▁1974	-10063
▁6000	-10064
▁ابعد	-10065
▁اثبت	-10066
▁احده	-10067
▁اخبر	-10068
▁اظهر	-10069
▁اعرب	-10070
▁الرد	-10071
▁العش	-10072
▁النه	-10073
▁انما	-10074
▁بارد	-10075
▁بتلك	-10076
▁بسيط	-10077
▁بشرط	-10078
▁بطول	-10079
▁بفتح	-10080
▁تؤكد	-10081
▁تبيع	-10082
▁تحرك	-10083
▁تدمر	-10084
▁تعدد	-10085
▁تعلم	-10086
▁تنقل	-10087
▁ثلثي	-10088
▁جبهه	-10089
▁جلده	-10090
▁جوقه	-10091
▁جيشه	-10092
▁حظيت	-10093
▁حوار	-10094
▁خرجت	-10095
▁خلفه	-10096
▁خوفا	-10097
▁داله	-10098
▁دامت	-10099
▁دوما	-10100
▁ذهبت	-10101
▁رغبه	-10102
▁رواد	-10103
▁ساكن	-10104
▁سميث	-10105
▁شائع	-10106
▁شامل	-10107
▁شاهد	-10108
▁شكلا	-10109
▁طراز	-10110
▁ظروف	-10111
▁عاني	-10112
▁عباس	-10113
▁عديد	-10114
▁عرضا	-10115
▁عطيه	-10116
▁عملي	-10117
▁عينه	-10118
▁غروب	-10119
▁غطاء	-10120
▁غناء	-10121
▁غياب	-10122
▁فائق	-10123
▁فبعد	-10124
▁فتوي	-10125
▁فصلي	-10126
▁فعلا	-10127
▁فقبل	-10128
▁قابل	-10129
▁قتال	-10130
▁كاول	-10131
▁لاسي	-10132
▁للاج	-10133
▁للار	-10134
▁للتع	-10135
▁للشي	-10136
▁للمع	-10137
▁لويس	-10138
▁مجرد	-10139
▁مجمل	-10140
▁مراد	-10141
▁مرسي	-10142
▁مزيد	-10143
▁مساء	-10144
▁مستم	-10145
▁مسمي	-10146
▁مضاد	-10147
▁معتم	-10148
▁مقدم	-10149
▁منعت	-10150
▁ميتس	-10151
▁نالت	-10152
▁هتلر	-10153
▁وادت	-10154
▁واكد	-10155
▁وباء	-10156
▁وبما	-10157
▁وحلت	-10158
▁ودين	-10159
▁وضرب	-10160
▁وطرق	-10161
▁وظلت	-10162
▁وعيد	-10163
▁وفاز	-10164
▁وقتا	-10165
▁وقصر	-10166
▁وقضي	-10167
▁وكون	-10168
▁ولاح	-10169
▁ولدي	-10170
▁وموا	-10171
▁ونقل	-10172
▁وورد	-10173
▁ويري	-10174
▁يتصل	-10175
▁يحتل	-10176
▁يخضع	-10177
▁يركز	-10178
▁يصعب	-10179
▁يعكس	-10180
▁يعين	-10181
▁يقتل	-10182
▁يهتم	-10183
▁يورك	-10184
بعاثات	-10185
عادلات	-10186
فسيرات	-10187
وفنتوس	-10188
ونيسيا	-10189
▁1940.	-10190
▁1940،	-10191
▁1945،	-10192
▁1986،	-10193
▁1988،	-10194
▁1991.	-10195
▁1991،	-10196
▁1993،	-10197
▁1999.	-10198
▁2012.	-10199
▁2016.	-10200
▁ابجون	-10201
▁ابراج	-10202
▁ابيات	-10203
▁اثنان	-10204
▁اجماع	-10205
▁اخترع	-10206
▁ادراك	-10207
▁اضعاف	-10208
▁اعتقد	-10209
▁اعطاء	-10210
▁اكسوم	-10211
▁الاثر	-10212
▁الاضر	-10213
▁الامت	-10214
▁البدء	-10215
▁البور	-10216
▁البوك	-10217
▁الثلج	-10218
▁الجنه	-10219
▁الجيل	-10220
▁الخشب	-10221
▁الدفن	-10222
▁السلم	-10223
▁الضوء	-10224
▁العبد	-10225
▁العدو	-10226
▁الغرض	-10227
▁الفصل	-10228
▁القاب	-10229
▁القبض	-10230
▁اللاح	-10231
▁المتن	-10232
▁المجم	-10233
▁المده	-10234
▁الملف	-10235
▁الوعي	-10236
▁اهالي	-10237
▁ايقاف	-10238
▁بالاب	-10239
▁بالار	-10240
▁بجانب	-10241
▁بجنوب	-10242
▁بجوار	-10243
▁بحقوق	-10244
▁براءه	-10245
▁بفتره	-10246
▁بقوله	-10247
▁بكونه	-10248
▁تارتو	-10249
▁تاكيد	-10250
▁تتحدث	-10251
▁تتنوع	-10252
▁ترامب	-10253
▁تصاعد	-10254
▁تصريح	-10255
▁تضاعف	-10256
▁تفتيش	-10257
▁تكوين	-10258
▁تواجه	-10259
▁توسعت	-10260
▁توقفت	-10261
▁توليه	-10262
▁ثابته	-10263
▁جبريل	-10264
▁جبليه	-10265
▁جميله	-10266
▁حركات	-10267
▁حقاني	-10268
▁حيوان	-10269
▁خساره	-10270
▁دبليو	-10271
▁ذكرها	-10272
▁رمضان	-10273
▁زمنيه	-10274
▁سيمنز	-10275
▁شخصيا	-10276
▁شراكه	-10277
▁صلاله	-10278
▁طالما	-10279
▁عدنان	-10280
▁عمران	-10281
▁عملات	-10282
▁عملها	-10283
▁عندها	-10284
▁عنصرا	-10285
▁غابات	-10286
▁فارسي	-10287
▁فانتا	-10288
▁فرانس	-10289
▁فعليا	-10290
▁قدمته	-10291
▁كافضل	-10292
▁كدوله	-10293
▁كنعان	-10294
▁لحركه	-10295
▁لريال	-10296
▁لشراء	-10297
▁للارض	-10298
▁للسيا	-10299
▁لودفي	-10300
▁مؤلفه	-10301
▁محميه	-10302
▁مدنها	-10303
▁مسندم	-10304
▁مطبعه	-10305
▁معترف	-10306
▁مفتوح	-10307
▁مقسمه	-10308
▁مميزه	-10309
▁منازل	-10310
▁منسوب	-10311
▁نائبا	-10312
▁نبوخذ	-10313
▁نجران	-10314
▁نيابه	-10315
▁هاجرت	-10316
▁هاجمت	-10317
▁هجوما	-10318
▁واثار	-10319
▁واسيا	-10320
▁واقام	-10321
▁والعد	-10322
▁وانهي	-10323
▁وبالم	-10324
▁وتاتي	-10325
▁وتحتل	-10326
▁وتولي	-10327
▁وتونس	-10328
▁وتيره	-10329
▁وثائق	-10330
▁وجاءت	-10331
▁وخطوط	-10332
▁ورجال	-10333
▁وصفها	-10334
▁وفيات	-10335
▁ونظرا	-10336
▁ويشير	-10337
▁يسيطر	-10338
▁يمكنك	-10339
▁يواجه	-10340
▁يوهان	-10341
المانيه	-10342
لاتينيه	-10343
ماعيليه	-10344
▁احتفظت	-10345
▁اختيرت	-10346
▁اداريه	-10347
▁استقرت	-10348
▁اكتسبت	-10349
▁الاجره	-10350
▁الاداب	-10351
▁الاستي	-10352
▁البيئي	-10353
▁التجار	-10354
▁التجمع	-10355
▁التعرف	-10356
▁التليف	-10357
▁التنقل	-10358
▁التوتر	-10359
▁الجدول	-10360
▁الجميع	-10361
▁الجندل	-10362
▁الحوار	-10363
▁الخطيب	-10364
▁الخمسه	-10365
▁الخيمه	-10366
▁الدجاج	-10367
▁الدعوه	-10368
▁الدعوي	-10369
▁الدوره	-10370
▁الراحل	-10371
▁الرفاه	-10372
▁الزائر	-10373
▁السامي	-10374
▁السريه	-10375
▁الشركت	-10376
▁الصخور	-10377
▁الصعبه	-10378
▁الصعيد	-10379
▁الصلبه	-10380
▁الضباط	-10381
▁الظهور	-10382
▁العتاد	-10383
▁العهود	-10384
▁العوده	-10385
▁الغوطه	-10386
▁الفروع	-10387
▁الفنان	-10388
▁القاضي	-10389
▁القبله	-10390
▁القيصر	-10391
▁الكحول	-10392
▁اللاعب	-10393
▁اللذين	-10394
▁اللعبه	-10395
▁اللفظه	-10396
▁الليبر	-10397
▁المؤسس	-10398
▁المالي	-10399
▁المتمر	-10400
▁المجمع	-10401
▁المحور	-10402
▁الملعب	-10403
▁المنهج	-10404
▁المهني	-10405
▁الناتو	-10406
▁النزاع	-10407
▁النسبي	-10408
▁النقاش	-10409
▁النقاط	-10410
▁النقطه	-10411
▁النقود	-10412
▁النووي	-10413
▁الوادي	-10414
▁الواسع	-10415
▁الوزير	-10416
▁اليسري	-10417
▁انتقاد	-10418
▁انخفضت	-10419
▁انسحبت	-10420
▁انضمام	-10421
▁باصدار	-10422
▁بالسفر	-10423
▁باميان	-10424
▁بتاسيس	-10425
▁بتطوير	-10426
▁بتوفير	-10427
▁بجامعه	-10428
▁تماثيل	-10429
▁توزيعه	-10430
▁ثلاثين	-10431
▁جنائيه	-10432
▁حارتنا	-10433
▁حواسيب	-10434
▁صناعات	-10435
▁عائلات	-10436
▁عقوبات	-10437
▁علامات	-10438
▁قيادات	-10439
▁قياسيه	-10440
▁كائنات	-10441
▁لاقامه	-10442
▁لانظمه	-10443
▁لتدمير	-10444
▁لتمثيل	-10445
▁لتمويل	-10446
▁لثلاثه	-10447
▁لزياده	-10448
▁للعالم	-10449
▁لمنطقه	-10450
▁لمنظمه	-10451
▁مؤلفات	-10452
▁ماهوله	-10453
▁متزايد	-10454
▁محاربه	-10455
▁مدفوعه	-10456
▁مدينتي	-10457
▁مراجعه	-10458
▁مسؤولي	-10459
▁مسلمون	-10460
▁مشابهه	-10461
▁معارضه	-10462
▁معتدله	-10463
▁مفاهيم	-10464
▁مكونات	-10465
▁منتشره	-10466
▁نهائيا	-10467
▁واثناء	-10468
▁واجزاء	-10469
▁واستبد	-10470
▁واقامه	-10471
▁والامم	-10472
▁والبنك	-10473
▁والجيش	-10474
▁والحان	-10475
▁والعصر	-10476
▁والفرس	-10477
▁والكوم	-10478
▁والمال	-10479
▁والمنا	-10480
▁وبعضهم	-10481
▁وتتميز	-10482
▁وتحسين	-10483
▁وتربيه	-10484
▁وتوسعت	-10485
▁وحوالي	-10486
▁وروسيا	-10487
▁وعشرين	-10488
▁ومعركه	-10489
▁ومناطق	-10490
▁ويتحدث	-10491
▁يتماشي	-10492
▁يكونوا	-10493
▁يهوديه	-10494
كندنافيه	-10495
كنولوجيه	-10496
▁اثيوبيا	-10497
▁اجراءات	-10498
▁احصاءات	-10499
▁اختياره	-10500
▁استضافه	-10501
▁استيراد	-10502
▁الابنيه	-10503
▁الاخطاء	-10504
▁الارسال	-10505
▁الاطلاع	-10506
▁الاعياد	-10507
▁الاقمار	-10508
▁الانشاء	-10509
▁الانصار	-10510
▁الاوديه	-10511
▁البسيطه	-10512
▁البوكرك	-10513
▁التجربه	-10514
▁التراجع	-10515
▁التركيب	-10516
▁التصنيع	-10517
▁التضييق	-10518
▁الحديقه	-10519
▁الحركات	-10520
▁الحمايه	-10521
▁الخاضعه	-10522
▁الخوادم	-10523
▁الدولار	-10524
▁الذاتيه	-10525
▁الرئاسه	-10526
▁الرحاله	-10527
▁الرسوبي	-10528
▁الريفيه	-10529
▁الزياره	-10530
▁السريان	-10531
▁السنافر	-10532
▁الشرعيه	-10533
▁الشهاده	-10534
▁الصخريه	-10535
▁الصنوبر	-10536
▁الطاجيك	-10537
▁العقدين	-10538
▁العلامه	-10539
▁العمريه	-10540
▁الفترات	-10541
▁القابله	-10542
▁القطبيه	-10543
▁القوقاز	-10544
▁المبنيه	-10545
▁المحافظ	-10546
▁المحلات	-10547
▁المعارف	-10548
▁المقصود	-10549
▁المكرمه	-10550
▁المنتدي	-10551
▁الميدان	-10552
▁الناتجه	-10553
▁النماذج	-10554
▁النوافذ	-10555
▁الهندوس	-10556
▁الوارده	-10557
▁الوثنيه	-10558
▁الوثيقه	-10559
▁الوزاره	-10560
▁اليابان	-10561
▁انشائها	-10562
▁باغلبيه	-10563
▁بالاردن	-10564
▁بالتالي	-10565
▁بالمركز	-10566
▁برشلونه	-10567
▁بمشاركه	-10568
▁تعديلات	-10569
▁حمورابي	-10570
▁للاخوين	-10571
▁للتدريب	-10572
▁للجامعه	-10573
▁للسيطره	-10574
▁للشريعه	-10575
▁للطيران	-10576
▁متكامله	-10577
▁مختبرات	-10578
▁مرتفعات	-10579
▁مسؤوليه	-10580
▁منازلهم	-10581
▁ميداليه	-10582
▁واكثرها	-10583
▁والاكثر	-10584
▁والبصره	-10585
▁والخاصه	-10586
▁والشؤون	-10587
▁والكويت	-10588
▁والمؤرخ	-10589
▁وامريكا	-10590
▁وبالفعل	-10591
▁وتستخدم	-10592
▁وحضرموت	-10593
▁وخارجها	-10594
بلوماسيين	-10595
▁اختلافات	-10596
▁الاتحادي	-10597
▁الاسباني	-10598
▁الاعتداء	-10599
▁الانجليز	-10600
▁الانقلاب	-10601
▁البوندست	-10602
▁البيارته	-10603
▁التكاليف	-10604
▁التلفازي	-10605
▁التيارات	-10606
▁الدراسيه	-10607
▁الراشدين	-10608
▁السلاجقه	-10609
▁العلامات	-10610
▁المبيعات	-10611
▁المتزايد	-10612
▁المتوقعه	-10613
▁المثلثات	-10614
▁المحيطات	-10615
▁المخدرات	-10616
▁المدعومه	-10617
▁المركبات	-10618
▁المستشفي	-10619
▁المعادله	-10620
▁المعاهده	-10621
▁المعايير	-10622
▁المعلمين	-10623
▁المعيشيه	-10624
▁الملحنين	-10625
▁المملوكه	-10626
▁المناذره	-10627
▁المناهضه	-10628
▁المواليه	-10629
▁النباهنه	-10630
▁النهائيه	-10631
▁الواجهات	-10632
▁اليوناني	-10633
▁اوركسترا	-10634
▁بالتجاره	-10635
▁تورفالدس	-10636
▁والاعلان	-10637
▁والتعاون	-10638
▁والتكامل	-10639
▁والحضاره	-10640
▁والرابعه	-10641
▁والسياسه	-10642
▁والعبريه	-10643
▁والمحكمه	-10644
▁والمدارس	-10645
▁والمعدات	-10646
▁والمنطقه	-10647
▁وايطاليا	-10648
▁الابتدائي	-10649
▁الاجراءات	-10650
▁الارثوذكس	-10651
▁الاصدارات	-10652
▁البيولوجي	-10653
▁التوزيعات	-10654
▁الصليبيون	-10655
▁العباسيون	-10656
▁الفدراليه	-10657
▁الكترونيه	-10658
▁المحترفين	-10659
▁المستوطنه	-10660
▁المعالجات	-10661
▁المناسبات	-10662
▁بالسويديه	-10663
▁كيلومترات	-10664
▁للاتصالات	-10665
▁ميدياويكي	-10666
▁والتجاريه	-10667
▁والسعوديه	-10668
▁والمعروفه	-10669
▁الاختلافات	-10670
▁الاكاديميه	-10671
▁الانتقاليه	-10672
▁البيزنطيين	-10673
▁للمستخدمين	-10674
▁والاستقرار	-10675
▁والالمانيه	-10676
▁والتطبيقات	-10677
▁البريطانيين	-10678
▁ميكروسيستمز	-10679
▁البروتستانتيه	-10680
▁والامبراطوريه	-10681
78	-10682
81	-10683
94	-10684
ئب	-10685
بؤ	-10686
تش	-10687
ثت	-10688
ثف	-10689
حط	-10690
خي	-10691
رط	-10692
شم	-10693
صص	-10694
ضت	-10695
قم	-10696
ابد	-10697
ابن	-10698
اثه	-10699
اجئ	-10700
اخل	-10701
الش	-10702
اهه	-10703
ايل	-10704
بدء	-10705
بعث	-10706
بلد	-10707
ثيه	-10708
جده	-10709
حون	-10710
خام	-10711
داع	-10712
دمت	-10713
روا	-10714
زيت	-10715
سلق	-10716
سها	-10717
شال	-10718
شان	-10719
صام	-10720
صير	-10721
صيه	-10722
ضير	-10723
طهر	-10724
ظار	-10725
عرب	-10726
عوه	-10727
فقت	-10728
فيق	-10729
قطه	-10730
ققت	-10731
قيف	-10732
كبه	-10733
كوب	-10734
كيز	-10735
مبي	-10736
موض	-10737
ناع	-10738
وبك	-10739
ودت	-10740
ورز	-10741
وقت	-10742
وكا	-10743
ونخ	-10744
وهو	-10745
وهي	-10746
▁52	-10747
▁61	-10748
▁62	-10749
▁64	-10750
▁73	-10751
▁خب	-10752
▁شب	-10753
▁شح	-10754
▁صب	-10755
▁صع	-10756
▁صق	-10757
▁ضف	-10758
▁لز	-10759
▁هز	-10760
▁يض	-10761
،000	-10762
ئذنه	-10763
ئيله	-10764
ائحه	-10765
ائيل	-10766
ابور	-10767
ابين	-10768
اتين	-10769
احله	-10770
ادها	-10771
اريت	-10772
اريو	-10773
اصات	-10774
الان	-10775
البه	-10776
الته	-10777
الفت	-10778
امره	-10779
انتا	-10780
اندو	-10781
اورج	-10782
اييس	-10783
بادئ	-10784
بادل	-10785
بالف	-10786
بالي	-10787
بعها	-10788
تهمه	-10789
ثبات	-10790
ثيره	-10791
جزات	-10792
حدثه	-10793
خيره	-10794
دريس	-10795
دمجت	-10796
ديثه	-10797
ذبحه	-10798
راكب	-10799
رتين	-10800
رخان	-10801
زهره	-10802
سكره	-10803
سلوب	-10804
سندر	-10805
سيير	-10806
شستر	-10807
صالح	-10808
ضمنه	-10809
ضيات	-10810
طتها	-10811
طحات	-10812
طربه	-10813
طرنج	-10814
طلبه	-10815
علقه	-10816
عيدت	-10817
غتين	-10818
غيرا	-10819
فارق	-10820
فاهم	-10821
فتاح	-10822
فتين	-10823
فجير	-10824
فيون	-10825
قابل	-10826
قطعه	-10827
قفين	-10828
كتار	-10829
كريا	-10830
كميه	-10831
كنوا	-10832
كيلي	-10833
لامه	-10834
لكان	-10835
لوجه	-10836
مائي	-10837
متهم	-10838
معون	-10839
موقه	-10840
موها	-10841
ميرا	-10842
هائي	-10843
هابي	-10844
هدفت	-10845
هرام	-10846
واتب	-10847
وبان	-10848
ودان	-10849
ودين	-10850
وديو	-10851
وزير	-10852
وزيه	-10853
وضيح	-10854
وطنت	-10855
وفاه	-10856
وقيت	-10857
وكان	-10858
وكيا	-10859
ولوا	-10860
ولين	-10861
ويتي	-10862
يديا	-10863
يلون	-10864
▁110	-10865
▁160	-10866
▁172	-10867
▁350	-10868
▁5.5	-10869
▁اتي	-10870
▁ارش	-10871
▁اكد	-10872
▁اكر	-10873
▁اوغ	-10874
▁اوق	-10875
▁باغ	-10876
▁برت	-10877
▁بغض	-10878
▁بلف	-10879
▁بمد	-10880
▁توص	-10881
▁ثقه	-10882
▁جدل	-10883
▁جرش	-10884
▁جيل	-10885
▁حرا	-10886
▁حرم	-10887
▁حصن	-10888
▁حقي	-10889
▁خضع	-10890
▁خور	-10891
▁دوت	-10892
▁ذاك	-10893
▁ذره	-10894
▁راف	-10895
▁روز	-10896
▁رون	-10897
▁زيد	-10898
▁سات	-10899
▁سنا	-10900
▁سوم	-10901
▁سيت	-10902
▁شده	-10903
▁شرا	-10904
▁شرط	-10905
▁شير	-10906
▁صفه	-10907
▁ضده	-10908
▁طاب	-10909
▁عاز	-10910
▁عرش	-10911
▁عقل	-10912
▁غرف	-10913
▁فاش	-10914
▁فاص	-10915
▁قبه	-10916
▁قند	-10917
▁كاز	-10918
▁كلي	-10919
▁كوس	-10920
▁كوم	-10921
▁لاز	-10922
▁لاش	-10923
▁لسب	-10924
▁لفت	-10925
▁لقي	-10926
▁لمي	-10927
▁لون	-10928
▁مجم	-10929
▁محب	-10930
▁مصن	-10931
▁ممر	-10932
▁موث	-10933
▁نبه	-10934
▁نصب	-10935
▁هوت	-10936
▁هوس	-10937
▁وتؤ	-10938
▁وجن	-10939
▁وصب	-10940
▁وقا	-10941
▁وقب	-10942
▁ولح	-10943
▁ومج	-10944
▁ومش	-10945
▁ويد	-10946
▁ويس	-10947
▁ويك	-10948
▁ويه	-10949
▁يجد	-10950
▁يطل	-10951
ؤولين	-10952
ائلهم	-10953
انهار	-10954
ايتها	-10955
باتات	-10956
بلدان	-10957
بلورر	-10958
ثمرين	-10959
حتفال	-10960
حيرات	-10961
دانيه	-10962
راحيه	-10963
ريعيه	-10964
ساميه	-10965
سبورغ	-10966
ستوري	-10967
سكرات	-10968
صادره	-10969
طلاقه	-10970
طوعين	-10971
عضويه	-10972
فاءات	-10973
لافيه	-10974
لاقيه	-10975
لسنكي	-10976
ماعات	-10977
مدارس	-10978
ناعيه	-10979
ناقشه	-10980
وقعات	-10981
يائيه	-10982
▁1200	-10983
▁1800	-10984
▁1917	-10985
▁1919	-10986
▁1947	-10987
▁1952	-10988
▁1977	-10989
▁7000	-10990
▁اثنت	-10991
▁اجبر	-10992
▁اخيه	-10993
▁استح	-10994
▁اشرف	-10995
▁اصله	-10996
▁اصيب	-10997
▁اكدت	-10998
▁التل	-10999
▁الثر	-11000
▁الجل	-11001
▁الخس	-11002
▁الخص	-11003
▁الشب	-11004
▁القن	-11005
▁النح	-11006
▁الوق	-11007
▁امضي	-11008
▁اوتو	-11009
▁بادئ	-11010
▁بحجه	-11011
▁بحري	-11012
▁بدقه	-11013
▁بديل	-11014
▁برمج	-11015
▁بريه	-11016
▁بسعر	-11017
▁بشير	-11018
▁بطرق	-11019
▁بعثه	-11020
▁بعقد	-11021
▁بعين	-11022
▁بقيد	-11023
▁بنقل	-11024
▁بوقت	-11025
▁تؤثر	-11026
▁تبنت	-11027
▁تبين	-11028
▁تجعل	-11029
▁تحرص	-11030
▁تخطي	-11031
▁تركي	-11032
▁تزخر	-11033
▁تصرف	-11034
▁تطلب	-11035
▁تفصل	-11036
▁تقني	-11037
▁تكثر	-11038
▁تلال	-11039
▁تمرد	-11040
▁تمنع	-11041
▁تنسب	-11042
▁تنشا	-11043
▁تنفي	-11044
▁تورط	-11045
▁تيار	-11046
▁جابر	-11047
▁جاسم	-11048
▁جمعت	-11049
▁جيتس	-11050
▁حقول	-11051
▁حملت	-11052
▁حيوي	-11053
▁خاصا	-11054
▁دقيق	-11055
▁دولا	-11056
▁دونم	-11057
▁ذروه	-11058
▁ريما	-11059
▁سائح	-11060
▁سباق	-11061
▁سفوح	-11062
▁سكوت	-11063
▁سنوي	-11064
▁سنين	-11065
▁شارل	-11066
▁شبيه	-11067
▁شريك	-11068
▁شعبي	-11069
▁صحرا	-11070
▁صديق	-11071
▁صفوف	-11072
▁صممت	-11073
▁ضربت	-11074
▁ضعفت	-11075
▁طلبا	-11076
▁عارض	-11077
▁عربا	-11078
▁عربه	-11079
▁عظيم	-11080
▁علنا	-11081
▁عهدا	-11082
▁فساد	-11083
▁فوزه	-11084
▁فوضي	-11085
▁قباب	-11086
▁قدما	-11087
▁قويا	-11088
▁كاري	-11089
▁كثره	-11090
▁كلين	-11091
▁لابل	-11092
▁لدين	-11093
▁لعلم	-11094
▁لغرض	-11095
▁لكلا	-11096
▁للاف	-11097
▁للبن	-11098
▁للصح	-11099
▁للعث	-11100
▁للمح	-11101
▁ليبر	-11102
▁مانه	-11103
▁مبدا	-11104
▁متعا	-11105
▁محلي	-11106
▁مخصص	-11107
▁مدحت	-11108
▁مسار	-11109
▁مشاه	-11110
▁معان	-11111
▁مقار	-11112
▁مقام	-11113
▁مقعد	-11114
▁ملام	-11115
▁ملعب	-11116
▁ملكي	-11117
▁مملك	-11118
▁مناق	-11119
▁منهج	-11120
▁موضع	-11121
▁ناصر	-11122
▁نخله	-11123
▁نزاع	-11124
▁نشبت	-11125
▁نظري	-11126
▁نفيل	-11127
▁نهضه	-11128
▁هذين	-11129
▁هكذا	-11130
▁هويه	-11131
▁وارس	-11132
▁واقل	-11133
▁وبنك	-11134
▁وبيت	-11135
▁ودرس	-11136
▁وراس	-11137
▁وردت	-11138
▁وسبا	-11139
▁وشبه	-11140
▁وضمن	-11141
▁وطني	-11142
▁وعقب	-11143
▁وفره	-11144
▁وقرر	-11145
▁وقله	-11146
▁وكيف	-11147
▁ولدت	-11148
▁ولذا	-11149
▁ولغه	-11150
▁وماك	-11151
▁ومنع	-11152
▁ونهر	-11153
▁وهول	-11154
▁ووال	-11155
▁يتفق	-11156
▁يخدم	-11157
▁يدعو	-11158
▁يدير	-11159
▁يذهب	-11160
▁يرفض	-11161
▁يشعر	-11162
▁يضمن	-11163
▁يطبق	-11164
▁يقات	-11165
▁يقود	-11166
▁يمنع	-11167
▁ينتج	-11168
▁يونس	-11169
شاورات	-11170
فاعليه	-11171
هلاكيه	-11172
وارعها	-11173
▁1941،	-11174
▁1948،	-11175
▁1958.	-11176
▁1967،	-11177
▁1976،	-11178
▁2015.	-11179
▁اتهمت	-11180
▁اثارت	-11181
▁اردني	-11182
▁اركان	-11183
▁اسسها	-11184
▁اشارت	-11185
▁اشياء	-11186
▁اصابه	-11187
▁اضرار	-11188
▁اضطرت	-11189
▁اعادت	-11190
▁اعصار	-11191
▁الاحد	-11192
▁الاسد	-11193
▁الانش	-11194
▁البعد	-11195
▁التحو	-11196
▁الثدي	-11197
▁الحلي	-11198
▁الخبر	-11199
▁الخطط	-11200
▁الدار	-11201
▁الرسل	-11202
▁الرسم	-11203
▁الزور	-11204
▁السكر	-11205
▁السيم	-11206
▁الشاه	-11207
▁الشاي	-11208
▁الصعب	-11209
▁الصلح	-11210
▁الضعف	-11211
▁الطبق	-11212
▁الطيب	-11213
▁العبر	-11214
▁العطل	-11215
▁العمه	-11216
▁القحط	-11217
▁القمح	-11218
▁القيس	-11219
▁الكرك	-11220
▁الكوا	-11221
▁الماك	-11222
▁المتت	-11223
▁المدف	-11224
▁المرء	-11225
▁المرف	-11226
▁المزد	-11227
▁المطر	-11228
▁الملي	-11229
▁المنح	-11230
▁المنش	-11231
▁النحت	-11232
▁النيه	-11233
▁الورق	-11234
▁الوزن	-11235
▁الوفد	-11236
▁امتار	-11237
▁امثله	-11238
▁انتخب	-11239
▁انتقد	-11240
▁انهما	-11241
▁اواسط	-11242
▁اولها	-11243
▁بالتر	-11244
▁بحاجه	-11245
▁بحثيه	-11246
▁بخصوص	-11247
▁بدوري	-11248
▁بشركه	-11249
▁بقليل	-11250
▁بوصفه	-11251
▁بيانا	-11252
▁تاييد	-11253
▁تتمكن	-11254
▁تحافظ	-11255
▁تحاول	-11256
▁تحتفظ	-11257
▁تحصيل	-11258
▁تحليل	-11259
▁تحميل	-11260
▁تدهور	-11261
▁تركها	-11262
▁تسببت	-11263
▁تستطع	-11264
▁تسهيل	-11265
▁تشترك	-11266
▁تقليل	-11267
▁تكساس	-11268
▁تمتاز	-11269
▁تنوعت	-11270
▁تهيئه	-11271
▁توفيق	-11272
▁ثقافي	-11273
▁جزئيه	-11274
▁جلسات	-11275
▁حاسمه	-11276
▁حجمها	-11277
▁حكمها	-11278
▁حكموا	-11279
▁حنيفه	-11280
▁حوران	-11281
▁خطابا	-11282
▁خطيره	-11283
▁خلكان	-11284
▁دائمه	-11285
▁داخله	-11286
▁دعاوي	-11287
▁دوريه	-11288
▁دوقيه	-11289
▁ديانه	-11290
▁ديفيد	-11291
▁ذهبيه	-11292
▁رائده	-11293
▁رقابه	-11294
▁زراعي	-11295
▁سكانه	-11296
▁سلبيه	-11297
▁سماها	-11298
▁شائعه	-11299
▁شاسعه	-11300
▁شقيقه	-11301
▁صفحات	-11302
▁طرخان	-11303
▁عامله	-11304
▁عربيا	-11305
▁علياء	-11306
▁عماره	-11307
▁عواصم	-11308
▁عوامل	-11309
▁فائده	-11310
▁فيمكن	-11311
▁قاعات	-11312
▁قتبان	-11313
▁قريبا	-11314
▁قيمته	-11315
▁كاملا	-11316
▁كفاءه	-11317
▁كنظام	-11318
▁لاحقه	-11319
▁لاعبي	-11320
▁لانهم	-11321
▁لتشكل	-11322
▁لكثره	-11323
▁للشعب	-11324
▁للكره	-11325
▁مؤكده	-11326
▁مادبا	-11327
▁متاحه	-11328
▁محايد	-11329
▁مروان	-11330
▁مسبقا	-11331
▁مستقب	-11332
▁مسجله	-11333
▁مشيرا	-11334
▁مصريه	-11335
▁مطالب	-11336
▁مطوري	-11337
▁معاهد	-11338
▁مفيده	-11339
▁ممرات	-11340
▁مندوب	-11341
▁مهمته	-11342
▁مياهه	-11343
▁ناجحه	-11344
▁نجاحه	-11345
▁نشرها	-11346
▁نموذج	-11347
▁نينوي	-11348
▁هاتين	-11349
▁هيمنه	-11350
▁واضحا	-11351
▁والاذ	-11352
▁والحد	-11353
▁والحر	-11354
▁والرك	-11355
▁والري	-11356
▁والزي	-11357
▁والعث	-11358
▁والفض	-11359
▁والقر	-11360
▁والكا	-11361
▁والمغ	-11362
▁والمي	-11363
▁وباقي	-11364
▁وبدون	-11365
▁وتعمل	-11366
▁وحاول	-11367
▁وحدثت	-11368
▁وخدمه	-11369
▁ودخلت	-11370
▁وذكرت	-11371
▁وشكلت	-11372
▁وطنهم	-11373
▁وظهرت	-11374
▁وعاصي	-11375
▁وقلعه	-11376
▁وكتاب	-11377
▁ومكان	-11378
▁ووصفه	-11379
▁ووصلت	-11380
▁وياتي	-11381
▁ويبدو	-11382
▁يتوسط	-11383
▁يتوفر	-11384
▁يجادل	-11385
▁يحتفظ	-11386
▁يرتفع	-11387
▁يساهم	-11388
▁يعتنق	-11389
▁يلاحظ	-11390
▁يهودي	-11391
▁يوميه	-11392
باكستان	-11393
راتيجيه	-11394
ورانيوم	-11395
▁احتمال	-11396
▁اراضيه	-11397
▁ارتباط	-11398
▁استوطن	-11399
▁اعتقال	-11400
▁اعدادا	-11401
▁اقامته	-11402
▁اكثرها	-11403
▁الادبي	-11404
▁الارضي	-11405
▁الاستع	-11406
▁الامني	-11407
▁الاميه	-11408
▁الاناث	-11409
▁البخار	-11410
▁البيان	-11411
▁التبخر	-11412
▁التتار	-11413
▁التحول	-11414
▁التخلص	-11415
▁التلال	-11416
▁التنبؤ	-11417
▁التوصل	-11418
▁الجزائ	-11419
▁الجزيه	-11420
▁الجيري	-11421
▁الحارث	-11422
▁الحبوب	-11423
▁الحربي	-11424
▁الحضور	-11425
▁الحيره	-11426
▁الخطيه	-11427
▁الداخل	-11428
▁الدروز	-11429
▁الدمار	-11430
▁الرايخ	-11431
▁الراين	-11432
▁الزيتي	-11433
▁السائد	-11434
▁الشديد	-11435
▁الشريط	-11436
▁الصوره	-11437
▁العداء	-11438
▁العددي	-11439
▁العرقي	-11440
▁العشاء	-11441
▁العموم	-11442
▁الغطاء	-11443
▁الفئات	-11444
▁الفتوح	-11445
▁الفخمه	-11446
▁الفراغ	-11447
▁الفعلي	-11448
▁الفونس	-11449
▁القارئ	-11450
▁القاره	-11451
▁الكاري	-11452
▁اللؤلؤ	-11453
▁اللازم	-11454
▁اللحوم	-11455
▁المثني	-11456
▁المرجح	-11457
▁المضاد	-11458
▁المطله	-11459
▁الملون	-11460
▁الممتد	-11461
▁المنفي	-11462
▁الميكر	-11463
▁النزوح	-11464
▁النقاب	-11465
▁الهنود	-11466
▁الوسيط	-11467
▁الويكي	-11468
▁انابيب	-11469
▁اندمجت	-11470
▁انطلقت	-11471
▁انفجار	-11472
▁بالبحر	-11473
▁بالفشل	-11474
▁بانتاج	-11475
▁ببساطه	-11476
▁بتشغيل	-11477
▁بتعيين	-11478
▁بتغيير	-11479
▁بحكومه	-11480
▁برعايه	-11481
▁بساتين	-11482
▁بشعبيه	-11483
▁بعمليه	-11484
▁بموجبه	-11485
▁تاثيرا	-11486
▁تجاوزت	-11487
▁تقنيات	-11488
▁تنفيذي	-11489
▁ثانويه	-11490
▁ثقافيا	-11491
▁جنوبها	-11492
▁حكومات	-11493
▁داخليا	-11494
▁ذروتها	-11495
▁رسوميه	-11496
▁زراعيه	-11497
▁سارفيس	-11498
▁ضروريا	-11499
▁طومسون	-11500
▁عائدات	-11501
▁عائلته	-11502
▁فاصبحت	-11503
▁فرانسي	-11504
▁كلاهما	-11505
▁لاتفيا	-11506
▁لاسيما	-11507
▁لالعاب	-11508
▁لامبرت	-11509
▁لبرلين	-11510
▁لبغداد	-11511
▁لتاريخ	-11512
▁لتعريف	-11513
▁لتوسيع	-11514
▁لدراسه	-11515
▁لزياره	-11516
▁لسنوات	-11517
▁للبيئه	-11518
▁للحروب	-11519
▁للحريه	-11520
▁للذكور	-11521
▁للرجال	-11522
▁للزوار	-11523
▁للهجره	-11524
▁لنظريه	-11525
▁لولايه	-11526
▁ماكرون	-11527
▁مجتمعه	-11528
▁محاكمه	-11529
▁محفوظه	-11530
▁مخلفات	-11531
▁مرسوما	-11532
▁مسيرته	-11533
▁مطارات	-11534
▁مقاليد	-11535
▁مليوني	-11536
▁منظمات	-11537
▁مهارات	-11538
▁نفوذهم	-11539
▁واصابه	-11540
▁واعمال	-11541
▁واغنيه	-11542
▁والاعت	-11543
▁والبرت	-11544
▁والتوا	-11545
▁والحرب	-11546
▁والخام	-11547
▁والذهب	-11548
▁والسنه	-11549
▁والشعر	-11550
▁والصحه	-11551
▁والقدس	-11552
▁والقري	-11553
▁واوائل	-11554
▁وبينما	-11555
▁وتعديل	-11556
▁وتعزيز	-11557
▁وتقديم	-11558
▁وتنتشر	-11559
▁وتنفيذ	-11560
▁وتوجيه	-11561
▁ودوائر	-11562
▁ومتنزه	-11563
▁ومقرها	-11564
▁ويتالف	-11565
اجيكستان	-11566
▁اتحاديه	-11567
▁اتصالات	-11568
▁اختلافا	-11569
▁ارتفاعا	-11570
▁استبدال	-11571
▁استدعاء	-11572
▁اصدارات	-11573
▁اعضائها	-11574
▁اغتياله	-11575
▁اقتصادي	-11576
▁الاحصاء	-11577
▁الاذاعي	-11578
▁الارباح	-11579
▁الازياء	-11580
▁الاسبوع	-11581
▁الاعوام	-11582
▁الالوان	-11583
▁الاملاح	-11584
▁الاهالي	-11585
▁الاوساط	-11586
▁البداوه	-11587
▁البلقاء	-11588
▁البوذيه	-11589
▁البوسعي	-11590
▁التاكيد	-11591
▁التجنيد	-11592
▁التعديل	-11593
▁التغطيه	-11594
▁التكلفه	-11595
▁التكوين	-11596
▁التهديد	-11597
▁الجرائم	-11598
▁الجولان	-11599
▁الحسيني	-11600
▁الحقائق	-11601
▁الخاصيه	-11602
▁الخريطه	-11603
▁الخلفيه	-11604
▁الخوارج	-11605
▁الدائره	-11606
▁الدكتور	-11607
▁الرائده	-11608
▁الرابطه	-11609
▁الرسائل	-11610
▁الرصافه	-11611
▁الروابط	-11612
▁الساحقه	-11613
▁السلبيه	-11614
▁السوقيه	-11615
▁الشاميه	-11616
▁الشعريه	-11617
▁الصوفيه	-11618
▁الصومال	-11619
▁الصينيه	-11620
▁الطاعون	-11621
▁العاشره	-11622
▁العدديه	-11623
▁الغازيه	-11624
▁الغريبه	-11625
▁الفاضله	-11626
▁الفعليه	-11627
▁الفلكيه	-11628
▁الفنادق	-11629
▁الكريمه	-11630
▁الكسندر	-11631
▁اللغويه	-11632
▁المتمثل	-11633
▁المحايد	-11634
▁المدمره	-11635
▁المراعي	-11636
▁المزارع	-11637
▁المشهور	-11638
▁المصالح	-11639
▁المصلون	-11640
▁المضمنه	-11641
▁المغلقه	-11642
▁الملوحه	-11643
▁المناصب	-11644
▁المهدده	-11645
▁المواقف	-11646
▁المورثه	-11647
▁النبويه	-11648
▁النتيجه	-11649
▁النظيفه	-11650
▁النعمان	-11651
▁الهيئات	-11652
▁الهياكل	-11653
▁الوسائل	-11654
▁الوفيات	-11655
▁امريكيا	-11656
▁انتاجيه	-11657
▁بارتفاع	-11658
▁بالمياه	-11659
▁بطالبان	-11660
▁تغييرات	-11661
▁جغرافيه	-11662
▁رياضيات	-11663
▁ستستحوذ	-11664
▁سيطرتها	-11665
▁سيطرتهم	-11666
▁عشوائيه	-11667
▁لابلاند	-11668
▁للاصلاح	-11669
▁للتاريخ	-11670
▁للتجاره	-11671
▁للتخطيط	-11672
▁للتعاون	-11673
▁للدراسه	-11674
▁للسلطان	-11675
▁للسينما	-11676
▁لمجموعه	-11677
▁مانشستر	-11678
▁مانهاتن	-11679
▁متتاليه	-11680
▁مجتمعات	-11681
▁مستخدمه	-11682
▁مقاطعات	-11683
▁موسيقيه	-11684
▁نهائيات	-11685
▁واشهرها	-11686
▁واعتبار	-11687
▁والامام	-11688
▁والبنيه	-11689
▁والتحكم	-11690
▁والتعلي	-11691
▁والرسوم	-11692
▁والسادس	-11693
▁والفيني	-11694
▁والقطاع	-11695
▁واللغات	-11696
▁وانتهاء	-11697
▁وسويسرا	-11698
▁وسيطروا	-11699
▁ومتنوعه	-11700
▁ومعناها	-11701
▁يعتقدون	-11702
▁يوفنتوس	-11703
▁احتجاجات	-11704
▁احصائيات	-11705
▁اكسبلورر	-11706
▁الاربعين	-11707
▁الاعتبار	-11708
▁الاعتراف	-11709
▁الانساني	-11710
▁الباحثون	-11711
▁البدائيه	-11712
▁البرازيل	-11713
▁البهائيه	-11714
▁البيروتي	-11715
▁التجريبي	-11716
▁الجامعيه	-11717
▁الجانبين	-11718
▁الجماعيه	-11719
▁الجمعيات	-11720
▁الجمهوري	-11721
▁الحدوديه	-11722
▁الحفريات	-11723
▁الصراعات	-11724
▁الصفويين	-11725
▁العملاقه	-11726
▁الفضائيه	-11727
▁القاطنين	-11728
▁المحاكمه	-11729
▁المراقبه	-11730
▁المساحات	-11731
▁المفاهيم	-11732
▁المقالات	-11733
▁المقريزي	-11734
▁الموسميه	-11735
▁النباتيه	-11736
▁النزاعات	-11737
▁اليمنيين	-11738
▁باستقلال	-11739
▁بالجامعه	-11740
▁بالعبريه	-11741
▁بالمنطقه	-11742
▁تستخدمها	-11743
▁لاستعاده	-11744
▁لاستونيا	-11745
▁للمستهلك	-11746
▁ليتوانيا	-11747
▁ليفونيان	-11748
▁واسرائيل	-11749
▁والاعمال	-11750
▁والاغريق	-11751
▁والاكراد	-11752
▁والتحليل	-11753
▁والتدريب	-11754
▁والراديو	-11755
▁والشرقيه	-11756
▁والشيشان	-11757
▁والعلماء	-11758
▁والقنوات	-11759
▁والكرديه	-11760
▁والمعاهد	-11761
▁والنرويج	-11762
▁واليابان	-11763
▁وحلفائها	-11764
▁الاحتياطي	-11765
▁الاستطلاع	-11766
▁الاستعمال	-11767
▁الاستفاده	-11768
▁الاستمرار	-11769
▁الامدادات	-11770
▁الاوزبكيه	-11771
▁البديهيات	-11772
▁التربيعيه	-11773
▁التعديلات	-11774
▁التعريفات	-11775
▁التغييرات	-11776
▁التفجيرات	-11777
▁التفسيرات	-11778
▁الجرمانيه	-11779
▁الدولارات	-11780
▁الساسانيه	-11781
▁العمونيين	-11782
▁الفعاليات	-11783
▁الكنعانيه	-11784
▁الكهربائي	-11785
▁المتحدثين	-11786
▁المتداوله	-11787
▁المشهورين	-11788
▁المصفوفات	-11789
▁المعقولات	-11790
▁للبرمجيات	-11791
▁للمسيحيين	-11792
▁والاراميه	-11793
▁والاربعين	-11794
▁الاحتجاجات	-11795
▁البوندستاج	-11796
▁السوفياتيه	-11797
▁المستنصريه	-11798
▁المستهلكين	-11799
▁بالاستقلال	-11800
▁والاجتماعي	-11801
▁وتكنولوجيا	-11802
▁الاستثمارات	-11803
▁الاستخدامات	-11804
,1	-11805
-2	-11806
66	-11807
93	-11808
]]	-11809
حص	-11810
رس	-11811
زز	-11812
زك	-11813
شط	-11814
فط	-11815
كث	-11816
▁؟	-11817
7.5	-11818
ؤوس	-11819
ائص	-11820
احت	-11821
ادم	-11822
ارن	-11823
اسا	-11824
اشه	-11825
اصد	-11826
اعل	-11827
اكد	-11828
انو	-11829
بده	-11830
بعت	-11831
بلا	-11832
بوع	-11833
بون	-11834
تاب	-11835
ثلي	-11836
حتل	-11837
خرف	-11838
خلي	-11839
خور	-11840
داخ	-11841
درخ	-11842
ديك	-11843
رتب	-11844
رجل	-11845
رسم	-11846
ركب	-11847
رها	-11848
روح	-11849
زاز	-11850
زيا	-11851
سرا	-11852
سطي	-11853
سني	-11854
شوف	-11855
شيح	-11856
صبا	-11857
طرب	-11858
طقس	-11859
طيح	-11860
عال	-11861
عظم	-11862
عمت	-11863
غرق	-11864
غلا	-11865
غوب	-11866
فته	-11867
فرت	-11868
فسر	-11869
قوب	-11870
كاك	-11871
كست	-11872
لحه	-11873
ليت	-11874
ماق	-11875
منذ	-11876
موع	-11877
نتي	-11878
نحه	-11879
نهي	-11880
وحي	-11881
ودا	-11882
وفو	-11883
وقا	-11884
وكس	-11885
ومب	-11886
يال	-11887
يرغ	-11888
يري	-11889
▁(4	-11890
▁51	-11891
▁53	-11892
▁66	-11893
▁67	-11894
▁تذ	-11895
▁رف	-11896
▁زر	-11897
▁عذ	-11898
▁فف	-11899
▁قا	-11900
▁قف	-11901
,500	-11902
ؤساء	-11903
ئتين	-11904
اؤها	-11905
اجرت	-11906
ادرت	-11907
اديل	-11908
اسات	-11909
اشيه	-11910
اصيه	-11911
اكيد	-11912
انته	-11913
اندي	-11914
انظر	-11915
انيت	-11916
برين	-11917
بعوث	-11918
بيره	-11919
تحال	-11920
ترول	-11921
تياح	-11922
ثرهم	-11923
ثيفه	-11924
ثيوم	-11925
ثيون	-11926
جائب	-11927
جبات	-11928
جيين	-11929
حاري	-11930
خارف	-11931
خريه	-11932
خزين	-11933
خلات	-11934
ذهبي	-11935
راثه	-11936
رافئ	-11937
راكم	-11938
راها	-11939
ركون	-11940
ريسه	-11941
سلمت	-11942
سيها	-11943
شتمل	-11944
شرون	-11945
صليه	-11946
صيان	-11947
صيصا	-11948
طعمه	-11949
طعيم	-11950
طلقه	-11951
طوبه	-11952
طيها	-11953
ظفين	-11954
عارف	-11955
غرقت	-11956
فساء	-11957
فضله	-11958
فعله	-11959
قاته	-11960
قاله	-11961
قايه	-11962
قطاب	-11963
قوده	-11964
كاما	-11965
كتها	-11966
كسوس	-11967
لائه	-11968
لاقي	-11969
لتها	-11970
مالا	-11971
مران	-11972
ملوك	-11973
ناعي	-11974
ندسه	-11975
نزير	-11976
نظام	-11977
وائم	-11978
وابق	-11979
وابه	-11980
واتم	-11981
واته	-11982
وارب	-11983
وارث	-11984
واره	-11985
واكه	-11986
واني	-11987
وايا	-11988
وبيل	-11989
وجهه	-11990
وحاه	-11991
ودور	-11992
ورفا	-11993
وزبك	-11994
وضات	-11995
وعها	-11996
وفان	-11997
وقود	-11998
وقوف	-11999
وليا	-12000
يئات	-12001
يافه	-12002
يفره	-12003
يمون	-12004
▁135	-12005
▁162	-12006
▁174	-12007
▁179	-12008
▁188	-12009
▁3.5	-12010
▁360	-12011
▁850	-12012
▁احب	-12013
▁احر	-12014
▁اشب	-12015
▁اشر	-12016
▁اصي	-12017
▁اعط	-12018
▁امم	-12019
▁بدر	-12020
▁برن	-12021
▁بسم	-12022
▁بفر	-12023
▁بيو	-12024
▁تار	-12025
▁تاش	-12026
▁تتح	-12027
▁تحد	-12028
▁تحل	-12029
▁تصح	-12030
▁تصف	-12031
▁تعت	-12032
▁تفت	-12033
▁توط	-12034
▁جار	-12035
▁حبي	-12036
▁حده	-12037
▁حشد	-12038
▁حصر	-12039
▁حظي	-12040
▁حمص	-12041
▁ديل	-12042
▁ذاع	-12043
▁راب	-12044
▁رصد	-12045
▁رضا	-12046
▁روك	-12047
▁ساد	-12048
▁سجن	-12049
▁سلب	-12050
▁سول	-12051
▁شاب	-12052
▁شرك	-12053
▁شنت	-12054
▁شيخ	-12055
▁ضيق	-12056
▁عجز	-12057
▁عرق	-12058
▁عزم	-12059
▁عنف	-12060
▁غوت	-12061
▁فاج	-12062
▁فرص	-12063
▁فكل	-12064
▁فنل	-12065
▁فني	-12066
▁فول	-12067
▁فيت	-12068
▁فيج	-12069
▁فيغ	-12070
▁قاض	-12071
▁قاع	-12072
▁قرق	-12073
▁قشت	-12074
▁قصص	-12075
▁قضا	-12076
▁قول	-12077
▁قيس	-12078
▁كنت	-12079
▁كهر	-12080
▁كود	-12081
▁لتز	-12082
▁لحي	-12083
▁لعل	-12084
▁لمؤ	-12085
▁لمش	-12086
▁لوا	-12087
▁لوح	-12088
▁ماس	-12089
▁مضي	-12090
▁معي	-12091
▁مقص	-12092
▁منط	-12093
▁موه	-12094
▁نجم	-12095
▁نعت	-12096
▁نيك	-12097
▁هاب	-12098
▁هبه	-12099
▁واذ	-12100
▁وجم	-12101
▁ورس	-12102
▁وسر	-12103
▁وشك	-12104
▁وعب	-12105
▁وكم	-12106
▁ولغ	-12107
▁ولف	-12108
▁ولو	-12109
▁ومخ	-12110
▁ونا	-12111
▁ونق	-12112
▁ووض	-12113
▁ويث	-12114
▁ويز	-12115
▁ويص	-12116
▁ياس	-12117
▁يحا	-12118
▁يحب	-12119
▁يحد	-12120
▁يصب	-12121
▁يضع	-12122
,000.	-12123
ارتين	-12124
اضرات	-12125
الجبر	-12126
الفات	-12127
اهريه	-12128
بانيه	-12129
بهاني	-12130
تيكيه	-12131
ثيليه	-12132
حدرين	-12133
ختلطه	-12134
خصائص	-12135
ذاكره	-12136
راضيه	-12137
رافقه	-12138
رافيه	-12139
ركزون	-12140
زامات	-12141
زروعه	-12142
شاريه	-12143
صابات	-12144
ضانات	-12145
ضيريه	-12146
طنطين	-12147
طوطات	-12148
غاليه	-12149
فاوته	-12150
لائها	-12151
لاحيه	-12152
لاكسو	-12153
لاميذ	-12154
لماني	-12155
ليليه	-12156
هاجمه	-12157
واضعه	-12158
وبالت	-12159
يروان	-12160
يلندا	-12161
▁1516	-12162
▁1831	-12163
▁1921	-12164
▁1922	-12165
▁1923	-12166
▁1956	-12167
▁1986	-12168
▁4000	-12169
▁ابلغ	-12170
▁اتاح	-12171
▁اتصل	-12172
▁اتوس	-12173
▁اجمع	-12174
▁احسن	-12175
▁ارضا	-12176
▁اسبو	-12177
▁استث	-12178
▁اضحت	-12179
▁اعتن	-12180
▁اعطت	-12181
▁افضت	-12182
▁الحك	-12183
▁الرج	-12184
▁الشت	-12185
▁الضي	-12186
▁القس	-12187
▁الكي	-12188
▁الهر	-12189
▁الوع	-12190
▁امنا	-12191
▁انتخ	-12192
▁انظر	-12193
▁انوا	-12194
▁اوضح	-12195
▁ايلي	-12196
▁بابا	-12197
▁بالث	-12198
▁بالض	-12199
▁بالي	-12200
▁باول	-12201
▁بثها	-12202
▁بجبل	-12203
▁بريد	-12204
▁بطلب	-12205
▁بعدد	-12206
▁بغزو	-12207
▁بفرض	-12208
▁بلات	-12209
▁بلاط	-12210
▁بلدا	-12211
▁بمنح	-12212
▁بنفس	-12213
▁بوذا	-12214
▁تاخذ	-12215
▁تبدو	-12216
▁تبرز	-12217
▁تبعا	-12218
▁تتخل	-12219
▁تتصل	-12220
▁تتيح	-12221
▁تجذب	-12222
▁تدعو	-12223
▁تركه	-12224
▁تروي	-12225
▁تزاي	-12226
▁تسجل	-12227
▁تسكن	-12228
▁تسير	-12229
▁تصور	-12230
▁تعكس	-12231
▁تفيد	-12232
▁تقبل	-12233
▁تميم	-12234
▁تنحي	-12235
▁تنشر	-12236
▁جاده	-12237
▁جبري	-12238
▁جدول	-12239
▁جذبت	-12240
▁جرعه	-12241
▁جزئي	-12242
▁جفاف	-12243
▁جمعه	-12244
▁جونز	-12245
▁حافه	-12246
▁حليف	-12247
▁حماس	-12248
▁حوله	-12249
▁خريف	-12250
▁خصبه	-12251
▁خيار	-12252
▁داره	-12253
▁دعمت	-12254
▁ذاتي	-12255
▁رايه	-12256
▁رقعه	-12257
▁رقما	-12258
▁رمزي	-12259
▁روسي	-12260
▁ريدم	-12261
▁زنده	-12262
▁سبقت	-12263
▁سحاب	-12264
▁سمات	-12265
▁سمعه	-12266
▁سهلت	-12267
▁سهله	-12268
▁شانه	-12269
▁شجاع	-12270
▁شخصي	-12271
▁شوري	-12272
▁صارت	-12273
▁صانع	-12274
▁صحيه	-12275
▁صفات	-12276
▁صورا	-12277
▁ضربه	-12278
▁ضغوط	-12279
▁طلبه	-12280
▁طورت	-12281
▁طيار	-12282
▁ظاهر	-12283
▁عانت	-12284
▁عطله	-12285
▁عليك	-12286
▁عمال	-12287
▁عوضا	-12288
▁غايه	-12289
▁غيرت	-12290
▁فؤاد	-12291
▁فاقت	-12292
▁فالت	-12293
▁فامر	-12294
▁فبدا	-12295
▁فشلت	-12296
▁فقرر	-12297
▁فكري	-12298
▁فلقد	-12299
▁فورت	-12300
▁فوزي	-12301
▁فيجب	-12302
▁فيهم	-12303
▁قاره	-12304
▁قاري	-12305
▁قبله	-12306
▁قريش	-12307
▁قسمت	-12308
▁قصور	-12309
▁قومه	-12310
▁كاتب	-12311
▁كالح	-12312
▁كمست	-12313
▁كوكب	-12314
▁لاحد	-12315
▁لاحظ	-12316
▁لبثت	-12317
▁لتصل	-12318
▁لجان	-12319
▁لحفظ	-12320
▁لحين	-12321
▁لدور	-12322
▁لربط	-12323
▁لسان	-12324
▁لعبد	-12325
▁لقاء	-12326
▁لكاس	-12327
▁لكون	-12328
▁للاب	-12329
▁للاض	-12330
▁للاغ	-12331
▁للتج	-12332
▁للتق	-12333
▁للعب	-12334
▁للغه	-12335
▁للفر	-12336
▁للمؤ	-12337
▁للور	-12338
▁لموس	-12339
▁لنفس	-12340
▁لوصف	-12341
▁لولا	-12342
▁ليره	-12343
▁ليلي	-12344
▁متاح	-12345
▁مجيء	-12346
▁محسن	-12347
▁مدني	-12348
▁مرفا	-12349
▁مركب	-12350
▁مستع	-12351
▁مسجل	-12352
▁مشار	-12353
▁مصرف	-12354
▁مصمم	-12355
▁مصير	-12356
▁معجم	-12357
▁معلم	-12358
▁مقال	-12359
▁مهند	-12360
▁ناقش	-12361
▁نتاج	-12362
▁نخبه	-12363
▁نذكر	-12364
▁نزيل	-12365
▁نشاه	-12366
▁نشره	-12367
▁نشوب	-12368
▁نقول	-12369
▁هائل	-12370
▁هيثم	-12371
▁واحه	-12372
▁واسم	-12373
▁واصد	-12374
▁وافر	-12375
▁وبنو	-12376
▁وترت	-12377
▁وجمع	-12378
▁وجهت	-12379
▁وحرب	-12380
▁ودبي	-12381
▁ودفن	-12382
▁ودور	-12383
▁ورقه	-12384
▁وشرح	-12385
▁وصار	-12386
▁وعرب	-12387
▁وعزل	-12388
▁وعلم	-12389
▁وغرب	-12390
▁وقسم	-12391
▁وكار	-12392
▁وكره	-12393
▁ولاء	-12394
▁ولان	-12395
▁ولكل	-12396
▁ومار	-12397
▁ونائ	-12398
▁ونقص	-12399
▁وهور	-12400
▁ووجد	-12401
▁ويرت	-12402
▁ويضع	-12403
▁يجذب	-12404
▁يحضر	-12405
▁يدفع	-12406
▁يرسل	-12407
▁يرون	-12408
▁يسبب	-12409
▁يسهم	-12410
▁يسير	-12411
▁يعلن	-12412
▁يفهم	-12413
▁يفوق	-12414
▁يقرا	-12415
▁يقضي	-12416
▁يكمل	-12417
▁يمنح	-12418
▁ينظم	-12419
▁يوصف	-12420
تهاكات	-12421
دائيين	-12422
ربيجان	-12423
رجانات	-12424
سماريه	-12425
ظاهرون	-12426
عماريه	-12427
قسامات	-12428
قليميه	-12429
كانيكي	-12430
كواندو	-12431
لاحيات	-12432
هيونيه	-12433
وبنديه	-12434
وغرافي	-12435
▁(1996	-12436
▁10000	-12437
▁15000	-12438
▁1918،	-12439
▁1968.	-12440
▁1980،	-12441
▁1988.	-12442
▁1997.	-12443
▁1997،	-12444
▁2000.	-12445
▁2004.	-12446
▁2021.	-12447
▁3,000	-12448
▁ابتكر	-12449
▁اتسمت	-12450
▁اجبرت	-12451
▁اجرته	-12452
▁ادانه	-12453
▁ادولف	-12454
▁ارباع	-12455
▁ازاله	-12456
▁استيف	-12457
▁اسقاط	-12458
▁اسقطت	-12459
▁اسماك	-12460
▁اصليه	-12461
▁اعتقل	-12462
▁اعلام	-12463
▁اعماق	-12464
▁افادت	-12465
▁الاحص	-12466
▁الاخب	-12467
▁الاصط	-12468
▁الانك	-12469
▁الباز	-12470
▁البرج	-12471
▁التون	-12472
▁التيم	-12473
▁الثان	-12474
▁الثلث	-12475
▁الجسد	-12476
▁الجسر	-12477
▁الجمل	-12478
▁الجيد	-12479
▁الخبز	-12480
▁الرحي	-12481
▁الروك	-12482
▁الساخ	-12483
▁السام	-12484
▁السيف	-12485
▁الشان	-12486
▁الصلب	-12487
▁الصنع	-12488
▁العائ	-12489
▁العاص	-12490
▁العذب	-12491
▁الغار	-12492
▁الفتن	-12493
▁الفجر	-12494
▁الفرع	-12495
▁الفضه	-12496
▁الفقر	-12497
▁الفقه	-12498
▁الفين	-12499
▁القبر	-12500
▁القطن	-12501
▁القمه	-12502
▁القيم	-12503
▁الكرخ	-12504
▁الكود	-12505
▁اللعب	-12506
▁المان	-12507
▁المتف	-12508
▁المخط	-12509
▁المخل	-12510
▁المذي	-12511
▁المرش	-12512
▁المعي	-12513
▁النجف	-12514
▁النمر	-12515
▁الهول	-12516
▁الواف	-12517
▁الوجه	-12518
▁اماما	-12519
▁امتلك	-12520
▁امراء	-12521
▁انديه	-12522
▁انفاق	-12523
▁انفقت	-12524
▁اوبرا	-12525
▁اوليه	-12526
▁ايفان	-12527
▁بالتع	-12528
▁بالله	-12529
▁بجميع	-12530
▁بحدود	-12531
▁بحركه	-12532
▁بداوا	-12533
▁بدعوي	-12534
▁بدوله	-12535
▁بديلا	-12536
▁بشمال	-12537
▁بطيئه	-12538
▁بعمان	-12539
▁بمبلغ	-12540
▁بمجلس	-12541
▁بمهام	-12542
▁بموقع	-12543
▁بنائه	-12544
▁بنجاح	-12545
▁بهيئه	-12546
▁بوضوح	-12547
▁تتاثر	-12548
▁تتعرض	-12549
▁تجنيد	-12550
▁تحدثت	-12551
▁تحدها	-12552
▁تركيز	-12553
▁تزويد	-12554
▁تساعد	-12555
▁تستمر	-12556
▁تشييد	-12557
▁تعليق	-12558
▁تعويض	-12559
▁تفسير	-12560
▁تقدمت	-12561
▁تقويم	-12562
▁تقييم	-12563
▁تلقوا	-12564
▁تمتعت	-12565
▁توماس	-12566
▁تيميه	-12567
▁ثماني	-12568
▁جانبا	-12569
▁جمهور	-12570
▁جنديا	-12571
▁جنكيز	-12572
▁حاضرا	-12573
▁حاضره	-12574
▁حضريه	-12575
▁حقائق	-12576
▁حينئذ	-12577
▁خصيصا	-12578
▁داخلي	-12579
▁دخلها	-12580
▁دعمهم	-12581
▁دعوات	-12582
▁دورها	-12583
▁ديالي	-12584
▁ذروته	-12585
▁راسهم	-12586
▁رفضوا	-12587
▁رواتب	-12588
▁رواجا	-12589
▁رياضي	-12590
▁زكريا	-12591
▁زوجها	-12592
▁سايكس	-12593
▁ستريت	-12594
▁سريعا	-12595
▁سكايب	-12596
▁سلامه	-12597
▁شائعا	-12598
▁شاملا	-12599
▁شانها	-12600
▁شهدته	-12601
▁صارمه	-12602
▁صالحه	-12603
▁صحيحه	-12604
▁صداقه	-12605
▁صديقه	-12606
▁طبيعي	-12607
▁طوائف	-12608
▁عميقه	-12609
▁فرساي	-12610
▁فشلوا	-12611
▁فصائل	-12612
▁فعاله	-12613
▁فقيره	-12614
▁فيبلغ	-12615
▁قائما	-12616
▁قبلها	-12617
▁قرارا	-12618
▁قراره	-12619
▁قلهات	-12620
▁كتبوا	-12621
▁كشركه	-12622
▁كلاعب	-12623
▁كلاين	-12624
▁كيميا	-12625
▁لائحه	-12626
▁لتجنب	-12627
▁لجهاز	-12628
▁لدمشق	-12629
▁لرئيس	-12630
▁لظهور	-12631
▁لكنهم	-12632
▁للاسر	-12633
▁للشرب	-12634
▁للعرب	-12635
▁للقرن	-12636
▁للمدن	-12637
▁للمست	-12638
▁للناس	-12639
▁للنبي	-12640
▁لمنصب	-12641
▁لهجات	-12642
▁لهجوم	-12643
▁مائيه	-12644
▁مبارك	-12645
▁مبكره	-12646
▁متصله	-12647
▁متينه	-12648
▁مثالا	-12649
▁محتمل	-12650
▁محلها	-12651
▁مدتها	-12652
▁مراسل	-12653
▁مرتبط	-12654
▁مرسوم	-12655
▁مزاعم	-12656
▁معتقد	-12657
▁معلنه	-12658
▁معيار	-12659
▁مقاله	-12660
▁مقبره	-12661
▁مكتوب	-12662
▁مكونه	-12663
▁ملاعب	-12664
▁مماثل	-12665
▁مناجم	-12666
▁منتظم	-12667
▁موقعه	-12668
▁ميزات	-12669
▁ميشال	-12670
▁نارفا	-12671
▁نبهان	-12672
▁نزحوا	-12673
▁نشطاء	-12674
▁نوافذ	-12675
▁نوكيا	-12676
▁هكتار	-12677
▁وادخل	-12678
▁واستر	-12679
▁والاص	-12680
▁والاض	-12681
▁والتس	-12682
▁والخز	-12683
▁والرح	-12684
▁والعر	-12685
▁والقط	-12686
▁والكت	-12687
▁والكل	-12688
▁والكه	-12689
▁واللغ	-12690
▁والمخ	-12691
▁والمر	-12692
▁والنا	-12693
▁واوضح	-12694
▁وايمن	-12695
▁وتنتج	-12696
▁وجبال	-12697
▁وخالد	-12698
▁وخلفه	-12699
▁ودمشق	-12700
▁وشبكه	-12701
▁وصلاح	-12702
▁وطبقا	-12703
▁وعمون	-12704
▁وفريد	-12705
▁وقطاع	-12706
▁ومتحف	-12707
▁ومطار	-12708
▁ومياه	-12709
▁ويشمل	-12710
▁ويغطي	-12711
▁يتركز	-12712
▁يتعرض	-12713
▁يستمر	-12714
▁يسمون	-12715
▁يعقوب	-12716
▁يفترض	-12717
اليفالا	-12718
كالوريا	-12719
كنولوجي	-12720
ليمانيه	-12721
مانستان	-12722
ميداليه	-12723
وارزميه	-12724
وغرافيه	-12725
وفانتوس	-12726
▁30,000	-12727
▁اثنتان	-12728
▁اختصاص	-12729
▁ارتداء	-12730
▁استفاد	-12731
▁اعتبرت	-12732
▁اعترفت	-12733
▁اعتناق	-12734
▁افلامه	-12735
▁اقتحام	-12736
▁اكبرها	-12737
▁الاثري	-12738
▁الاحمد	-12739
▁الادله	-12740
▁الاسهم	-12741
▁الاضاف	-12742
▁الاطلس	-12743
▁الالهه	-12744
▁الامان	-12745
▁البايت	-12746
▁البدوي	-12747
▁البريد	-12748
▁التحقق	-12749
▁التخلي	-12750
▁الترام	-12751
▁التيمو	-12752
▁الثابت	-12753
▁الجبري	-12754
▁الجدير	-12755
▁الحارس	-12756
▁الحقول	-12757
▁الحموي	-12758
▁الحميد	-12759
▁الحيوي	-12760
▁الخروف	-12761
▁الخيام	-12762
▁الخيوط	-12763
▁الدجال	-12764
▁الديمو	-12765
▁الرائد	-12766
▁الزعيم	-12767
▁الزمني	-12768
▁السجود	-12769
▁السرعه	-12770
▁السطحي	-12771
▁السفير	-12772
▁السويس	-12773
▁السيده	-12774
▁الشرعي	-12775
▁الشفره	-12776
▁الطائف	-12777
▁العشري	-12778
▁العشوا	-12779
▁الفضيه	-12780
▁الفوسف	-12781
▁الفيفا	-12782
▁القادر	-12783
▁القسري	-12784
▁القصور	-12785
▁الكولي	-12786
▁اللبان	-12787
▁اللحظه	-12788
▁اللذان	-12789
▁الليره	-12790
▁المترو	-12791
▁المحدث	-12792
▁المعدل	-12793
▁المنظم	-12794
▁المهجر	-12795
▁الموحد	-12796
▁النفطي	-12797
▁النقدي	-12798
▁الهواه	-12799
▁اليومي	-12800
▁اوبريت	-12801
▁اوروبي	-12802
▁ايلاند	-12803
▁باجراء	-12804
▁باداره	-12805
▁بارسال	-12806
▁باسمها	-12807
▁باضافه	-12808
▁باطلاق	-12809
▁بالحكم	-12810
▁بالقوه	-12811
▁باللقب	-12812
▁بتخصيص	-12813
▁بترتيب	-12814
▁بتوزيع	-12815
▁بجائزه	-12816
▁بحمايه	-12817
▁برلمان	-12818
▁بطولات	-12819
▁بمتوسط	-12820
▁بمستوي	-12821
▁بوصفها	-12822
▁بولندا	-12823
▁تتناول	-12824
▁تدريبا	-12825
▁تدهورت	-12826
▁تراجعت	-12827
▁تراخيص	-12828
▁تعليمه	-12829
▁جغرافي	-12830
▁جنوبيه	-12831
▁حدودها	-12832
▁حدوديه	-12833
▁حسابيه	-12834
▁حضاريه	-12835
▁دارفور	-12836
▁دراسات	-12837
▁دفاعيه	-12838
▁سباقات	-12839
▁سكانيه	-12840
▁سنترال	-12841
▁سياحيه	-12842
▁طائفيه	-12843
▁قدرتها	-12844
▁قرارات	-12845
▁قشتاله	-12846
▁قياسيا	-12847
▁قيمتها	-12848
▁كاميرا	-12849
▁كنتيجه	-12850
▁لاتحاد	-12851
▁لادخال	-12852
▁لبناني	-12853
▁لتصنيع	-12854
▁لتلبيه	-12855
▁لحمايه	-12856
▁لدستور	-12857
▁لرئاسه	-12858
▁لسوريا	-12859
▁لشركات	-12860
▁لصحيفه	-12861
▁لكتابه	-12862
▁للسماح	-12863
▁للنادي	-12864
▁لليورو	-12865
▁لوكاله	-12866
▁مباشرا	-12867
▁متاخره	-12868
▁متزامن	-12869
▁مخيمات	-12870
▁مستطيل	-12871
▁مشروعا	-12872
▁مشهوره	-12873
▁مطالبه	-12874
▁مغادره	-12875
▁ممثلين	-12876
▁مناسبه	-12877
▁منافسه	-12878
▁نظريته	-12879
▁هندسيه	-12880
▁هولاكو	-12881
▁واتخاذ	-12882
▁واستقر	-12883
▁والاخت	-12884
▁والاخر	-12885
▁والاضر	-12886
▁والبحث	-12887
▁والحزب	-12888
▁والحلي	-12889
▁والخشب	-12890
▁والرقص	-12891
▁والقوه	-12892
▁والكتب	-12893
▁والكرك	-12894
▁واللبن	-12895
▁والنقل	-12896
▁واليوم	-12897
▁وامتدت	-12898
▁واهميه	-12899
▁وباديه	-12900
▁وبحيره	-12901
▁وتتالف	-12902
▁وتحولت	-12903
▁وتحويل	-12904
▁وتشتهر	-12905
▁وتعرضت	-12906
▁وتميزت	-12907
▁وجعلها	-12908
▁وحاليا	-12909
▁وحدائق	-12910
▁وزوجته	-12911
▁وسوريه	-12912
▁وصحيفه	-12913
▁وفانتا	-12914
▁وقاموا	-12915
▁وكشمير	-12916
▁ولاحقا	-12917
▁ومؤخرا	-12918
▁ومتوسط	-12919
▁يتعامل	-12920
▁يتناول	-12921
▁يستضيف	-12922
▁يستقبل	-12923
▁يعبدون	-12924
▁يقودها	-12925
▁يمثلون	-12926
▁200,000	-12927
▁استجابه	-12928
▁استسلمت	-12929
▁استطلاع	-12930
▁اسطنبول	-12931
▁اشبيليه	-12932
▁اعتمادا	-12933
▁اعلاميه	-12934
▁الابعاد	-12935
▁الابقاء	-12936
▁الاثنين	-12937
▁الاحباش	-12938
▁الادخال	-12939
▁الاركان	-12940
▁الاستاذ	-12941
▁الاعراق	-12942
▁الاعيان	-12943
▁الاغراض	-12944
▁الاغنام	-12945
▁الافيون	-12946
▁الاكراد	-12947
▁الالبوم	-12948
▁الامامه	-12949
▁الانجلي	-12950
▁الانجيل	-12951
▁الانديه	-12952
▁الاهرام	-12953
▁الاهمال	-12954
▁البترول	-12955
▁البدويه	-12956
▁البرهان	-12957
▁التاسعه	-12958
▁التاليف	-12959
▁التاييد	-12960
▁التجارب	-12961
▁التدقيق	-12962
▁الترجمه	-12963
▁التفاضل	-12964
▁التفجير	-12965
▁التقريب	-12966
▁التقسيم	-12967
▁التكامل	-12968
▁التوازن	-12969
▁الثقيله	-12970
▁الثلاثي	-12971
▁الثنائي	-12972
▁الجداول	-12973
▁الحادثه	-12974
▁الحدائق	-12975
▁الحميري	-12976
▁الدائري	-12977
▁الرئيسه	-12978
▁الراقيه	-12979
▁الزعماء	-12980
▁الزيتون	-12981
▁الساعات	-12982
▁الساكنه	-12983
▁السجلات	-12984
▁السرطان	-12985
▁السعيده	-12986
▁السلاله	-12987
▁السلفيه	-12988
▁الشراكه	-12989
▁الضوئيه	-12990
▁الطائفه	-12991
▁العاربه	-12992
▁العبدلي	-12993
▁العريقه	-12994
▁العكسيه	-12995
▁العنوان	-12996
▁العواصم	-12997
▁الغزالي	-12998
▁الفتيات	-12999
▁الفونسو	-13000
▁الكرديه	-13001
▁الكلدان	-13002
▁اللوحيه	-13003
▁المبادئ	-13004
▁المتوكل	-13005
▁المجاري	-13006
▁المجاعه	-13007
▁المجرده	-13008
▁المجلات	-13009
▁المجموع	-13010
▁المدرجه	-13011
▁المذاهب	-13012
▁المساعد	-13013
▁المعابر	-13014
▁المعاهد	-13015
▁المعتاد	-13016
▁المعتدل	-13017
▁المعترف	-13018
▁المعجزه	-13019
▁المفترض	-13020
▁المناهج	-13021
▁المنتجه	-13022
▁الموجهه	-13023
▁الميناء	-13024
▁النفسيه	-13025
▁النفقات	-13026
▁النواحي	-13027
▁النيابي	-13028
▁الواحده	-13029
▁الوجهات	-13030
▁الوديان	-13031
▁انضمامه	-13032
▁باحتلال	-13033
▁باختلاف	-13034
▁باكملها	-13035
▁بمتابعه	-13036
▁تاثيرات	-13037
▁تسجيلها	-13038
▁تشريعيه	-13039
▁تعديلها	-13040
▁تعليمهم	-13041
▁تقليديه	-13042
▁حكمتيار	-13043
▁حيوانات	-13044
▁عضويتها	-13045
▁علاقاته	-13046
▁كتاباته	-13047
▁كلينتون	-13048
▁كمجموعه	-13049
▁للاعداد	-13050
▁للاعمال	-13051
▁للقانون	-13052
▁للهواتف	-13053
▁للوزراء	-13054
▁لمحاوله	-13055
▁لمنتجات	-13056
▁ليبيتور	-13057
▁مستدامه	-13058
▁معادلات	-13059
▁معالجات	-13060
▁مكانتها	-13061
▁مناسبات	-13062
▁هارفارد	-13063
▁هامبورغ	-13064
▁والبريط	-13065
▁والثامن	-13066
▁والحركه	-13067
▁والدولي	-13068
▁والرياض	-13069
▁والستين	-13070
▁والشيعه	-13071
▁والقصور	-13072
▁والقلاع	-13073
▁واللهجه	-13074
▁والنحاس	-13075
▁والنساء	-13076
▁وفبراير	-13077
▁ومديريه	-13078
▁ومراقبه	-13079
▁وهولندا	-13080
▁يحاولون	-13081
▁احتفالات	-13082
▁احتياجات	-13083
▁استخداما	-13084
▁اسكندريه	-13085
▁اضطرابات	-13086
▁الاحتكار	-13087
▁الافارقه	-13088
▁الاكتشاف	-13089
▁الالتحاق	-13090
▁الانتخاب	-13091
▁الانتصار	-13092
▁البارزين	-13093
▁البالغين	-13094
▁البوكيرك	-13095
▁التخصصيه	-13096
▁التصاميم	-13097
▁التضاريس	-13098
▁التماثيل	-13099
▁التوقعات	-13100
▁الثدييات	-13101
▁الجاهليه	-13102
▁الجنائيه	-13103
▁الحضاريه	-13104
▁الحميريه	-13105
▁الحوثيين	-13106
▁الدشداشه	-13107
▁الدفاعيه	-13108
▁الروايات	-13109
▁السابقين	-13110
▁السلافيه	-13111
▁الشرقيين	-13112
▁الشركتين	-13113
▁الصحراوي	-13114
▁الصفويون	-13115
▁الضروريه	-13116
▁العمارنه	-13117
▁الفلسفيه	-13118
▁الفيزياء	-13119
▁الفينيقي	-13120
▁القادمين	-13121
▁القياسيه	-13122
▁الكتابات	-13123
▁الكتروني	-13124
▁الكيلاني	-13125
▁المالكيه	-13126
▁المباشره	-13127
▁المتمثله	-13128
▁المتوفره	-13129
▁المثقفين	-13130
▁المحدوده	-13131
▁المخيمات	-13132
▁المدرسيه	-13133
▁المرتفعه	-13134
▁المسطحات	-13135
▁المشكلات	-13136
▁المطالبه	-13137
▁المطربين	-13138
▁المكتبات	-13139
▁المكتسبه	-13140
▁المكتشفه	-13141
▁الممثلين	-13142
▁المملوكي	-13143
▁المنخفضه	-13144
▁المهاجره	-13145
▁النبهاني	-13146
▁النشاطات	-13147
▁النظريات	-13148
▁النيابيه	-13149
▁الهندسيه	-13150
▁الوثائقي	-13151
▁الوظيفيه	-13152
▁ايمانويل	-13153
▁باكستاني	-13154
▁بالتجزئه	-13155
▁بالزراعه	-13156
▁بالضروره	-13157
▁عملياتها	-13158
▁فيدراليه	-13159
▁كهربائيه	-13160
▁للسعوديه	-13161
▁للعمليات	-13162
▁للمشاركه	-13163
▁والاخراج	-13164
▁والانظمه	-13165
▁والانهار	-13166
▁والبحريه	-13167
▁والتصوير	-13168
▁والتفكير	-13169
▁والثالثه	-13170
▁والجزيره	-13171
▁والدينيه	-13172
▁والزراعه	-13173
▁والسياحه	-13174
▁والصومال	-13175
▁والعماره	-13176
▁والكنائس	-13177
▁والكنيسه	-13178
▁والمدرسه	-13179
▁والمدينه	-13180
▁والهيئات	-13181
▁ومجموعات	-13182
▁الاجماليه	-13183
▁الاستئناف	-13184
▁الاستقبال	-13185
▁الاستنتاج	-13186
▁الامريكان	-13187
▁الانشاءات	-13188
▁البولنديه	-13189
▁التحويليه	-13190
▁التشكيليه	-13191
▁التقديرات	-13192
▁الجغرافيا	-13193
▁الحاسوبيه	-13194
▁الحيوانيه	-13195
▁السومريون	-13196
▁السومريين	-13197
▁العسكريين	-13198
▁العمرانيه	-13199
▁المتطوعين	-13200
▁المحادثات	-13201
▁المحتويات	-13202
▁المساهمين	-13203
▁المسماريه	-13204
▁المشروعات	-13205
▁المندائيه	-13206
▁المهندسين	-13207
▁الهندوسيه	-13208
▁اندونيسيا	-13209
▁بالابجديه	-13210
▁كاتدرائيه	-13211
▁لانتقادات	-13212
▁للخوارزمي	-13213
▁للمجاهدين	-13214
▁للمجموعات	-13215
▁والانترنت	-13216
▁والبحيرات	-13217
▁والسيارات	-13218
▁والصناعات	-13219
▁والفلسطين	-13220
▁والفنانين	-13221
▁والمشاركه	-13222
▁وبريطانيا	-13223
▁الاسلاميين	-13224
▁الاكتشافات	-13225
▁الرومانسيه	-13226
▁الفنلنديون	-13227
▁المتظاهرون	-13228
▁المستقبليه	-13229
▁والبابليين	-13230
▁والسريانيه	-13231
▁والمواصلات	-13232
▁الاستهلاكيه	-13233
▁للتكنولوجيا	-13234
▁الاستراتيجيه	-13235
▁الباكستانيين	-13236
,4	-13237
-0	-13238
.)	-13239
.9	-13240
22	-13241
38	-13242
55	-13243
59	-13244
72	-13245
ئم	-13246
تس	-13247
دز	-13248
دع	-13249
سس	-13250
سف	-13251
سق	-13252
طو	-13253
ظن	-13254
كز	-13255
كف	-13256
هل	-13257
1.6	-13258
150	-13259
3.7	-13260
7.3	-13261
9).	-13262
ئاب	-13263
ابح	-13264
اتم	-13265
ادث	-13266
ازو	-13267
اغه	-13268
انق	-13269
انم	-13270
اهو	-13271
ايش	-13272
ايف	-13273
بله	-13274
تام	-13275
تمت	-13276
ثاغ	-13277
ثان	-13278
ثعم	-13279
جبت	-13280
جدا	-13281
جيء	-13282
جيم	-13283
حسر	-13284
حضر	-13285
حوض	-13286
حيز	-13287
خخه	-13288
خرط	-13289
خطي	-13290
خين	-13291
درا	-13292
درو	-13293
دهر	-13294
راص	-13295
ربر	-13296
رتا	-13297
رحت	-13298
ريز	-13299
زلغ	-13300
زله	-13301
زول	-13302
زيل	-13303
ساف	-13304
ستو	-13305
سحب	-13306
سوس	-13307
سيط	-13308
شام	-13309
شرح	-13310
شعر	-13311
شوه	-13312
شين	-13313
ضوا	-13314
طحه	-13315
طرس	-13316
طمت	-13317
طوي	-13318
طيا	-13319
طيل	-13320
ظره	-13321
عاع	-13322
عقد	-13323
عيب	-13324
غرس	-13325
غلو	-13326
غنر	-13327
غني	-13328
غيب	-13329
فتن	-13330
فرغ	-13331
فها	-13332
فوق	-13333
فيا	-13334
قرب	-13335
قوت	-13336
كاف	-13337
كتل	-13338
كرا	-13339
كسه	-13340
كفا	-13341
كلي	-13342
كنا	-13343
لخص	-13344
لزم	-13345
ماش	-13346
متر	-13347
مند	-13348
مني	-13349
موه	-13350
ناب	-13351
نصر	-13352
نيش	-13353
هده	-13354
وئه	-13355
وتش	-13356
وجب	-13357
وحا	-13358
ودل	-13359
وزب	-13360
وزن	-13361
وسا	-13362
ولث	-13363
ونز	-13364
وهه	-13365
ويك	-13366
يدي	-13367
يشه	-13368
▁):	-13369
▁3,	-13370
▁44	-13371
▁78	-13372
▁79	-13373
▁81	-13374
▁88	-13375
▁[[	-13376
▁ده	-13377
▁سج	-13378
▁شل	-13379
▁طق	-13380
▁فز	-13381
▁فو	-13382
▁كغ	-13383
▁نن	-13384
,700	-13385
ؤيته	-13386
ابير	-13387
اتشي	-13388
اخمه	-13389
ادلت	-13390
ادلف	-13391
اديث	-13392
اديق	-13393
اذبه	-13394
ارعه	-13395
اريج	-13396
اصله	-13397
اطير	-13398
اغرا	-13399
افله	-13400
الاس	-13401
البي	-13402
المن	-13403
اناث	-13404
انيم	-13405
ايزر	-13406
بدال	-13407
بران	-13408
برهم	-13409
بشكل	-13410
بيوت	-13411
تهاب	-13412
تياز	-13413
تيكا	-13414
ثبيت	-13415
ثروه	-13416
جابت	-13417
جابي	-13418
جلين	-13419
حانه	-13420
حدار	-13421
حديد	-13422
حفاه	-13423
خبوط	-13424
خبين	-13425
خروج	-13426
خفيف	-13427
دارس	-13428
دلال	-13429
دمجه	-13430
دهور	-13431
ديهم	-13432
ذاهب	-13433
ذيفه	-13434
رائد	-13435
رتال	-13436
رجيح	-13437
رجين	-13438
رقند	-13439
ركزت	-13440
ركوا	-13441
رميم	-13442
ريفه	-13443
زرعه	-13444
زعات	-13445
زوله	-13446
سباب	-13447
سببه	-13448
ستري	-13449
سرقه	-13450
سيمه	-13451
شافه	-13452
شتاء	-13453
شريع	-13454
شيئا	-13455
شيته	-13456
شيري	-13457
صادف	-13458
صفات	-13459
صوله	-13460
طرين	-13461
طوري	-13462
طوله	-13463
طينه	-13464
عاطف	-13465
عتاد	-13466
عزيه	-13467
عمره	-13468
فاقه	-13469
فرده	-13470
فسيه	-13471
قائق	-13472
قدير	-13473
قوبه	-13474
قيها	-13475
كارد	-13476
كانه	-13477
كتات	-13478
كرين	-13479
كونن	-13480
لاحه	-13481
لازل	-13482
لاسل	-13483
لايا	-13484
لقات	-13485
ماثل	-13486
مارك	-13487
ماها	-13488
معين	-13489
منها	-13490
منيه	-13491
نائه	-13492
ناجر	-13493
ناسق	-13494
نايا	-13495
نعاء	-13496
نفات	-13497
هدوء	-13498
هيار	-13499
واحف	-13500
وادر	-13501
وافر	-13502
وافع	-13503
واهب	-13504
وبين	-13505
وجها	-13506
وراء	-13507
وريد	-13508
وزعه	-13509
وسعه	-13510
وشيه	-13511
ولته	-13512
ومها	-13513
وميت	-13514
ويجي	-13515
يتال	-13516
يعاب	-13517
يمنه	-13518
▁(0.	-13519
▁(50	-13520
▁(75	-13521
▁108	-13522
▁121	-13523
▁132	-13524
▁134	-13525
▁145	-13526
▁151	-13527
▁155	-13528
▁156	-13529
▁170	-13530
▁2.3	-13531
▁30.	-13532
▁405	-13533
▁539	-13534
▁625	-13535
▁650	-13536
▁7.5	-13537
▁8.5	-13538
▁8.6	-13539
▁81.	-13540
▁ازد	-13541
▁اضر	-13542
▁انا	-13543
▁اوس	-13544
▁اوي	-13545
▁بتد	-13546
▁برس	-13547
▁برع	-13548
▁بسب	-13549
▁بصي	-13550
▁بعب	-13551
▁بقل	-13552
▁بنه	-13553
▁بوس	-13554
▁تبا	-13555
▁تجد	-13556
▁تحص	-13557
▁تدم	-13558
▁تسل	-13559
▁تعل	-13560
▁تعه	-13561
▁تعي	-13562
▁تقف	-13563
▁تهب	-13564
▁توك	-13565
▁تيك	-13566
▁جوب	-13567
▁جوي	-13568
▁حرص	-13569
▁حقا	-13570
▁حلي	-13571
▁خطر	-13572
▁خير	-13573
▁داغ	-13574
▁دقه	-13575
▁دوم	-13576
▁رات	-13577
▁راه	-13578
▁رجب	-13579
▁رحل	-13580
▁رخص	-13581
▁رزق	-13582
▁رشد	-13583
▁رضي	-13584
▁رطب	-13585
▁روب	-13586
▁روج	-13587
▁زعي	-13588
▁ساف	-13589
▁سعت	-13590
▁سعد	-13591
▁سعه	-13592
▁سمع	-13593
▁شاع	-13594
▁شحن	-13595
▁شمر	-13596
▁صغر	-13597
▁صلب	-13598
▁ضبط	-13599
▁ضخم	-13600
▁ضلع	-13601
▁طفل	-13602
▁طلي	-13603
▁طمو	-13604
▁عات	-13605
▁عدي	-13606
▁عزز	-13607
▁عزل	-13608
▁عما	-13609
▁عوض	-13610
▁فتت	-13611
▁فتن	-13612
▁فرن	-13613
▁فسر	-13614
▁فكر	-13615
▁فهد	-13616
▁قسن	-13617
▁قلت	-13618
▁قمم	-13619
▁كسب	-13620
▁كلف	-13621
▁كمح	-13622
▁كوا	-13623
▁كوب	-13624
▁لاق	-13625
▁لبط	-13626
▁لتد	-13627
▁لعم	-13628
▁ليا	-13629
▁ليح	-13630
▁ليم	-13631
▁ليه	-13632
▁مائ	-13633
▁ماك	-13634
▁متب	-13635
▁متس	-13636
▁مثب	-13637
▁مجل	-13638
▁مزي	-13639
▁مسح	-13640
▁مصب	-13641
▁مضت	-13642
▁مطر	-13643
▁مقا	-13644
▁ممد	-13645
▁منب	-13646
▁نري	-13647
▁نزح	-13648
▁نسل	-13649
▁نقي	-13650
▁نوي	-13651
▁نيه	-13652
▁هود	-13653
▁وتز	-13654
▁وتك	-13655
▁وحض	-13656
▁وخط	-13657
▁وخم	-13658
▁وظل	-13659
▁وفد	-13660
▁وقن	-13661
▁وقي	-13662
▁وكو	-13663
▁ولب	-13664
▁ولن	-13665
▁ومز	-13666
▁وها	-13667
▁ووق	-13668
▁ويا	-13669
▁ويض	-13670
▁يتب	-13671
▁يتق	-13672
▁يده	-13673
▁يلت	-13674
▁يور	-13675
0،000	-13676
ابقات	-13677
اديان	-13678
اربين	-13679
اريوس	-13680
اسيسه	-13681
اعيات	-13682
افتها	-13683
الحره	-13684
امرات	-13685
املين	-13686
انيال	-13687
اهداف	-13688
بابات	-13689
باركه	-13690
برعات	-13691
تمثيل	-13692
تمرات	-13693
ثماري	-13694
جاتها	-13695
حتكار	-13696
حوادث	-13697
حوليه	-13698
حيطات	-13699
خصصين	-13700
راثيه	-13701
راضات	-13702
رجمات	-13703
رسميا	-13704
رقابه	-13705
سترول	-13706
ستيان	-13707
صالحه	-13708
صليات	-13709
طاءات	-13710
طاقات	-13711
عفريه	-13712
عماله	-13713
غوبتا	-13714
غيرها	-13715
فارات	-13716
قارنه	-13717
قتصرت	-13718
قطريه	-13719
كارات	-13720
كانات	-13721
كنتوش	-13722
لاحين	-13723
مانين	-13724
نجبار	-13725
نديين	-13726
هاريج	-13727
واتيه	-13728
واجده	-13729
وارزم	-13730
وارنه	-13731
وازات	-13732
وامها	-13733
وريوس	-13734
وسعوا	-13735
وسيني	-13736
وعيين	-13737
وغاري	-13738
وقيين	-13739
وماتي	-13740
وميون	-13741
ويبده	-13742
ياتيه	-13743
ينيكس	-13744
▁(190	-13745
▁1300	-13746
▁1892	-13747
▁1914	-13748
▁1916	-13749
▁1927	-13750
▁1929	-13751
▁1933	-13752
▁1934	-13753
▁1938	-13754
▁1943	-13755
▁1978	-13756
▁8000	-13757
▁8800	-13758
▁ابيه	-13759
▁اجمل	-13760
▁اختل	-13761
▁اخوه	-13762
▁ادرج	-13763
▁ادعت	-13764
▁اربد	-13765
▁ارضه	-13766
▁ارقي	-13767
▁اريت	-13768
▁اسري	-13769
▁اسعد	-13770
▁اسفل	-13771
▁اقرت	-13772
▁اقيم	-13773
▁التذ	-13774
▁الجذ	-13775
▁الدن	-13776
▁الزر	-13777
▁السح	-13778
▁السد	-13779
▁السك	-13780
▁العج	-13781
▁الما	-13782
▁الهض	-13783
▁الود	-13784
▁اليع	-13785
▁امتد	-13786
▁اميل	-13787
▁اميه	-13788
▁انغل	-13789
▁اوجد	-13790
▁اوصي	-13791
▁باتت	-13792
▁باذن	-13793
▁باني	-13794
▁بترك	-13795
▁بجعل	-13796
▁براي	-13797
▁بريا	-13798
▁بقاع	-13799
▁بقصر	-13800
▁بوسط	-13801
▁بوصه	-13802
▁بولس	-13803
▁بيكو	-13804
▁بيوم	-13805
▁تاخر	-13806
▁تترك	-13807
▁تتفق	-13808
▁تثير	-13809
▁تجدر	-13810
▁تحال	-13811
▁تخصص	-13812
▁ترفض	-13813
▁تركت	-13814
▁تسوي	-13815
▁تشبه	-13816
▁تشجع	-13817
▁تشغل	-13818
▁تعقد	-13819
▁تعهد	-13820
▁تقود	-13821
▁تلوث	-13822
▁توزع	-13823
▁توسط	-13824
▁توضح	-13825
▁جبيل	-13826
▁جزيء	-13827
▁جميل	-13828
▁جنسي	-13829
▁جهات	-13830
▁جوهر	-13831
▁حاده	-13832
▁حاره	-13833
▁حاصر	-13834
▁حاصل	-13835
▁حامل	-13836
▁حجما	-13837
▁حربا	-13838
▁حساء	-13839
▁حفيد	-13840
▁حقها	-13841
▁حميد	-13842
▁خانه	-13843
▁خبره	-13844
▁خثعم	-13845
▁خشبه	-13846
▁خطاب	-13847
▁خلفت	-13848
▁خيال	-13849
▁دائر	-13850
▁دخله	-13851
▁دعمه	-13852
▁دينا	-13853
▁ذكاء	-13854
▁راند	-13855
▁رقصه	-13856
▁ركله	-13857
▁زاده	-13858
▁زمني	-13859
▁زواج	-13860
▁زوجه	-13861
▁سادت	-13862
▁سادس	-13863
▁ساند	-13864
▁سحبت	-13865
▁سراح	-13866
▁سفير	-13867
▁سلسل	-13868
▁سياق	-13869
▁سيتي	-13870
▁سيلي	-13871
▁شفره	-13872
▁شكله	-13873
▁شهري	-13874
▁شهير	-13875
▁صادر	-13876
▁صحفي	-13877
▁صحيا	-13878
▁صدقي	-13879
▁صمام	-13880
▁صوتا	-13881
▁صوتت	-13882
▁صيفا	-13883
▁ضعيف	-13884
▁طعام	-13885
▁طلبت	-13886
▁طوله	-13887
▁طيبه	-13888
▁عادل	-13889
▁عبرت	-13890
▁عبري	-13891
▁عصره	-13892
▁عظام	-13893
▁غاره	-13894
▁فارت	-13895
▁فاشت	-13896
▁فاعت	-13897
▁فالع	-13898
▁فالي	-13899
▁فبلغ	-13900
▁فتحه	-13901
▁فجاه	-13902
▁فخرج	-13903
▁فرعا	-13904
▁فسار	-13905
▁فعند	-13906
▁فعين	-13907
▁قاله	-13908
▁قيصر	-13909
▁كاحد	-13910
▁كانو	-13911
▁كتبا	-13912
▁كروم	-13913
▁كسري	-13914
▁كلام	-13915
▁كلفه	-13916
▁كمان	-13917
▁كندا	-13918
▁كيان	-13919
▁لاخر	-13920
▁لارس	-13921
▁لاعت	-13922
▁لبيع	-13923
▁لحرب	-13924
▁لشخص	-13925
▁لطلب	-13926
▁لغزو	-13927
▁لفرض	-13928
▁للال	-13929
▁للبث	-13930
▁للبط	-13931
▁للحي	-13932
▁للري	-13933
▁للسب	-13934
▁للسي	-13935
▁لهما	-13936
▁مؤكد	-13937
▁مؤلف	-13938
▁مبره	-13939
▁متسا	-13940
▁محور	-13941
▁مذيع	-13942
▁مراع	-13943
▁مرضي	-13944
▁مزود	-13945
▁مشتق	-13946
▁مصاد	-13947
▁ملحن	-13948
▁ممار	-13949
▁منظم	-13950
▁ميلا	-13951
▁ناقل	-13952
▁ندره	-13953
▁نزوح	-13954
▁نزول	-13955
▁نسبي	-13956
▁نصير	-13957
▁نظره	-13958
▁نظمت	-13959
▁نقدا	-13960
▁نقوش	-13961
▁هادي	-13962
▁هاوس	-13963
▁هزمت	-13964
▁هلسن	-13965
▁هندو	-13966
▁وائل	-13967
▁وابت	-13968
▁واجن	-13969
▁وارب	-13970
▁واند	-13971
▁واير	-13972
▁وبها	-13973
▁وتاس	-13974
▁وتفت	-13975
▁وتكر	-13976
▁وتور	-13977
▁وجزر	-13978
▁وجيب	-13979
▁وحسن	-13980
▁وحلب	-13981
▁وحيث	-13982
▁وزاد	-13983
▁وسهل	-13984
▁وشمل	-13985
▁وشهد	-13986
▁وضمت	-13987
▁وطرد	-13988
▁وطور	-13989
▁وعام	-13990
▁وعثر	-13991
▁وعدن	-13992
▁وعقد	-13993
▁وعهد	-13994
▁وغدت	-13995
▁وغنت	-13996
▁وكات	-13997
▁وكذا	-13998
▁وكيل	-13999
▁ولعب	-14000
▁وللا	-14001
▁وللح	-14002
▁ومدي	-14003
▁ومضي	-14004
▁ومعه	-14005
▁ونتج	-14006
▁ونمو	-14007
▁ونهب	-14008
▁ووقع	-14009
▁ويلز	-14010
▁يؤيد	-14011
▁يبرز	-14012
▁يتسع	-14013
▁يتضح	-14014
▁يثبت	-14015
▁يجلس	-14016
▁يحيط	-14017
▁يريم	-14018
▁يزعم	-14019
▁يصدر	-14020
▁يعرب	-14021
▁يفصل	-14022
▁يفضل	-14023
▁يفعل	-14024
▁يفكر	-14025
▁يقطع	-14026
▁يقلل	-14027
▁يكاد	-14028
▁يلعب	-14029
▁يلقب	-14030
▁ينسب	-14031
▁ينفذ	-14032
▁يهدد	-14033
80,000	-14034
اجيكيه	-14035
اخستان	-14036
ادلفيا	-14037
اكسجين	-14038
العراق	-14039
امتلاك	-14040
جوهرات	-14041
ستخراج	-14042
طبيقها	-14043
فارابي	-14044
لائقيه	-14045
ناسبات	-14046
هابيون	-14047
ونانيه	-14048
ونيسكو	-14049
يراتزي	-14050
▁1918.	-14051
▁1948.	-14052
▁1949،	-14053
▁1955،	-14054
▁1956،	-14055
▁1957.	-14056
▁1958،	-14057
▁1966،	-14058
▁1979،	-14059
▁1980.	-14060
▁1982،	-14061
▁1989.	-14062
▁8,000	-14063
▁ابعاد	-14064
▁ابنيه	-14065
▁اثبتت	-14066
▁اجتمع	-14067
▁احجار	-14068
▁اخضاع	-14069
▁ادبيه	-14070
▁ادراج	-14071
▁ادركت	-14072
▁استنت	-14073
▁اسحاق	-14074
▁اسسوا	-14075
▁اسطول	-14076
▁اسماه	-14077
▁اسوار	-14078
▁اصابع	-14079
▁اطباق	-14080
▁اعجاب	-14081
▁اعلاه	-14082
▁اقامت	-14083
▁اقطار	-14084
▁اقناع	-14085
▁اكتسب	-14086
▁اكمال	-14087
▁الاحر	-14088
▁الاخذ	-14089
▁الاخص	-14090
▁الاخم	-14091
▁الارج	-14092
▁الاسس	-14093
▁الاعد	-14094
▁الايق	-14095
▁الباه	-14096
▁التعب	-14097
▁التكت	-14098
▁التنس	-14099
▁التير	-14100
▁الثقه	-14101
▁الجدد	-14102
▁الجذب	-14103
▁الحاق	-14104
▁الحدس	-14105
▁الحوي	-14106
▁الخرز	-14107
▁الخري	-14108
▁الخيط	-14109
▁الخيل	-14110
▁الداع	-14111
▁الدرس	-14112
▁الدمش	-14113
▁الربض	-14114
▁الرخص	-14115
▁الزحف	-14116
▁السته	-14117
▁السجن	-14118
▁السطح	-14119
▁الشحن	-14120
▁الصال	-14121
▁الصدد	-14122
▁الطاب	-14123
▁الطلق	-14124
▁الطوب	-14125
▁الطوط	-14126
▁العضو	-14127
▁العكس	-14128
▁القرا	-14129
▁القرم	-14130
▁القصه	-14131
▁الكرد	-14132
▁اللام	-14133
▁المجد	-14134
▁المضي	-14135
▁المقا	-14136
▁الملت	-14137
▁المنظ	-14138
▁المنف	-14139
▁النقش	-14140
▁الهات	-14141
▁الهام	-14142
▁الهيل	-14143
▁الياس	-14144
▁امتلا	-14145
▁امنيه	-14146
▁انتجت	-14147
▁انسان	-14148
▁انطلق	-14149
▁انقاض	-14150
▁اوراق	-14151
▁اوزلغ	-14152
▁اوساط	-14153
▁اوضاع	-14154
▁اوقات	-14155
▁اوقفت	-14156
▁بارزا	-14157
▁باصات	-14158
▁باصول	-14159
▁بافضل	-14160
▁بالات	-14161
▁بالاف	-14162
▁بالال	-14163
▁بالفن	-14164
▁بالمن	-14165
▁بتطور	-14166
▁بتهمه	-14167
▁بثلاث	-14168
▁بحضور	-14169
▁بداخل	-14170
▁بدوام	-14171
▁بديله	-14172
▁برهان	-14173
▁بريمر	-14174
▁بشراء	-14175
▁بشروط	-14176
▁بطوطه	-14177
▁بعثات	-14178
▁بفارق	-14179
▁بكامل	-14180
▁بمطار	-14181
▁بمناخ	-14182
▁بيئات	-14183
▁تابعا	-14184
▁تبرعت	-14185
▁تتحول	-14186
▁تتشكل	-14187
▁تجهيز	-14188
▁تحتيه	-14189
▁تداول	-14190
▁تربيه	-14191
▁تزايد	-14192
▁تساقط	-14193
▁تسويق	-14194
▁تشارك	-14195
▁تشتمل	-14196
▁تشجيع	-14197
▁تشرشل	-14198
▁تعاقب	-14199
▁تعامل	-14200
▁تغيرت	-14201
▁تفعيل	-14202
▁تقدما	-14203
▁تقدمه	-14204
▁تقييد	-14205
▁تكامل	-14206
▁تكررت	-14207
▁تكريم	-14208
▁تمثلت	-14209
▁تمثيل	-14210
▁تنامي	-14211
▁تنتهي	-14212
▁تنخفض	-14213
▁تنطبق	-14214
▁تهامه	-14215
▁تهيمن	-14216
▁توالي	-14217
▁توركو	-14218
▁توطين	-14219
▁توظيف	-14220
▁ثالثه	-14221
▁ثروته	-14222
▁جداول	-14223
▁جسيمه	-14224
▁حدوته	-14225
▁حدوده	-14226
▁حصلوا	-14227
▁حصوله	-14228
▁حملته	-14229
▁خارطه	-14230
▁خضراء	-14231
▁خطوات	-14232
▁خفيفه	-14233
▁خلافه	-14234
▁خلفيه	-14235
▁خيريه	-14236
▁درايه	-14237
▁درويش	-14238
▁دلائل	-14239
▁دولته	-14240
▁ديدان	-14241
▁راسها	-14242
▁ركعات	-14243
▁زاويه	-14244
▁زواجه	-14245
▁ساتيا	-14246
▁ساحات	-14247
▁سبئيه	-14248
▁سكانا	-14249
▁سكنيه	-14250
▁سيصبح	-14251
▁شخبوط	-14252
▁شعراء	-14253
▁شيراك	-14254
▁صغيرا	-14255
▁صوتها	-14256
▁ضئيله	-14257
▁ضرائب	-14258
▁ضروري	-14259
▁ضعيفه	-14260
▁طلبات	-14261
▁طورته	-14262
▁طيران	-14263
▁عادوا	-14264
▁عبدال	-14265
▁عجائب	-14266
▁عرضها	-14267
▁علينا	-14268
▁عماني	-14269
▁غادرت	-14270
▁فائقه	-14271
▁فاراب	-14272
▁فارسل	-14273
▁فاشله	-14274
▁فاصبح	-14275
▁فتشمل	-14276
▁فريدا	-14277
▁فشيئا	-14278
▁فنادق	-14279
▁فوربس	-14280
▁فيثاغ	-14281
▁فيروس	-14282
▁فيغاس	-14283
▁فيليب	-14284
▁قادمه	-14285
▁قتلوا	-14286
▁قدرات	-14287
▁قدمها	-14288
▁قندوز	-14289
▁قوافل	-14290
▁قوتها	-14291
▁كارثه	-14292
▁كتابا	-14293
▁كمصدر	-14294
▁كمعظم	-14295
▁كممثل	-14296
▁كنائس	-14297
▁لاربع	-14298
▁لاكبر	-14299
▁لحاله	-14300
▁لحكمه	-14301
▁لحمله	-14302
▁لدينا	-14303
▁لشبكه	-14304
▁لعلاج	-14305
▁لكلمه	-14306
▁للاخر	-14307
▁للحزب	-14308
▁للخطر	-14309
▁للسهم	-14310
▁للضوء	-14311
▁للعيش	-14312
▁للقاح	-14313
▁للمرء	-14314
▁لمجله	-14315
▁لنفسه	-14316
▁ليالي	-14317
▁ليشكل	-14318
▁مؤقته	-14319
▁ماركا	-14320
▁ماركت	-14321
▁ماعدا	-14322
▁مايكل	-14323
▁مبرمج	-14324
▁متاجر	-14325
▁متاهه	-14326
▁متفرج	-14327
▁متقدم	-14328
▁مثلما	-14329
▁محددا	-14330
▁محلات	-14331
▁محمدا	-14332
▁محمله	-14333
▁مخاوف	-14334
▁مدببه	-14335
▁مدحاء	-14336
▁مديرا	-14337
▁مذبحه	-14338
▁مرافق	-14339
▁مركزي	-14340
▁مزايا	-14341
▁مسافر	-14342
▁مسلسل	-14343
▁مسلمه	-14344
▁مسيره	-14345
▁مشارك	-14346
▁مشهور	-14347
▁مصدرا	-14348
▁مصنعا	-14349
▁معاني	-14350
▁معدات	-14351
▁معلما	-14352
▁مقابر	-14353
▁مقربه	-14354
▁ملحمه	-14355
▁ممثله	-14356
▁ممكنه	-14357
▁مناهج	-14358
▁منزلا	-14359
▁مهاجر	-14360
▁مهاره	-14361
▁ميونخ	-14362
▁ناهيك	-14363
▁نشاطا	-14364
▁نشرات	-14365
▁نقلها	-14366
▁هلمند	-14367
▁هندسه	-14368
▁وابتد	-14369
▁وابنه	-14370
▁واحسن	-14371
▁واختل	-14372
▁واخذت	-14373
▁واربع	-14374
▁واشور	-14375
▁واعجب	-14376
▁واعلي	-14377
▁واقدم	-14378
▁واقعه	-14379
▁والاق	-14380
▁والحي	-14381
▁والخض	-14382
▁والدر	-14383
▁والسي	-14384
▁والعل	-14385
▁والفن	-14386
▁والكو	-14387
▁والمش	-14388
▁والمف	-14389
▁والنف	-14390
▁وبقيه	-14391
▁وتدير	-14392
▁وتشهد	-14393
▁وتضمن	-14394
▁وتعطي	-14395
▁وتقدر	-14396
▁وتلقي	-14397
▁وثاني	-14398
▁وجعلت	-14399
▁وحافظ	-14400
▁وحسين	-14401
▁وحقوق	-14402
▁وخمسه	-14403
▁ودوله	-14404
▁وزيره	-14405
▁وساهم	-14406
▁وسبعه	-14407
▁وضريح	-14408
▁وطريق	-14409
▁وفتره	-14410
▁وفنيه	-14411
▁وفيره	-14412
▁وقاعه	-14413
▁وقريه	-14414
▁وكبار	-14415
▁وكتبت	-14416
▁وكلها	-14417
▁وكليه	-14418
▁ولاول	-14419
▁وليست	-14420
▁ومصنع	-14421
▁ومقام	-14422
▁وموظف	-14423
▁وواحد	-14424
▁ووجود	-14425
▁ويؤكد	-14426
▁ويجري	-14427
▁ويدخل	-14428
▁ويرجح	-14429
▁ويعين	-14430
▁يتغير	-14431
▁يجدون	-14432
▁يحدها	-14433
▁يختار	-14434
▁يستطع	-14435
▁يشترط	-14436
▁يطالب	-14437
▁يمنيه	-14438
▁ينتخب	-14439
▁يوافق	-14440
▁يومين	-14441
الصادره	-14442
المعروف	-14443
اندرتال	-14444
بلوماسي	-14445
تهديدات	-14446
رائيليه	-14447
ميزانيه	-14448
واسيويه	-14449
▁40,000	-14450
▁اباتشي	-14451
▁اجمالا	-14452
▁احترام	-14453
▁احدهما	-14454
▁اذاعات	-14455
▁ارتبطت	-14456
▁اردنيه	-14457
▁استبدل	-14458
▁استولت	-14459
▁اسلامي	-14460
▁اشارات	-14461
▁اشتراك	-14462
▁اشتملت	-14463
▁اصداره	-14464
▁اصيبعه	-14465
▁اطلقوا	-14466
▁اعتنقت	-14467
▁اعلنها	-14468
▁اغنيات	-14469
▁اقليات	-14470
▁اكثرهم	-14471
▁الائمه	-14472
▁الاثنا	-14473
▁الاجور	-14474
▁الاخره	-14475
▁الاشعه	-14476
▁البارد	-14477
▁البارز	-14478
▁الباكر	-14479
▁البرقع	-14480
▁البلاط	-14481
▁البلدي	-14482
▁البلوط	-14483
▁التزام	-14484
▁التشهد	-14485
▁التعلم	-14486
▁التغير	-14487
▁التقاء	-14488
▁التماس	-14489
▁الجدوي	-14490
▁الجذور	-14491
▁الجزئي	-14492
▁الجلائ	-14493
▁الحبشه	-14494
▁الحرام	-14495
▁الحريق	-14496
▁الحلقه	-14497
▁الحنفي	-14498
▁الراهن	-14499
▁الرسام	-14500
▁الرطبه	-14501
▁الرغبه	-14502
▁الركعه	-14503
▁الرمزي	-14504
▁الزبير	-14505
▁الزجاج	-14506
▁السائل	-14507
▁السهره	-14508
▁السوبر	-14509
▁السياق	-14510
▁الشعري	-14511
▁الصديق	-14512
▁الصغري	-14513
▁الصفوي	-14514
▁الصوان	-14515
▁الصيني	-14516
▁الضغوط	-14517
▁الضوئي	-14518
▁الطبيب	-14519
▁الطفره	-14520
▁الطويل	-14521
▁العامل	-14522
▁العشره	-14523
▁العلوي	-14524
▁الغزاه	-14525
▁الفائت	-14526
▁الفائق	-14527
▁الفاره	-14528
▁الفاعل	-14529
▁الفتيه	-14530
▁الفرار	-14531
▁القاعه	-14532
▁القضاه	-14533
▁الكبار	-14534
▁الكندي	-14535
▁اللباس	-14536
▁اللغوي	-14537
▁المتنا	-14538
▁المجرد	-14539
▁المجله	-14540
▁المخزن	-14541
▁المخلص	-14542
▁المدرج	-14543
▁المرار	-14544
▁المربع	-14545
▁المركب	-14546
▁المزود	-14547
▁المزيج	-14548
▁المسمي	-14549
▁المعتم	-14550
▁المعين	-14551
▁الملحق	-14552
▁المميز	-14553
▁المنبع	-14554
▁المندب	-14555
▁المنذر	-14556
▁المنعم	-14557
▁الموال	-14558
▁المورد	-14559
▁الموطن	-14560
▁المولد	-14561
▁النديم	-14562
▁النسيج	-14563
▁النظير	-14564
▁الهائل	-14565
▁الهادئ	-14566
▁الهطول	-14567
▁الوجبه	-14568
▁انتصرت	-14569
▁انطلاق	-14570
▁انقرضت	-14571
▁انهارت	-14572
▁اهميته	-14573
▁اوفكوم	-14574
▁باعمال	-14575
▁بالاسم	-14576
▁بالبحث	-14577
▁بالدول	-14578
▁بالدين	-14579
▁بالنظر	-14580
▁بالنفط	-14581
▁بتحسين	-14582
▁بتسميه	-14583
▁بتشييد	-14584
▁بتفجير	-14585
▁بتنظيم	-14586
▁بحيرات	-14587
▁بديهيه	-14588
▁براءات	-14589
▁بروكسل	-14590
▁بصوتها	-14591
▁بضروره	-14592
▁بكميات	-14593
▁بلبنان	-14594
▁بلجيكا	-14595
▁بمختلف	-14596
▁بمساحه	-14597
▁بناؤها	-14598
▁بواجهه	-14599
▁تاسيسه	-14600
▁تتفاوت	-14601
▁تحديدا	-14602
▁تربطها	-14603
▁تستقطب	-14604
▁تصميمه	-14605
▁تطويره	-14606
▁تعديله	-14607
▁ثقافات	-14608
▁جانبيه	-14609
▁حاسوبا	-14610
▁حاشيته	-14611
▁حاولوا	-14612
▁خارجها	-14613
▁خزانات	-14614
▁دراسيه	-14615
▁دولتين	-14616
▁روايته	-14617
▁ريدوود	-14618
▁زيارته	-14619
▁سارينن	-14620
▁ساهموا	-14621
▁ستانلي	-14622
▁ستينات	-14623
▁سيارات	-14624
▁صادرات	-14625
▁طريقهم	-14626
▁عاصمته	-14627
▁عموميه	-14628
▁فاعليه	-14629
▁فايمار	-14630
▁قادتهم	-14631
▁قتاليه	-14632
▁قطارات	-14633
▁قواتها	-14634
▁قوامها	-14635
▁كبيرين	-14636
▁كتابته	-14637
▁كوسوفو	-14638
▁لاحكام	-14639
▁لبرامج	-14640
▁لتاثير	-14641
▁لتشجيع	-14642
▁لتطبيق	-14643
▁لتعديل	-14644
▁لتعليم	-14645
▁لتغطيه	-14646
▁لتكوين	-14647
▁لتنميه	-14648
▁لحاسوب	-14649
▁لحالات	-14650
▁لحكومه	-14651
▁لخدمات	-14652
▁لعمليه	-14653
▁لفرنسا	-14654
▁لقائمه	-14655
▁للبنان	-14656
▁للحدود	-14657
▁للخارج	-14658
▁للخدمه	-14659
▁للرئيس	-14660
▁للشؤون	-14661
▁للقتال	-14662
▁للوصول	-14663
▁لمختلف	-14664
▁لمملكه	-14665
▁لهجمات	-14666
▁لودفيغ	-14667
▁مارشال	-14668
▁متعلقه	-14669
▁متمثله	-14670
▁متميزا	-14671
▁محاكاه	-14672
▁محتمله	-14673
▁مركزها	-14674
▁مروريه	-14675
▁مزدهره	-14676
▁مسابقه	-14677
▁مستقره	-14678
▁مستقلا	-14679
▁مستمرا	-14680
▁مستهلك	-14681
▁مشكلات	-14682
▁معاديه	-14683
▁معتبره	-14684
▁معقوده	-14685
▁مقداره	-14686
▁مكانته	-14687
▁مكبرات	-14688
▁ملاحظه	-14689
▁ملحوظا	-14690
▁ملوكها	-14691
▁مناقشه	-14692
▁مناهضه	-14693
▁منتظمه	-14694
▁منطقيه	-14695
▁مهاجره	-14696
▁مواليد	-14697
▁مياهها	-14698
▁نباتات	-14699
▁نباتيه	-14700
▁نسبتهم	-14701
▁نفوذها	-14702
▁نموذجا	-14703
▁هاجروا	-14704
▁هيلبرت	-14705
▁واتهمت	-14706
▁واختار	-14707
▁واختلف	-14708
▁واخراج	-14709
▁وارتبط	-14710
▁وازداد	-14711
▁واسسوا	-14712
▁واصدار	-14713
▁واظهرت	-14714
▁واعتمد	-14715
▁وافراد	-14716
▁والاحت	-14717
▁والدها	-14718
▁والصيد	-14719
▁والطرح	-14720
▁والطرق	-14721
▁والطلب	-14722
▁والعاب	-14723
▁والفار	-14724
▁والفلك	-14725
▁والقرن	-14726
▁والكرد	-14727
▁والمخا	-14728
▁والمكت	-14729
▁والملك	-14730
▁واماكن	-14731
▁وانهاء	-14732
▁وانواع	-14733
▁وتحديث	-14734
▁وتختلف	-14735
▁وتدريب	-14736
▁وتطورت	-14737
▁وتعتمد	-14738
▁وتغيير	-14739
▁وتقليل	-14740
▁وتمتلك	-14741
▁وتنخفض	-14742
▁وتنقسم	-14743
▁وتوحيد	-14744
▁وحكومه	-14745
▁وحينها	-14746
▁وديوان	-14747
▁وسيطرت	-14748
▁وصعوبه	-14749
▁وضعتها	-14750
▁وكثيرا	-14751
▁وكنيسه	-14752
▁ولكنهم	-14753
▁ومختلف	-14754
▁ومساجد	-14755
▁وممالك	-14756
▁وموارد	-14757
▁ونزلوا	-14758
▁ويتميز	-14759
▁ويتوزع	-14760
▁ويرتبط	-14761
▁ويستند	-14762
▁ويشتهر	-14763
▁ويلاحظ	-14764
▁يتواجد	-14765
▁يحكمها	-14766
▁يحكمون	-14767
▁يرغبون	-14768
▁يزالون	-14769
▁يسكنون	-14770
▁يقولون	-14771
كترونيات	-14772
وريتانيا	-14773
وزبكستان	-14774
▁اجتماعا	-14775
▁اختصارا	-14776
▁ارباحها	-14777
▁استاجرت	-14778
▁استبدلت	-14779
▁استرجاع	-14780
▁استشاره	-14781
▁استعادت	-14782
▁استهدفت	-14783
▁استيعاب	-14784
▁استيلاء	-14785
▁اسعارها	-14786
▁اطلاقها	-14787
▁اعتبرها	-14788
▁اعمارهم	-14789
▁اعمالهم	-14790
▁افتتاحه	-14791
▁افريقيه	-14792
▁اقليميا	-14793
▁اكتشافه	-14794
▁الاثناء	-14795
▁الاخلاق	-14796
▁الارشاد	-14797
▁الارواح	-14798
▁الاسلوب	-14799
▁الاشراف	-14800
▁الاصنام	-14801
▁الاضراب	-14802
▁الاضرار	-14803
▁الاطعمه	-14804
▁الاعجاز	-14805
▁الاقطار	-14806
▁الامواج	-14807
▁الانماط	-14808
▁الاواني	-14809
▁البحاره	-14810
▁البخاري	-14811
▁البلدات	-14812
▁البورصه	-14813
▁البومات	-14814
▁التاهيل	-14815
▁التجريد	-14816
▁التجميع	-14817
▁التحسين	-14818
▁الترجيح	-14819
▁الترحيل	-14820
▁التسلسل	-14821
▁التسويق	-14822
▁التغذيه	-14823
▁التغيير	-14824
▁التمثال	-14825
▁التمييز	-14826
▁التنسيق	-14827
▁التنظيف	-14828
▁الثماني	-14829
▁الجاهلي	-14830
▁الجدران	-14831
▁الجريده	-14832
▁الجزائر	-14833
▁الجلندي	-14834
▁الجليدي	-14835
▁الجنائي	-14836
▁الحراري	-14837
▁الحسابي	-14838
▁الحشرات	-14839
▁الحضاري	-14840
▁الخاطئه	-14841
▁الخشبيه	-14842
▁الخفيفه	-14843
▁الخناجر	-14844
▁الخواتم	-14845
▁الرئاسي	-14846
▁الرطوبه	-14847
▁الرمادي	-14848
▁الرمزيه	-14849
▁الرمليه	-14850
▁الزاويه	-14851
▁الزوراء	-14852
▁السابعه	-14853
▁الستريك	-14854
▁السحايا	-14855
▁السطحيه	-14856
▁السفاره	-14857
▁الشتويه	-14858
▁الصابئه	-14859
▁الصحابي	-14860
▁الصداره	-14861
▁الطرفين	-14862
▁الطفوله	-14863
▁العادات	-14864
▁العواصف	-14865
▁الفاتحه	-14866
▁الفرنجه	-14867
▁الفريده	-14868
▁الفلسفي	-14869
▁الفلوجه	-14870
▁الفيروس	-14871
▁الفينيه	-14872
▁القرصنه	-14873
▁القياسي	-14874
▁القيامه	-14875
▁الكواكب	-14876
▁المارين	-14877
▁المترجم	-14878
▁المتعدد	-14879
▁المتميز	-14880
▁المثيره	-14881
▁المجمعه	-14882
▁المختصر	-14883
▁المختصه	-14884
▁المدوره	-14885
▁المرتفع	-14886
▁المرسوم	-14887
▁المرناه	-14888
▁المرويه	-14889
▁المزدوج	-14890
▁المزعوم	-14891
▁المسماه	-14892
▁المصدره	-14893
▁المطالب	-14894
▁المطبقه	-14895
▁المطريه	-14896
▁المفهوم	-14897
▁المقترح	-14898
▁الملحقه	-14899
▁المنتزه	-14900
▁المنصات	-14901
▁الموضوع	-14902
▁الميديا	-14903
▁النائيه	-14904
▁النباتي	-14905
▁النبطيه	-14906
▁النسبيه	-14907
▁النظامي	-14908
▁النقاله	-14909
▁الهائله	-14910
▁الوقايه	-14911
▁اليابسه	-14912
▁امدادات	-14913
▁انتقلوا	-14914
▁انتهاكا	-14915
▁انجازات	-14916
▁اهتمامه	-14917
▁اهميتها	-14918
▁بالعوده	-14919
▁باليورو	-14920
▁بانتظام	-14921
▁بدايتها	-14922
▁برنامجه	-14923
▁بروكلين	-14924
▁بعلاقات	-14925
▁بمحاوله	-14926
▁بمراقبه	-14927
▁بموجبها	-14928
▁تتخللها	-14929
▁تصريحات	-14930
▁تعليميه	-14931
▁تقديمها	-14932
▁تلقائيا	-14933
▁تمثيليه	-14934
▁تنافسيه	-14935
▁توزيعها	-14936
▁حفلاتها	-14937
▁دستوريه	-14938
▁رومانيه	-14939
▁عمرانيه	-14940
▁فعاليات	-14941
▁قسنطينه	-14942
▁للاعلان	-14943
▁للانسان	-14944
▁للبرامج	-14945
▁للتعامل	-14946
▁للتعبير	-14947
▁للصناعه	-14948
▁للعاصمه	-14949
▁للمناطق	-14950
▁لمحاربه	-14951
▁لموقعها	-14952
▁ليفونيا	-14953
▁متصرفيه	-14954
▁متفاوته	-14955
▁مسيحيون	-14956
▁مشاهدته	-14957
▁مشروعات	-14958
▁ممارسات	-14959
▁مواصلات	-14960
▁ميلاديه	-14961
▁هوسبيرا	-14962
▁واحتلال	-14963
▁وارتفاع	-14964
▁وازدهرت	-14965
▁واشتهرت	-14966
▁والبحوث	-14967
▁والثالث	-14968
▁والجبال	-14969
▁والحجاز	-14970
▁والحياه	-14971
▁والرئيس	-14972
▁والسلاح	-14973
▁والسلام	-14974
▁والسلطه	-14975
▁والطاقه	-14976
▁والغربي	-14977
▁والقائد	-14978
▁والكثير	-14979
▁والمحيط	-14980
▁والمراه	-14981
▁والمعهد	-14982
▁والمهند	-14983
▁والمياه	-14984
▁والنسيج	-14985
▁والوسطي	-14986
▁وانتشرت	-14987
▁وبرنامج	-14988
▁وتتراوح	-14989
▁وطالبان	-14990
▁وطرابلس	-14991
▁وعمليات	-14992
▁وقطاعات	-14993
▁ولاتفيا	-14994
▁ومؤسسات	-14995
▁ومتعدده	-14996
▁ومعظمهم	-14997
▁ويتراوح	-14998
▁ويليامز	-14999
▁يسمونها	-15000
▁يقاتلون	-15001
▁يمارسون	-15002
▁احتلالها	-15003
▁استخدمها	-15004
▁استخدموا	-15005
▁اقتصادها	-15006
▁اكاديميه	-15007
▁الابتكار	-15008
▁الادارات	-15009
▁الارتحال	-15010
▁الاستديو	-15011
▁الاستماع	-15012
▁الاصوليه	-15013
▁الاضافيه	-15014
▁الاعتقاد	-15015
▁الاعلامي	-15016
▁الالزامي	-15017
▁الامهريه	-15018
▁الامويون	-15019
▁الانتماء	-15020
▁الانخفاض	-15021
▁الاوزبكي	-15022
▁التجمعات	-15023
▁التخصصات	-15024
▁الترابيه	-15025
▁التشريعي	-15026
▁التشكيلي	-15027
▁التيموري	-15028
▁الثلاثين	-15029
▁الجزيئات	-15030
▁الجماليه	-15031
▁الجمركيه	-15032
▁الحاليين	-15033
▁الحراريه	-15034
▁الحياتيه	-15035
▁الخليجيه	-15036
▁الدراجات	-15037
▁السلوقيه	-15038
▁الشرائيه	-15039
▁الشموليه	-15040
▁الصحفيين	-15041
▁العاملون	-15042
▁العموميه	-15043
▁العنكبوت	-15044
▁الغربيين	-15045
▁القتاليه	-15046
▁القيادات	-15047
▁الكاميرا	-15048
▁الكثيرون	-15049
▁الكثيرين	-15050
▁الكحوليه	-15051
▁اللاسلكي	-15052
▁اللويبده	-15053
▁المتجهات	-15054
▁المتحركه	-15055
▁المترتبه	-15056
▁المحاصيل	-15057
▁المحلفين	-15058
▁المحليون	-15059
▁المختلطه	-15060
▁المخرجين	-15061
▁المرموقه	-15062
▁المعاديه	-15063
▁المفاتيح	-15064
▁المقدوني	-15065
▁الملايين	-15066
▁الممارسه	-15067
▁المميزات	-15068
▁المناخيه	-15069
▁المنتمين	-15070
▁المنوعات	-15071
▁الموارنه	-15072
▁الموقعين	-15073
▁النظاميه	-15074
▁الواردات	-15075
▁الوطنيين	-15076
▁الوكالات	-15077
▁انتقاليه	-15078
▁بالاجماع	-15079
▁بالبرامج	-15080
▁بالتعليم	-15081
▁باللغتين	-15082
▁بالمدرسه	-15083
▁بجمهوريه	-15084
▁بروتستان	-15085
▁جمهوريات	-15086
▁ستوكهولم	-15087
▁سينمائيه	-15088
▁كاستيلان	-15089
▁للبرلمان	-15090
▁للجامعات	-15091
▁للفنانين	-15092
▁للمجموعه	-15093
▁مستقبليه	-15094
▁واستخدمت	-15095
▁واعتبارا	-15096
▁والاجانب	-15097
▁والاخوان	-15098
▁والادوات	-15099
▁والاسلام	-15100
▁والاعداد	-15101
▁والافراد	-15102
▁والافغان	-15103
▁والافلام	-15104
▁والانتاج	-15105
▁والاوروب	-15106
▁والترفيه	-15107
▁والتصميم	-15108
▁والتوزيع	-15109
▁والثقافي	-15110
▁والخامسه	-15111
▁والدراسه	-15112
▁والدوليه	-15113
▁والسباحه	-15114
▁والصحراء	-15115
▁والعراقي	-15116
▁والفرنسي	-15117
▁والقبائل	-15118
▁والكليات	-15119
▁والماليه	-15120
▁والمجلات	-15121
▁والمساجد	-15122
▁والمطاعم	-15123
▁والممالك	-15124
▁وتطبيقات	-15125
▁وتفجيرات	-15126
▁وجمهوريه	-15127
▁وسيادتها	-15128
▁ويكيليكس	-15129
▁استعمالها	-15130
▁الاراميين	-15131
▁الاستعداد	-15132
▁الاكاديمي	-15133
▁الانجليزي	-15134
▁الانشائيه	-15135
▁الايجابيه	-15136
▁التاثيرات	-15137
▁التجاريين	-15138
▁التحضيريه	-15139
▁التشريعات	-15140
▁التقسيمات	-15141
▁التيموريه	-15142
▁الجاهليين	-15143
▁الدورانيه	-15144
▁الرئيسيين	-15145
▁السودانيه	-15146
▁الصهيونيه	-15147
▁الضروريات	-15148
▁الطاجيكيه	-15149
▁العلائقيه	-15150
▁العمونيون	-15151
▁الفرنسيين	-15152
▁الكلدانيه	-15153
▁اللاسلكيه	-15154
▁الماكولات	-15155
▁المتعلمين	-15156
▁المتلاحقه	-15157
▁المخالفات	-15158
▁المسؤولون	-15159
▁المسابقات	-15160
▁المستعربه	-15161
▁المشاركين	-15162
▁المشروبات	-15163
▁المعاصرين	-15164
▁المنازعات	-15165
▁الميلاديه	-15166
▁بالانضمام	-15167
▁بالانقراض	-15168
▁ثلاثينيات	-15169
▁ديوفانتوس	-15170
▁فرانسيسكو	-15171
▁فيلادلفيا	-15172
▁لبريطانيا	-15173
▁للاستثمار	-15174
▁للحيوانات	-15175
▁واقتصاديه	-15176
▁والثقافات	-15177
▁والحواسيب	-15178
▁والعسكريه	-15179
▁والكيمياء	-15180
▁والمؤرخين	-15181
▁والمركبات	-15182
▁وبالتحديد	-15183
▁الاجتماعات	-15184
▁الاحصائيات	-15185
▁الاستوائيه	-15186
▁الانتحاريه	-15187
▁البرتغاليه	-15188
▁البروتوكول	-15189
▁البيزنطيون	-15190
▁الجماهيريه	-15191
▁الخوارزميه	-15192
▁الساسانيين	-15193
▁العشرينيات	-15194
▁المستثمرين	-15195
▁المعماريين	-15196
▁الموسيقيين	-15197
▁اليورانيوم	-15198
▁اليونانيون	-15199
▁لاستخدامها	-15200
▁والاشوريين	-15201
▁والاقتصادي	-15202
▁والمجوهرات	-15203
▁والمعتقدات	-15204
▁الاسرائيليه	-15205
▁البريطانيون	-15206
▁التايكواندو	-15207
▁التكنولوجيه	-15208
▁الثلاثينيات	-15209
▁لمايكروسوفت	-15210
▁والمستشفيات	-15211
▁والمستوطنات	-15212
▁الاسكندنافيه	-15213
)؛	-15214
-4	-15215
-5	-15216
.0	-15217
36	-15218
37	-15219
91	-15220
حج	-15221
زء	-15222
زج	-15223
شئ	-15224
طس	-15225
مح	-15226
مط	-15227
نك	-15228
,33	-15229
,95	-15230
-16	-15231
-18	-15232
197	-15233
199	-15234
201	-15235
300	-15236
4.1	-15237
4.4	-15238
6.8	-15239
700	-15240
8.8	-15241
9.5	-15242
ئهم	-15243
اتل	-15244
ادا	-15245
اذب	-15246
ارم	-15247
است	-15248
اضل	-15249
اطب	-15250
اطر	-15251
اطف	-15252
اعا	-15253
اكل	-15254
الر	-15255
امو	-15256
انئ	-15257
انس	-15258
باز	-15259
باغ	-15260
بتر	-15261
بثق	-15262
برك	-15263
بقي	-15264
بيط	-15265
ترز	-15266
ترط	-15267
تهد	-15268
تهك	-15269
تير	-15270
تيس	-15271
ثرا	-15272
ثني	-15273
جحت	-15274
جلو	-15275
جنس	-15276
جوء	-15277
حره	-15278
حلق	-15279
حلل	-15280
حلي	-15281
حيت	-15282
حيح	-15283
خبز	-15284
خذه	-15285
خلع	-15286
خير	-15287
دال	-15288
دعي	-15289
دور	-15290
ديب	-15291
ذات	-15292
راو	-15293
ربا	-15294
رسه	-15295
رضه	-15296
ركت	-15297
رنر	-15298
روب	-15299
ريث	-15300
ريج	-15301
زاع	-15302
زره	-15303
زنه	-15304
ساط	-15305
سقل	-15306
سكا	-15307
سمك	-15308
سند	-15309
شبه	-15310
شود	-15311
شيط	-15312
شيل	-15313
صان	-15314
صفر	-15315
صوب	-15316
صوم	-15317
صيد	-15318
ضال	-15319
ضعت	-15320
ضين	-15321
طاس	-15322
طاف	-15323
طفل	-15324
طفه	-15325
طوم	-15326
طون	-15327
عاف	-15328
عبا	-15329
عبي	-15330
عدت	-15331
عدي	-15332
عرق	-15333
عمد	-15334
غاء	-15335
غام	-15336
غرا	-15337
غور	-15338
غون	-15339
غيز	-15340
فري	-15341
فلي	-15342
قدي	-15343
قيع	-15344
كاه	-15345
كبت	-15346
كرر	-15347
كرم	-15348
كسر	-15349
كشف	-15350
كلا	-15351
كنغ	-15352
لاص	-15353
لبس	-15354
لغه	-15355
لكن	-15356
لهي	-15357
ليخ	-15358
مسا	-15359
مسي	-15360
مصر	-15361
ملك	-15362
منع	-15363
موا	-15364
موج	-15365
نجر	-15366
نعت	-15367
نها	-15368
نوف	-15369
هاي	-15370
ودع	-15371
ورف	-15372
وصل	-15373
ويح	-15374
ويز	-15375
يدز	-15376
يده	-15377
يزه	-15378
يلر	-15379
يمي	-15380
يند	-15381
ينس	-15382
يول	-15383
▁,2	-15384
▁2،	-15385
▁47	-15386
▁54	-15387
▁56	-15388
▁59	-15389
▁72	-15390
▁74	-15391
▁82	-15392
▁86	-15393
▁87	-15394
▁89	-15395
▁96	-15396
▁97	-15397
▁جث	-15398
▁حن	-15399
▁حو	-15400
▁زا	-15401
▁سو	-15402
▁شت	-15403
▁شف	-15404
▁شق	-15405
▁طه	-15406
▁غا	-15407
▁قو	-15408
▁كص	-15409
▁نؤ	-15410
▁نح	-15411
▁يذ	-15412
2000	-15413
ائدا	-15414
ابعت	-15415
اجئه	-15416
اجله	-15417
احنه	-15418
ادلي	-15419
ارجه	-15420
ارما	-15421
ارهم	-15422
اريح	-15423
اصدا	-15424
اصير	-15425
اكيا	-15426
اكيه	-15427
الار	-15428
الاص	-15429
البث	-15430
البر	-15431
المت	-15432
اليق	-15433
امته	-15434
امضه	-15435
انوس	-15436
اوير	-15437
ايتد	-15438
ايدز	-15439
بئيه	-15440
باته	-15441
بهات	-15442
بيده	-15443
بيري	-15444
بيعا	-15445
تاوي	-15446
تميه	-15447
تيان	-15448
ثالث	-15449
ثرات	-15450
ثقيف	-15451
جاجا	-15452
جازه	-15453
جازي	-15454
جدار	-15455
جرات	-15456
حاما	-15457
حبيل	-15458
حتين	-15459
حدثي	-15460
حمام	-15461
حوبه	-15462
حوته	-15463
خبيل	-15464
دئين	-15465
داثه	-15466
دامر	-15467
دامي	-15468
دقيه	-15469
دلسي	-15470
دهما	-15471
دونم	-15472
ذاكر	-15473
ذبذب	-15474
ذهان	-15475
راته	-15476
راضي	-15477
راعي	-15478
ربوي	-15479
رتهم	-15480
رضوا	-15481
ركزه	-15482
ريبي	-15483
ريرا	-15484
ريست	-15485
ريكي	-15486
ريمي	-15487
زامن	-15488
زلان	-15489
زمهم	-15490
زنطه	-15491
زنطي	-15492
زوجه	-15493
ساري	-15494
ساعه	-15495
سبوا	-15496
ستاق	-15497
ستير	-15498
ستيه	-15499
سرات	-15500
سيان	-15501
سيوم	-15502
شفات	-15503
صائد	-15504
صاره	-15505
صيحه	-15506
ضمون	-15507
طاها	-15508
طبيب	-15509
طراف	-15510
طعام	-15511
طهير	-15512
ظافه	-15513
ظلات	-15514
ظميه	-15515
ظيفي	-15516
ظيما	-15517
عاطي	-15518
عبئه	-15519
عركه	-15520
عيفه	-15521
غانه	-15522
غرات	-15523
غلات	-15524
غهام	-15525
فاقا	-15526
فايه	-15527
فرقه	-15528
فعول	-15529
فكير	-15530
فلات	-15531
فوني	-15532
فيلد	-15533
قارب	-15534
قاها	-15535
قتله	-15536
قدما	-15537
قلون	-15538
قيال	-15539
كارا	-15540
كارت	-15541
كاره	-15542
كاري	-15543
كانت	-15544
كاوي	-15545
كايه	-15546
كرير	-15547
كريه	-15548
كوير	-15549
لالي	-15550
لاها	-15551
لتين	-15552
للين	-15553
لمون	-15554
لياس	-15555
ليمه	-15556
ماعي	-15557
متين	-15558
مجلس	-15559
مركز	-15560
مرين	-15561
مسون	-15562
ممين	-15563
مهام	-15564
مودي	-15565
ميته	-15566
ميذه	-15567
نادق	-15568
ناقش	-15569
ناما	-15570
نديا	-15571
نسخه	-15572
نهار	-15573
نولث	-15574
هلكه	-15575
هميش	-15576
وائج	-15577
وابط	-15578
واتي	-15579
وارق	-15580
وازن	-15581
واصه	-15582
والد	-15583
واند	-15584
وتات	-15585
وتره	-15586
وثيق	-15587
وجوب	-15588
ودون	-15589
وراق	-15590
وردو	-15591
وفون	-15592
وفين	-15593
وقرا	-15594
وقوع	-15595
وكسي	-15596
ولاء	-15597
ومهم	-15598
ونان	-15599
وياء	-15600
ويتا	-15601
ويته	-15602
يديه	-15603
يمار	-15604
ينان	-15605
يندا	-15606
ينكس	-15607
▁(12	-15608
▁(16	-15609
▁(32	-15610
▁-19	-15611
▁1,2	-15612
▁1,6	-15613
▁1.9	-15614
▁101	-15615
▁106	-15616
▁10،	-15617
▁118	-15618
▁124	-15619
▁181	-15620
▁184	-15621
▁2.7	-15622
▁240	-15623
▁29.	-15624
▁3.1	-15625
▁3.6	-15626
▁330	-15627
▁4.7	-15628
▁5.2	-15629
▁571	-15630
▁6.2	-15631
▁6.5	-15632
▁7.2	-15633
▁776	-15634
▁803	-15635
▁89.	-15636
▁900	-15637
▁950	-15638
▁اتا	-15639
▁اجت	-15640
▁اجز	-15641
▁اخي	-15642
▁اذي	-15643
▁اشد	-15644
▁اطر	-15645
▁امد	-15646
▁اني	-15647
▁اوج	-15648
▁بثت	-15649
▁بدخ	-15650
▁بدو	-15651
▁برك	-15652
▁بزع	-15653
▁بضع	-15654
▁بغد	-15655
▁بفت	-15656
▁بقب	-15657
▁بقد	-15658
▁بقر	-15659
▁بلي	-15660
▁بنج	-15661
▁بوك	-15662
▁تبي	-15663
▁ترد	-15664
▁تسم	-15665
▁تسي	-15666
▁تظل	-15667
▁تعز	-15668
▁تعم	-15669
▁تلي	-15670
▁توت	-15671
▁توم	-15672
▁تير	-15673
▁ثار	-15674
▁ثمت	-15675
▁ثوب	-15676
▁جسم	-15677
▁جلي	-15678
▁جمي	-15679
▁جها	-15680
▁جهد	-15681
▁جوه	-15682
▁حاز	-15683
▁حفر	-15684
▁حما	-15685
▁حمي	-15686
▁حيه	-15687
▁خاط	-15688
▁خبز	-15689
▁خشب	-15690
▁دلت	-15691
▁رحب	-15692
▁ركب	-15693
▁ركز	-15694
▁زرع	-15695
▁ساخ	-15696
▁سبي	-15697
▁سفح	-15698
▁سلف	-15699
▁سله	-15700
▁سود	-15701
▁سيح	-15702
▁شجر	-15703
▁شجع	-15704
▁شرع	-15705
▁شري	-15706
▁شوخ	-15707
▁صاغ	-15708
▁صان	-15709
▁صيت	-15710
▁ضاع	-15711
▁علق	-15712
▁فاد	-15713
▁فاق	-15714
▁فرج	-15715
[...]
