<pad>	0
<unk>	0
<s>	0
</s>	0
▁ا	-0
▁ال	-1
▁م	-2
▁و	-3
▁+	-4
▁ب	-5
▁ف	-6
يه	-7
▁ل	-8
▁ع	-9
▁ت	-10
▁الم	-11
▁الا	-12
▁ي	-13
▁في	-14
▁من	-15
ات	-16
ان	-17
لي	-18
▁ك	-19
ام	-20
▁ان	-21
ار	-22
ال	-23
ين	-24
▁ق	-25
▁الع	-26
▁ن	-27
▁ح	-28
ها	-29
▁الت	-30
▁س	-31
را	-32
ري	-33
▁ه	-34
ست	-35
ول	-36
ون	-37
▁د	-38
▁علي	-39
اد	-40
▁ج	-41
▁الي	-42
▁ش	-43
ير	-44
▁ر	-45
▁الح	-46
▁الس	-47
وا	-48
▁الب	-49
رب	-50
ور	-51
يا	-52
▁1	-53
دي	-54
ما	-55
▁الق	-56
ده	-57
مه	-58
▁مع	-59
▁خ	-60
نا	-61
▁ما	-62
اب	-63
لك	-64
▁الج	-65
▁الش	-66
لا	-67
عه	-68
▁2	-69
رك	-70
ره	-71
▁ط	-72
▁(	-73
رو	-74
▁عام	-75
▁الف	-76
▁الد	-77
▁غ	-78
له	-79
▁الن	-80
▁ص	-81
▁ذ	-82
▁اس	-83
00	-84
اء	-85
بر	-86
▁التي	-87
▁عد	-88
ائ	-89
هم	-90
▁ين	-91
▁عن	-92
فه	-93
▁است	-94
مي	-95
سي	-96
مان	-97
به	-98
وي	-99
▁19	-100
▁اع	-101
قه	-102
▁هذ	-103
▁الك	-104
▁انت	-105
بي	-106
▁قد	-107
▁الخ	-108
وم	-109
▁اي	-110
▁او	-111
ود	-112
▁الذ	-113
▁اح	-114
▁ث	-115
بل	-116
يل	-117
رت	-118
اع	-119
▁الص	-120
▁العرب	-121
▁اك	-122
▁ذلك	-123
▁تع	-124
▁الر	-125
▁الام	-126
▁تم	-127
وس	-128
مل	-129
▁المت	-130
يد	-131
دن	-132
▁اب	-133
▁تح	-134
▁هي	-135
وف	-136
▁مح	-137
▁الان	-138
وب	-139
▁ز	-140
▁اخ	-141
تي	-142
▁ام	-143
اني	-144
▁ض	-145
كل	-146
اس	-147
ركه	-148
قي	-149
اره	-150
▁الاس	-151
ينه	-152
ضا	-153
▁الث	-154
▁يت	-155
اص	-156
دم	-157
جه	-158
دا	-159
▁الل	-160
▁الو	-161
▁هو	-162
▁الذي	-163
قت	-164
▁يع	-165
انيه	-166
▁حي	-167
▁تق	-168
لال	-169
▁20	-170
▁مج	-171
اه	-172
دينه	-173
سه	-174
▁مت	-175
شر	-176
الم	-177
وله	-178
مال	-179
▁الط	-180
اري	-181
من	-182
ثل	-183
▁الار	-184
ريه	-185
كن	-186
▁اف	-187
▁هذه	-188
▁المع	-189
▁اد	-190
قا	-191
ئي	-192
▁الغ	-193
ته	-194
لام	-195
رن	-196
راق	-197
▁اص	-198
▁حيث	-199
ني	-200
رق	-201
▁200	-202
اح	-203
رف	-204
▁نه	-205
ثر	-206
▁اله	-207
▁المن	-208
يره	-209
▁ري	-210
▁مس	-211
ضي	-212
▁المس	-213
مو	-214
ديد	-215
▁هذا	-216
ليه	-217
في	-218
▁الاخ	-219
▁العربيه	-220
سم	-221
▁عض	-222
▁201	-223
فا	-224
وج	-225
اده	-226
طه	-227
▁لا	-228
▁قبل	-229
لم	-230
▁العالم	-231
▁قط	-232
ولي	-233
با	-234
وق	-235
▁المح	-236
▁نظ	-237
▁تت	-238
▁العراق	-239
▁ات	-240
زي	-241
▁يه	-242
▁مثل	-243
نه	-244
مر	-245
▁ها	-246
▁بن	-247
صر	-248
▁كل	-249
▁تن	-250
لس	-251
لن	-252
الي	-253
▁تش	-254
▁خلال	-255
كو	-256
سيه	-257
▁اش	-258
كي	-259
▁اق	-260
تل	-261
▁غير	-262
▁شركه	-263
داد	-264
ويه	-265
▁.	-266
▁يق	-267
در	-268
▁اج	-269
▁عدد	-270
طي	-271
ستان	-272
حه	-273
كم	-274
هر	-275
الب	-276
▁الاع	-277
▁بي	-278
▁المج	-279
طقه	-280
▁البل	-281
▁انه	-282
▁مست	-283
يم	-284
▁عمان	-285
صل	-286
اف	-287
▁ار	-288
▁المدينه	-289
▁الاست	-290
راء	-291
▁المتح	-292
▁لم	-293
اج	-294
وع	-295
▁نس	-296
▁3	-297
مد	-298
)،	-299
▁يم	-300
▁اكثر	-301
▁يرو	-302
▁الاردن	-303
حت	-304
حي	-305
قد	-306
هد	-307
يك	-308
▁شكل	-309
خص	-310
لب	-311
نيه	-312
▁حتي	-313
▁دول	-314
اريخ	-315
▁البح	-316
▁المست	-317
قل	-318
▁ايضا	-319
▁العام	-320
يت	-321
▁دا	-322
مع	-323
خل	-324
▁المتحده	-325
زه	-326
ند	-327
وريه	-328
▁اغ	-329
▁عند	-330
▁ملي	-331
▁مش	-332
▁الدول	-333
▁،	-334
عي	-335
▁را	-336
لف	-337
▁الري	-338
▁اول	-339
▁اللغ	-340
ظم	-341
امج	-342
انيا	-343
▁التع	-344
ثه	-345
▁199	-346
▁طالب	-347
صاد	-348
اي	-349
▁مق	-350
▁نظام	-351
▁دي	-352
▁القرن	-353
ئه	-354
▁ظ	-355
بد	-356
كر	-357
وز	-358
▁الات	-359
▁الاسلام	-360
بيه	-361
عيه	-362
وره	-363
▁كن	-364
دام	-365
رض	-366
▁مدينه	-367
ياه	-368
▁هنا	-369
).	-370
طق	-371
▁الز	-372
▁اسم	-373
▁العديد	-374
رج	-375
ركز	-376
ذا	-377
▁تط	-378
▁المو	-379
▁يل	-380
▁التج	-381
مت	-382
▁الاف	-383
▁تج	-384
ليم	-385
اليه	-386
▁استخ	-387
وه	-388
▁طالبان	-389
▁المنا	-390
يش	-391
▁نف	-392
▁ابن	-393
▁تس	-394
ديه	-395
▁جن	-396
رح	-397
روس	-398
▁السيا	-399
ضافه	-400
▁-	-401
▁منذ	-402
ريق	-403
▁حد	-404
▁اعت	-405
▁مك	-406
▁الاج	-407
▁السل	-408
▁اخري	-409
▁هناك	-410
وت	-411
▁دم	-412
غان	-413
طل	-414
▁حس	-415
كومه	-416
▁الريا	-417
مانيه	-418
اريه	-419
▁اما	-420
كيه	-421
ئيس	-422
يو	-423
بع	-424
▁قي	-425
▁مؤ	-426
لكه	-427
كس	-428
اصه	-429
▁ثم	-430
▁تص	-431
▁الال	-432
000	-433
والي	-434
▁يس	-435
▁يش	-436
ختل	-437
▁مو	-438
▁المص	-439
▁الانت	-440
شق	-441
حاد	-442
بار	-443
▁المانيا	-444
▁البر	-445
اله	-446
وفت	-447
▁تك	-448
▁تحت	-449
▁البلاد	-450
▁4	-451
ميع	-452
▁ير	-453
▁احد	-454
▁نان	-455
▁الغرب	-456
ملكه	-457
▁الشرق	-458
▁يست	-459
يكروس	-460
يكروسوفت	-461
قتصاد	-462
▁اث	-463
▁تد	-464
▁يها	-465
فيه	-466
ماني	-467
▁المش	-468
▁الله	-469
عل	-470
كه	-471
▁اهم	-472
▁غداد	-473
▁تو	-474
▁اصب	-475
▁الدوله	-476
▁الفن	-477
▁مجمو	-478
▁دمشق	-479
▁مايكروسوفت	-480
▁5	-481
امعه	-482
جي	-483
▁افغان	-484
▁عشر	-485
خدم	-486
فت	-487
فع	-488
يني	-489
ديده	-490
ظمه	-491
وري	-492
▁افغانستان	-493
▁مد	-494
▁عمل	-495
▁الامري	-496
تبر	-497
▁قام	-498
▁جميع	-499
▁الحرب	-500
ورو	-501
وسط	-502
▁عم	-503
▁)	-504
حو	-505
▁الجن	-506
▁اللغه	-507
▁مما	-508
▁يك	-509
▁الاول	-510
▁منطقه	-511
▁الول	-512
▁جز	-513
▁اه	-514
▁البي	-515
▁6	-516
▁تب	-517
اعده	-518
▁استخدام	-519
▁انش	-520
▁حوالي	-521
▁خل	-522
ادي	-523
▁يتم	-524
▁يح	-525
ابه	-526
▁ني	-527
طن	-528
▁المؤ	-529
▁دوله	-530
اك	-531
▁نها	-532
▁الاد	-533
▁الرا	-534
كان	-535
▁الشع	-536
▁البحر	-537
ارس	-538
واق	-539
▁تلك	-540
▁الرو	-541
▁الاش	-542
▁النا	-543
▁نو	-544
لاق	-545
▁معظم	-546
▁الاتحاد	-547
اق	-548
لت	-549
▁له	-550
▁اكبر	-551
ئيه	-552
▁يج	-553
▁العربي	-554
ديم	-555
▁عبد	-556
▁تاريخ	-557
▁7	-558
▁هم	-559
حيه	-560
غيل	-561
▁مص	-562
▁النظ	-563
ناء	-564
▁عده	-565
ثير	-566
▁سي	-567
▁قطر	-568
▁المنطقه	-569
▁تا	-570
عت	-571
وروب	-572
وار	-573
▁رن	-574
از	-575
بت	-576
▁8	-577
فاع	-578
▁نسبه	-579
▁الاضافه	-580
ائل	-581
تر	-582
وان	-583
وجد	-584
وقع	-585
▁التش	-586
▁ريا	-587
▁يروز	-588
▁العم	-589
▁الولاي	-590
عم	-591
غم	-592
▁الجز	-593
▁رئيس	-594
▁اليمن	-595
▁يد	-596
ونيه	-597
▁دولار	-598
صف	-599
قيه	-600
▁18	-601
▁التن	-602
▁الحكومه	-603
وده	-604
▁البري	-605
وني	-606
▁از	-607
اخ	-608
بن	-609
▁مه	-610
▁حكم	-611
▁العمل	-612
امه	-613
▁الاح	-614
ماء	-615
▁اط	-616
▁الفت	-617
▁يروت	-618
▁المدن	-619
▁الاولي	-620
اط	-621
▁ذات	-622
▁التح	-623
▁الرياضي	-624
ارج	-625
▁بب	-626
▁الاخري	-627
▁اليوم	-628
▁اذ	-629
▁الض	-630
▁الفر	-631
ربع	-632
▁ثلا	-633
▁اخر	-634
▁الاك	-635
▁الاقتصاد	-636
▁خط	-637
▁اكت	-638
فر	-639
▁عليه	-640
▁حق	-641
▁المق	-642
عد	-643
▁مي	-644
اصمه	-645
ونيا	-646
ينيه	-647
▁الكب	-648
عا	-649
وفي	-650
▁قو	-651
سك	-652
راط	-653
لوم	-654
▁محمد	-655
ضاء	-656
▁البريط	-657
▁قت	-658
▁عبر	-659
اتي	-660
ارك	-661
▁القو	-662
▁السلط	-663
▁التق	-664
▁رل	-665
وديه	-666
▁مجلس	-667
ظه	-668
▁النس	-669
▁شمال	-670
ضه	-671
امل	-672
▁الماء	-673
وير	-674
جر	-675
صه	-676
▁الشمال	-677
▁حل	-678
▁ره	-679
لندا	-680
▁تست	-681
▁يره	-682
▁اليه	-683
▁التاريخ	-684
لاح	-685
وائ	-686
ختلفه	-687
ضم	-688
اته	-689
بلغ	-690
رار	-691
▁198	-692
يب	-693
سان	-694
ضيه	-695
▁مركز	-696
▁الرئي	-697
▁احت	-698
▁منت	-699
▁الاص	-700
▁قا	-701
▁مجموعه	-702
دل	-703
▁الوط	-704
▁المناطق	-705
مس	-706
▁تعد	-707
▁دون	-708
▁عرب	-709
▁ضد	-710
دث	-711
▁جه	-712
▁خلد	-713
▁اللبن	-714
▁9	-715
▁تغ	-716
ائيه	-717
▁جود	-718
تم	-719
احه	-720
▁عندما	-721
▁استونيا	-722
نو	-723
▁ادن	-724
▁ادي	-725
▁الاق	-726
▁الميل	-727
زل	-728
انب	-729
▁الملك	-730
دت	-731
▁ارت	-732
▁السكان	-733
▁المملكه	-734
▁حين	-735
▁خاصه	-736
▁المسلم	-737
▁العالميه	-738
▁عل	-739
▁197	-740
▁الامريكيه	-741
جم	-742
باني	-743
مالي	-744
▁مصر	-745
رائ	-746
▁قال	-747
▁اعلن	-748
▁نلندا	-749
▁(1	-750
▁در	-751
▁نحو	-752
راك	-753
▁شع	-754
اميه	-755
▁القط	-756
▁الثاني	-757
ظيم	-758
واف	-759
▁زي	-760
▁نش	-761
▁حسب	-762
▁الشي	-763
يط	-764
دمه	-765
▁شخص	-766
▁ضع	-767
▁الحدي	-768
▁الرغم	-769
▁الساب	-770
▁مر	-771
ديمه	-772
▁ناء	-773
▁انوا	-774
تب	-775
▁تف	-776
▁تره	-777
▁العث	-778
▁الخلي	-779
▁الاسلاميه	-780
ميه	-781
اسوب	-782
▁الوقت	-783
,000	-784
▁اصبحت	-785
20	-786
وح	-787
▁196	-788
▁الهند	-789
▁الغربيه	-790
بط	-791
تما	-792
▁طريق	-793
▁جامعه	-794
راج	-795
▁ائ	-796
زب	-797
▁اجه	-798
▁تاب	-799
▁المد	-800
▁الجنوب	-801
▁المياه	-802
▁صف	-803
▁المخ	-804
▁اوروب	-805
▁الكثير	-806
▁رس	-807
براط	-808
▁ينما	-809
زر	-810
▁تل	-811
▁مره	-812
▁النظام	-813
بال	-814
▁قائ	-815
▁المغ	-816
▁المه	-817
تمع	-818
▁الثقا	-819
سا	-820
▁15	-821
▁حر	-822
وروبي	-823
فض	-824
▁يط	-825
اسيه	-826
▁194	-827
▁ترك	-828
▁دات	-829
▁مليار	-830
ميز	-831
▁تر	-832
▁المط	-833
لاف	-834
▁جنوب	-835
ضر	-836
لان	-837
▁اخت	-838
مهوريه	-839
▁الشرقيه	-840
راف	-841
▁الجيش	-842
▁الفتره	-843
صور	-844
▁مط	-845
ذاعه	-846
▁اورا	-847
▁الشركه	-848
▁التشغيل	-849
يف	-850
مار	-851
▁تخ	-852
راضي	-853
▁جزء	-854
▁الاط	-855
▁الاوروبي	-856
جد	-857
خر	-858
ليل	-859
سميه	-860
يدان	-861
▁استق	-862
▁يعتبر	-863
▁اوراكل	-864
▁اوروبا	-865
▁البريطانيه	-866
صو	-867
يران	-868
▁ضمن	-869
▁الميلاد	-870
ابي	-871
▁الثانيه	-872
لاء	-873
▁دور	-874
روف	-875
▁تقع	-876
▁شبه	-877
▁يما	-878
▁التعليم	-879
▁القاعده	-880
▁شب	-881
▁يون	-882
▁الصح	-883
▁الشام	-884
▁الخاصه	-885
▁يوجد	-886
▁الفار	-887
▁المسي	-888
▁السوفي	-889
وك	-890
امع	-891
▁حا	-892
▁السع	-893
▁المك	-894
ثال	-895
راد	-896
وميه	-897
▁الاغ	-898
▁مجال	-899
▁العشر	-900
دد	-901
سط	-902
صب	-903
فال	-904
▁اض	-905
▁الحد	-906
▁مستوي	-907
الف	-908
دار	-909
▁11	-910
▁رم	-911
▁يز	-912
▁توف	-913
▁الثال	-914
▁القديمه	-915
صول	-916
▁قر	-917
▁وق	-918
واقع	-919
▁حول	-920
▁نهر	-921
▁مب	-922
0.	-923
ضل	-924
رير	-925
شره	-926
▁قب	-927
▁التط	-928
▁ايزر	-929
▁اداره	-930
▁الطبي	-931
روع	-932
وبر	-933
▁12	-934
▁يف	-935
▁هلس	-936
▁امري	-937
▁تطوير	-938
اما	-939
▁صل	-940
ارد	-941
ريف	-942
▁تز	-943
▁غه	-944
▁نق	-945
▁درا	-946
▁موا	-947
▁هلسن	-948
▁عمليه	-949
براطوريه	-950
ويل	-951
▁تمت	-952
▁نفس	-953
▁يوم	-954
▁حركه	-955
▁عالم	-956
▁الصنا	-957
▁الفنلن	-958
▁المتوسط	-959
فيذ	-960
▁الاث	-961
▁موقع	-962
▁الارض	-963
انه	-964
جان	-965
▁ظه	-966
▁اصبح	-967
▁التص	-968
▁درجه	-969
▁التالي	-970
▁العامه	-971
▁البرامج	-972
6،	-973
ابل	-974
صوص	-975
▁اعاده	-976
▁العصر	-977
▁الاذاعه	-978
رنت	-979
▁17	-980
▁مل	-981
▁195	-982
▁الحس	-983
▁رامج	-984
▁الجامعه	-985
▁الجزيره	-986
وط	-987
▁10	-988
اليا	-989
▁منا	-990
▁احده	-991
▁الرس	-992
▁الشر	-993
▁هيئه	-994
▁انشاء	-995
وث	-996
▁محاف	-997
▁البلد	-998
فو	-999
افه	-1000
بيق	-1001
ياء	-1002
▁13	-1003
▁رد	-1004
▁مؤس	-1005
▁ينا	-1006
▁مملكه	-1007
▁هلسنكي	-1008
▁به	-1009
لفزي	-1010
▁شاه	-1011
▁يعت	-1012
▁ثلاثه	-1013
▁رح	-1014
▁عب	-1015
▁يؤ	-1016
▁شهد	-1017
▁عرف	-1018
▁اعمال	-1019
رخ	-1020
▁14	-1021
راقي	-1022
زو	-1023
▁ته	-1024
▁مخ	-1025
▁صنا	-1026
▁القر	-1027
▁الدولي	-1028
▁المركز	-1029
ارت	-1030
صال	-1031
▁شي	-1032
▁عملي	-1033
▁الالمانيه	-1034
نت	-1035
▁رج	-1036
ولوج	-1037
▁موس	-1038
▁يعد	-1039
▁السلطان	-1040
فل	-1041
اسي	-1042
▁16	-1043
▁ابو	-1044
▁ارس	-1045
سكريه	-1046
▁قامت	-1047
▁المرت	-1048
▁زيدان	-1049
▁مناطق	-1050
عب	-1051
وال	-1052
واه	-1053
يرا	-1054
▁عمر	-1055
▁القي	-1056
▁تعتبر	-1057
▁الاجتما	-1058
▁الاسلامي	-1059
طلق	-1060
قاط	-1061
▁نت	-1062
▁حرب	-1063
▁الحض	-1064
▁التجاريه	-1065
ضع	-1066
ارب	-1067
راه	-1068
▁شر	-1069
▁ايه	-1070
▁علم	-1071
▁استع	-1072
▁الفرن	-1073
▁اكتوبر	-1074
▁ابي	-1075
▁قدم	-1076
▁نقل	-1077
▁تمبر	-1078
▁القان	-1079
▁تنظيم	-1080
▁اذا	-1081
▁ارب	-1082
▁انح	-1083
▁ميل	-1084
▁نوع	-1085
▁اشهر	-1086
▁حكومه	-1087
▁الدوليه	-1088
▁الانترنت	-1089
الح	-1090
زيه	-1091
▁عي	-1092
ختلف	-1093
▁ابر	-1094
▁الوس	-1095
▁خارج	-1096
▁ينكس	-1097
▁الاحت	-1098
▁قياده	-1099
ريب	-1100
ناه	-1101
▁رق	-1102
▁دخل	-1103
▁الحك	-1104
▁رنامج	-1105
▁الموسي	-1106
▁الرئيسيه	-1107
▁السياسيه	-1108
9،	-1109
بق	-1110
اسه	-1111
اهد	-1112
▁ابل	-1113
▁عرض	-1114
▁قتل	-1115
▁التس	-1116
▁الوز	-1117
▁زاره	-1118
نع	-1119
شار	-1120
▁لغ	-1121
تيجه	-1122
▁الخط	-1123
▁مختلفه	-1124
▁الانسان	-1125
▁الحاسوب	-1126
▁العاصمه	-1127
▁السعوديه	-1128
اش	-1129
▁اتفا	-1130
▁النف	-1131
▁نسمه	-1132
▁الزرا	-1133
▁العراقي	-1134
▁العراقيه	-1135
0،	-1136
▁محا	-1137
▁الامم	-1138
دف	-1139
صي	-1140
صار	-1141
اديه	-1142
المي	-1143
درسه	-1144
▁عهد	-1145
▁مدن	-1146
▁دايه	-1147
وما	-1148
▁سط	-1149
▁مث	-1150
▁ذكر	-1151
▁موج	-1152
▁الرح	-1153
▁نفسه	-1154
▁الافغ	-1155
▁الشخص	-1156
▁الشرك	-1157
▁انتاج	-1158
▁النسبه	-1159
دوز	-1160
يار	-1161
▁الحر	-1162
▁الجبر	-1163
▁المنت	-1164
▁المجمو	-1165
▁المجتمع	-1166
قط	-1167
ادل	-1168
▁حم	-1169
▁الرئيس	-1170
ائر	-1171
اقه	-1172
▁غرب	-1173
▁القب	-1174
▁جانب	-1175
▁الداخ	-1176
▁الخارج	-1177
1،	-1178
ديو	-1179
▁ملك	-1180
▁نوف	-1181
▁الناس	-1182
▁جديده	-1183
8،	-1184
▁)،	-1185
▁عق	-1186
▁نج	-1187
ريقه	-1188
سمبر	-1189
▁193	-1190
▁المل	-1191
▁اجهزه	-1192
▁الساح	-1193
▁عاصمه	-1194
▁الوطني	-1195
زم	-1196
ماع	-1197
▁ثير	-1198
▁جعل	-1199
▁عدم	-1200
▁عيد	-1201
▁الكت	-1202
▁اضافه	-1203
▁منظمه	-1204
▁يندوز	-1205
▁الاستق	-1206
زا	-1207
كا	-1208
ربه	-1209
اهره	-1210
▁اغلب	-1211
▁داخل	-1212
▁نهايه	-1213
▁السلطه	-1214
▁ديسمبر	-1215
راع	-1216
قيق	-1217
▁المر	-1218
▁الوا	-1219
▁توجد	-1220
▁قطاع	-1221
▁نتيجه	-1222
▁الخليج	-1223
▁الكبري	-1224
▁محافظه	-1225
▁الامريكي	-1226
سب	-1227
لاه	-1228
مبر	-1229
واء	-1230
▁حدي	-1231
▁احدي	-1232
▁البع	-1233
▁رنسا	-1234
▁اكستان	-1235
▁التجاره	-1236
▁الامبراطوريه	-1237
5،	-1238
سطس	-1239
ليا	-1240
▁دعم	-1241
▁الحق	-1242
▁حاليا	-1243
50	-1244
تد	-1245
هب	-1246
خاب	-1247
▁رب	-1248
▁اري	-1249
▁الظ	-1250
▁منه	-1251
▁حلول	-1252
▁يلوم	-1253
▁اغسطس	-1254
▁يناير	-1255
رد	-1256
ورك	-1257
▁حك	-1258
▁اجل	-1259
▁ثلاث	-1260
▁استمر	-1261
▁الانج	-1262
▁تشغيل	-1263
▁مجموع	-1264
9.	-1265
اث	-1266
جره	-1267
سيس	-1268
▁صح	-1269
▁مرت	-1270
▁ابرز	-1271
▁مارس	-1272
▁انحاء	-1273
قله	-1274
لحه	-1275
ميم	-1276
▁جبل	-1277
▁حصل	-1278
▁روس	-1279
▁شرق	-1280
▁احمد	-1281
▁الامر	-1282
▁المؤس	-1283
▁الموا	-1284
▁الحدود	-1285
-1	-1286
4،	-1287
7.	-1288
الت	-1289
ويت	-1290
▁تنت	-1291
▁قسم	-1292
▁عاما	-1293
▁مايو	-1294
▁الفلس	-1295
▁تقديم	-1296
▁نوفمبر	-1297
▁جمهوريه	-1298
▁اللبنانيه	-1299
رفه	-1300
ريد	-1301
ورا	-1302
▁اقل	-1303
▁اهل	-1304
▁متح	-1305
▁يصل	-1306
▁السنه	-1307
غل	-1308
▁٪	-1309
▁اوا	-1310
▁دائ	-1311
▁عاد	-1312
هرجان	-1313
▁افضل	-1314
▁الرق	-1315
▁يبلغ	-1316
▁يعرف	-1317
▁البرم	-1318
▁الاراضي	-1319
وض	-1320
باط	-1321
▁دع	-1322
▁شه	-1323
راكز	-1324
ريبا	-1325
وائل	-1326
▁علا	-1327
▁اساس	-1328
▁الاه	-1329
▁تقدم	-1330
▁انظمه	-1331
▁اعتبار	-1332
▁السابق	-1333
▁اللبناني	-1334
شي	-1335
▁يب	-1336
▁امت	-1337
▁انف	-1338
▁يان	-1339
▁الحج	-1340
▁تشكل	-1341
▁تشمل	-1342
▁مياه	-1343
▁اعلنت	-1344
▁صناعه	-1345
▁المختلفه	-1346
8.	-1347
ونه	-1348
▁اقت	-1349
▁مده	-1350
▁يعود	-1351
▁يولي	-1352
▁الدفاع	-1353
▁العالمي	-1354
▁الوطنيه	-1355
خذ	-1356
يز	-1357
يص	-1358
شفي	-1359
غيره	-1360
▁الاب	-1361
▁شبكه	-1362
▁اقتصاد	-1363
▁الاعمال	-1364
▁العثماني	-1365
▁الموسيقي	-1366
روب	-1367
▁جنو	-1368
رائيل	-1369
▁التل	-1370
▁الصف	-1371
▁العق	-1372
▁يقوم	-1373
▁الفارابي	-1374
2،	-1375
جا	-1376
باب	-1377
غرا	-1378
صادر	-1379
▁دفع	-1380
▁شرك	-1381
▁الاي	-1382
▁التو	-1383
▁النق	-1384
▁تطور	-1385
▁تعرض	-1386
▁السوي	-1387
▁يوليو	-1388
▁يونيو	-1389
▁الامير	-1390
▁السلام	-1391
▁الوسطي	-1392
▁الاقتصاديه	-1393
7،	-1394
ترا	-1395
ريت	-1396
▁نا	-1397
▁جها	-1398
▁نشر	-1399
▁حقوق	-1400
▁الاسم	-1401
▁الباك	-1402
▁دراسه	-1403
▁الحديثه	-1404
3،	-1405
ضمن	-1406
▁قص	-1407
▁100	-1408
▁تضم	-1409
▁قوه	-1410
▁يجب	-1411
▁تقوم	-1412
▁عربيه	-1413
▁مقابل	-1414
▁يستخدم	-1415
1.	-1416
ثي	-1417
ؤول	-1418
ارع	-1419
ومه	-1420
▁1.	-1421
▁اسيا	-1422
▁الاز	-1423
▁روسيا	-1424
▁زياده	-1425
▁مشروع	-1426
▁الاكثر	-1427
▁الحياه	-1428
▁المحلي	-1429
▁الاخيره	-1430
وحه	-1431
▁جاء	-1432
▁قان	-1433
▁اعلي	-1434
▁السب	-1435
▁الترك	-1436
▁التعا	-1437
▁اواخر	-1438
▁القديم	-1439
▁التلفزي	-1440
جيه	-1441
زاء	-1442
▁مز	-1443
▁اصل	-1444
▁طبي	-1445
▁اربع	-1446
▁العل	-1447
▁ايام	-1448
▁تابه	-1449
وروبيه	-1450
▁اثناء	-1451
▁اعضاء	-1452
▁الخاص	-1453
▁اسرائيل	-1454
ائي	-1455
ايه	-1456
بير	-1457
▁30	-1458
واسي	-1459
▁امر	-1460
▁جدا	-1461
▁قاد	-1462
▁يقع	-1463
▁السن	-1464
▁المز	-1465
▁النات	-1466
▁تطبيق	-1467
▁استخدم	-1468
▁المثال	-1469
▁المحليه	-1470
▁الجنوبيه	-1471
▁تكن	-1472
▁ثقا	-1473
▁العب	-1474
▁عاده	-1475
▁معدل	-1476
▁القدم	-1477
▁قائمه	-1478
▁الباكست	-1479
▁الرئيسي	-1480
▁المعلوم	-1481
▁الاردنيه	-1482
▁الخارجيه	-1483
▁السوفيتي	-1484
▁الافغانيه	-1485
▁الاوروبيه	-1486
ائق	-1487
ثله	-1488
راض	-1489
ظهر	-1490
▁اء	-1491
▁غت	-1492
رحله	-1493
▁محد	-1494
▁ملا	-1495
▁النب	-1496
▁قدمت	-1497
▁تاسيس	-1498
6.	-1499
زيع	-1500
غير	-1501
▁تاس	-1502
▁طول	-1503
▁عقد	-1504
▁يرا	-1505
▁شهدت	-1506
▁الاخر	-1507
▁الثالث	-1508
▁الجامع	-1509
▁المسرح	-1510
▁العماني	-1511
راب	-1512
ليد	-1513
يتس	-1514
▁حض	-1515
▁ذك	-1516
▁191	-1517
▁خدم	-1518
▁مبا	-1519
▁يلم	-1520
▁الما	-1521
▁الوح	-1522
▁يشكل	-1523
▁اسامه	-1524
▁العلم	-1525
▁تنفيذ	-1526
▁مساحه	-1527
▁يعتقد	-1528
▁البيان	-1529
▁القطاع	-1530
▁تستخدم	-1531
▁الاردني	-1532
اعد	-1533
جله	-1534
داث	-1535
طاق	-1536
كار	-1537
كال	-1538
▁اسع	-1539
▁حما	-1540
▁افريق	-1541
▁الابي	-1542
▁الدرا	-1543
▁القائ	-1544
▁الجديده	-1545
▁الشماليه	-1546
زن	-1547
سح	-1548
ايد	-1549
ديل	-1550
لاع	-1551
مثل	-1552
هاء	-1553
▁كم	-1554
▁صحي	-1555
واسيب	-1556
▁تعرف	-1557
▁حدود	-1558
▁راير	-1559
▁قناه	-1560
▁متعد	-1561
▁الخدم	-1562
▁السري	-1563
▁موسكو	-1564
▁نظريه	-1565
▁تقريبا	-1566
▁الداخليه	-1567
▁الفنلنديه	-1568
فظ	-1569
▁تي	-1570
▁رو	-1571
▁يا	-1572
▁اند	-1573
▁جمع	-1574
▁الاو	-1575
▁اللا	-1576
▁المب	-1577
▁تبلغ	-1578
▁يعمل	-1579
▁مختلف	-1580
▁الامار	-1581
▁المدارس	-1582
وذ	-1583
جار	-1584
بليه	-1585
▁افت	-1586
▁طين	-1587
▁يتح	-1588
▁الحا	-1589
▁الامن	-1590
▁الابيض	-1591
▁الرياضيه	-1592
ظر	-1593
لق	-1594
ابر	-1595
لين	-1596
هاب	-1597
ابعه	-1598
دهار	-1599
ستور	-1600
▁192	-1601
▁خلي	-1602
▁راس	-1603
▁عاص	-1604
▁اقدم	-1605
▁ظهرت	-1606
▁مربع	-1607
ولوجيا	-1608
▁الطرق	-1609
▁المحت	-1610
▁ايران	-1611
▁العملي	-1612
▁الاعلام	-1613
▁المرتبه	-1614
▁العسكريه	-1615
▁الاقتصادي	-1616
امن	-1617
طيه	-1618
▁بل	-1619
اركه	-1620
▁اشت	-1621
▁ينت	-1622
▁اوزب	-1623
▁خدمه	-1624
▁اعداد	-1625
▁طريقه	-1626
▁الحديث	-1627
▁الوزراء	-1628
5.	-1629
كت	-1630
نف	-1631
الج	-1632
▁نز	-1633
▁اسس	-1634
▁خاص	-1635
▁رئي	-1636
▁الملا	-1637
▁اوائل	-1638
▁الساميه	-1639
▁السياسي	-1640
▁القبائل	-1641
3.	-1642
ابع	-1643
سمح	-1644
وقف	-1645
▁جل	-1646
▁مئ	-1647
▁يخ	-1648
قيقه	-1649
▁202	-1650
▁ادت	-1651
▁حده	-1652
نائيه	-1653
▁السين	-1654
▁الشرقي	-1655
▁العلوم	-1656
هاد	-1657
ولا	-1658
▁(2	-1659
▁25	-1660
▁ارض	-1661
▁جهه	-1662
▁محت	-1663
▁هما	-1664
▁التد	-1665
▁الحم	-1666
▁المذ	-1667
▁امام	-1668
▁اربعه	-1669
▁اوزبك	-1670
▁القران	-1671
▁امريكي	-1672
▁افريقيا	-1673
درت	-1674
ميل	-1675
▁عه	-1676
▁يو	-1677
اتيه	-1678
عايه	-1679
▁اقي	-1680
▁دلا	-1681
▁مقر	-1682
▁نصف	-1683
▁القد	-1684
▁مكان	-1685
▁موسي	-1686
▁الخام	-1687
▁ارتفاع	-1688
▁التقلي	-1689
▁الغربي	-1690
▁المجلس	-1691
▁الاساسيه	-1692
خه	-1693
كيل	-1694
▁جي	-1695
ادره	-1696
▁تصل	-1697
▁يكن	-1698
▁2020	-1699
▁التخ	-1700
▁ثاني	-1701
▁النفط	-1702
▁قاعده	-1703
▁منتصف	-1704
▁انتشار	-1705
▁الاعلان	-1706
▁البرمجي	-1707
غه	-1708
فن	-1709
جير	-1710
يير	-1711
▁طلب	-1712
▁اثار	-1713
▁تسمي	-1714
▁تمثل	-1715
▁توفر	-1716
▁صوره	-1717
▁قيام	-1718
▁التاس	-1719
▁العهد	-1720
▁اهميه	-1721
▁معركه	-1722
▁العلاق	-1723
▁المجال	-1724
▁المغرب	-1725
▁الدينيه	-1726
▁الفرنسي	-1727
▁الالماني	-1728
4.	-1729
جل	-1730
ادر	-1731
▁رك	-1732
▁ترت	-1733
▁تنا	-1734
▁حدث	-1735
▁غال	-1736
▁يحت	-1737
▁اطلق	-1738
▁مطار	-1739
▁الثلا	-1740
▁اليون	-1741
▁توفير	-1742
▁عديده	-1743
▁مواقع	-1744
▁الكتاب	-1745
▁السوريه	-1746
▁التاريخيه	-1747
دو	-1748
ذت	-1749
ارف	-1750
قال	-1751
لاب	-1752
وسع	-1753
▁رض	-1754
يريه	-1755
▁تيم	-1756
▁جيش	-1757
▁روا	-1758
▁نائ	-1759
▁اكتش	-1760
▁تعمل	-1761
▁حاله	-1762
▁خصوص	-1763
▁اقليم	-1764
▁الترا	-1765
▁انواع	-1766
▁اليهود	-1767
▁اليورو	-1768
▁مهرجان	-1769
▁يلومتر	-1770
▁المركزيه	-1771
▁اوزبكستان	-1772
..	-1773
سر	-1774
غر	-1775
امي	-1776
ذكر	-1777
رجع	-1778
ريل	-1779
وبه	-1780
▁).	-1781
▁ون	-1782
▁ديه	-1783
▁رسم	-1784
▁عضو	-1785
▁احقا	-1786
▁التف	-1787
▁جديد	-1788
▁صالح	-1789
▁البعض	-1790
▁النهر	-1791
▁تركيا	-1792
▁جزيره	-1793
▁مؤسسه	-1794
▁الامام	-1795
▁الناتج	-1796
▁العثمانيه	-1797
اذ	-1798
سل	-1799
طاء	-1800
ولت	-1801
ائله	-1802
▁(19	-1803
▁رفض	-1804
▁قدر	-1805
ويورك	-1806
▁علاق	-1807
▁عيسي	-1808
▁يقول	-1809
▁الساد	-1810
▁الشيخ	-1811
▁المقد	-1812
▁التلفا	-1813
▁الصلاه	-1814
▁الاتصال	-1815
▁البلدان	-1816
▁الثقافه	-1817
▁السينما	-1818
▁المصريه	-1819
▁المسيحيه	-1820
▁الجمهوريه	-1821
▁الاجتماعيه	-1822
افظ	-1823
فاظ	-1824
مرت	-1825
ملت	-1826
▁رش	-1827
▁هج	-1828
باسي	-1829
سكري	-1830
ويله	-1831
▁البث	-1832
▁الحي	-1833
▁الست	-1834
▁قيمه	-1835
▁مسرح	-1836
▁منتج	-1837
▁يسمي	-1838
▁اصدار	-1839
▁الاحمر	-1840
▁الاوسط	-1841
▁المؤرخ	-1842
▁المؤسس	-1843
▁العمليه	-1844
▁نيويورك	-1845
▁الحكوميه	-1846
▁الحواسيب	-1847
▁الاستقلال	-1848
▁الاستونيه	-1849
▁البريطاني	-1850
طر	-1851
ظي	-1852
ريم	-1853
كمه	-1854
▁تؤ	-1855
▁جد	-1856
▁نص	-1857
▁يص	-1858
اوره	-1859
روفه	-1860
▁جائ	-1861
▁قاب	-1862
▁السك	-1863
▁انته	-1864
▁عراق	-1865
▁المشت	-1866
▁التاسع	-1867
▁العصور	-1868
▁رحباني	-1869
▁المجموع	-1870
▁المدرسه	-1871
▁الثقافيه	-1872
▁المستخدم	-1873
امر	-1874
▁زع	-1875
▁قل	-1876
▁توا	-1877
▁طرق	-1878
▁عين	-1879
▁مسي	-1880
▁مشت	-1881
▁نسب	-1882
▁الدي	-1883
▁جزءا	-1884
▁متحف	-1885
▁اجزاء	-1886
▁الاجن	-1887
▁البشر	-1888
▁المال	-1889
▁الموج	-1890
▁علماء	-1891
▁الطاقه	-1892
▁المصري	-1893
▁انتخاب	-1894
.5	-1895
حن	-1896
خب	-1897
فق	-1898
طيط	-1899
وسف	-1900
▁دخ	-1901
مالك	-1902
▁امل	-1903
▁تعت	-1904
▁ران	-1905
▁طنه	-1906
▁ماء	-1907
▁متر	-1908
▁مقت	-1909
▁نيه	-1910
▁تشير	-1911
▁غيتس	-1912
▁يمثل	-1913
▁اعلان	-1914
▁اغنيه	-1915
▁الاخو	-1916
▁البرل	-1917
▁العمر	-1918
▁تحتوي	-1919
▁تحقيق	-1920
▁الاكبر	-1921
▁الموقع	-1922
▁الاعضاء	-1923
▁الثالثه	-1924
▁العباسي	-1925
▁العشرين	-1926
▁القاهره	-1927
ذب	-1928
داف	-1929
سيم	-1930
طار	-1931
فاق	-1932
▁22	-1933
ارنه	-1934
جهزه	-1935
خصصه	-1936
رفيه	-1937
▁جنه	-1938
▁ظهر	-1939
▁منح	-1940
▁2008	-1941
▁افتت	-1942
▁الكل	-1943
▁اهتم	-1944
▁نويا	-1945
▁اتحاد	-1946
▁الخمس	-1947
▁تاسست	-1948
▁حمايه	-1949
▁غيرها	-1950
▁الجديد	-1951
▁الانجلي	-1952
▁الفنلندي	-1953
شه	-1954
جيل	-1955
ذاك	-1956
مسه	-1957
وفر	-1958
▁با	-1959
▁رؤ	-1960
▁حال	-1961
▁صوت	-1962
▁طان	-1963
▁البط	-1964
▁تولي	-1965
▁محفو	-1966
▁متوسط	-1967
▁متعدده	-1968
▁البحريه	-1969
▁الرسميه	-1970
▁الزراعه	-1971
▁المسيحي	-1972
▁الباكستانيه	-1973
حل	-1974
سن	-1975
شت	-1976
بيع	-1977
طلح	-1978
عاب	-1979
▁حز	-1980
▁لد	-1981
▁يغ	-1982
ديمق	-1983
▁ائل	-1984
▁ريط	-1985
▁جامع	-1986
▁جهاز	-1987
▁دجله	-1988
▁الحره	-1989
▁الحيو	-1990
▁العلا	-1991
▁النبي	-1992
▁غالبا	-1993
▁مراكز	-1994
▁الديمق	-1995
▁الاجهزه	-1996
▁الاطفال	-1997
▁السياحه	-1998
وش	-1999
دير	-2000
زيز	-2001
▁رع	-2002
اريع	-2003
مهور	-2004
▁ترا	-2005
▁خمس	-2006
▁دار	-2007
▁رغم	-2008
▁شهر	-2009
▁2010	-2010
▁الاذ	-2011
▁السي	-2012
▁تعني	-2013
▁شارع	-2014
▁مؤسس	-2015
▁ملاي	-2016
▁نادي	-2017
▁اراضي	-2018
▁الالك	-2019
▁حاسوب	-2020
▁عاليه	-2021
▁استمرت	-2022
▁التجاري	-2023
▁التنفيذ	-2024
▁الكبيره	-2025
▁الاجمالي	-2026
اجد	-2027
ادت	-2028
جاه	-2029
جنه	-2030
روج	-2031
كره	-2032
ورد	-2033
يان	-2034
▁23	-2035
▁40	-2036
▁اثر	-2037
▁رفع	-2038
▁مات	-2039
▁مار	-2040
▁هدف	-2041
▁يلي	-2042
▁حريه	-2043
▁حساب	-2044
▁البحث	-2045
▁جائزه	-2046
▁الحالي	-2047
▁الحركه	-2048
▁الالكتر	-2049
▁الحراره	-2050
▁المستوي	-2051
▁الهندسه	-2052
ائع	-2053
تاء	-2054
تهر	-2055
ربي	-2056
ريا	-2057
سام	-2058
ندي	-2059
نيف	-2060
▁طب	-2061
▁مم	-2062
▁ول	-2063
اهده	-2064
راتي	-2065
يطره	-2066
▁اضا	-2067
▁تشر	-2068
▁حزب	-2069
▁مقد	-2070
▁يرت	-2071
▁النح	-2072
▁حياه	-2073
▁ابريل	-2074
▁اطلاق	-2075
▁اللات	-2076
▁معينه	-2077
▁الاستخ	-2078
▁الخوار	-2079
▁الكبير	-2080
▁الخليفه	-2081
▁السيطره	-2082
اتف	-2083
خفض	-2084
قسم	-2085
▁جو	-2086
▁ذا	-2087
واعد	-2088
▁دان	-2089
▁ضلا	-2090
رنامج	-2091
▁استث	-2092
▁اسعه	-2093
▁الشه	-2094
▁شارك	-2095
▁نطاق	-2096
▁نقطه	-2097
▁الحال	-2098
▁الفرس	-2099
▁المها	-2100
▁النقل	-2101
▁انتقل	-2102
▁الساحل	-2103
▁الافلام	-2104
▁الروسيه	-2105
▁المائيه	-2106
▁المسلحه	-2107
▁البرنامج	-2108
ائن	-2109
خصص	-2110
روض	-2111
قاء	-2112
متع	-2113
▁فن	-2114
تيار	-2115
لافه	-2116
لفاء	-2117
نوعه	-2118
وافق	-2119
▁يله	-2120
▁2012	-2121
▁استط	-2122
▁اسمه	-2123
▁الزي	-2124
▁المف	-2125
▁زايد	-2126
▁عرفت	-2127
▁يوسف	-2128
▁السنو	-2129
▁السود	-2130
▁القوه	-2131
▁تاثير	-2132
▁توزيع	-2133
▁خصوصا	-2134
▁الثامن	-2135
▁السادس	-2136
▁مباشره	-2137
▁محاوله	-2138
▁اتفاقيه	-2139
بح	-2140
بو	-2141
ارض	-2142
انت	-2143
باء	-2144
وتر	-2145
وطن	-2146
▁هر	-2147
▁اكس	-2148
▁انج	-2149
▁النش	-2150
▁جبال	-2151
▁ظهور	-2152
▁معني	-2153
▁مناخ	-2154
▁يعيش	-2155
▁افلام	-2156
▁الشعر	-2157
▁المعم	-2158
▁تغيير	-2159
▁صحيفه	-2160
▁الرابع	-2161
▁الفلسط	-2162
▁اللجنه	-2163
▁العماره	-2164
حا	-2165
قب	-2166
ضوع	-2167
قبل	-2168
واب	-2169
ئاسه	-2170
راجع	-2171
▁تدم	-2172
▁راء	-2173
▁صنع	-2174
▁معا	-2175
▁معت	-2176
▁معه	-2177
▁ميت	-2178
▁نمو	-2179
▁الدر	-2180
▁دخلت	-2181
▁مسقط	-2182
▁نظرا	-2183
▁يزال	-2184
▁اسماء	-2185
▁الزمن	-2186
▁الغزو	-2187
▁القوي	-2188
▁المرك	-2189
▁انذاك	-2190
▁تحديد	-2191
▁رسميا	-2192
▁محفوظ	-2193
▁الحديد	-2194
▁الحساب	-2195
▁الفنيه	-2196
▁الماضي	-2197
▁المحيط	-2198
▁المدني	-2199
▁مستقله	-2200
▁التنميه	-2201
▁الماليه	-2202
▁الطبيعيه	-2203
شد	-2204
قيم	-2205
ودي	-2206
▁طح	-2207
▁هؤ	-2208
الجه	-2209
ريبه	-2210
ناصر	-2211
وارع	-2212
▁يمن	-2213
▁2015	-2214
▁انضم	-2215
▁تعود	-2216
▁طوله	-2217
▁منها	-2218
▁يجعل	-2219
▁المكت	-2220
▁تشكيل	-2221
▁قبائل	-2222
▁مدرسه	-2223
▁هؤلاء	-2224
▁الشعوب	-2225
▁الوصول	-2226
▁الاقليم	-2227
▁الانظمه	-2228
▁الحيوان	-2229
▁الشخصيه	-2230
▁المصادر	-2231
▁المجاوره	-2232
نك	-2233
اكل	-2234
ثيل	-2235
قته	-2236
وبي	-2237
ونس	-2238
▁عر	-2239
▁مذ	-2240
امله	-2241
خدمه	-2242
▁افه	-2243
▁تبع	-2244
▁رعه	-2245
▁ريد	-2246
▁محل	-2247
▁مرق	-2248
▁يصب	-2249
▁2011	-2250
▁2014	-2251
▁الكه	-2252
▁تزال	-2253
▁ذكرت	-2254
▁ياسه	-2255
▁يشير	-2256
▁يقرب	-2257
▁الاند	-2258
▁الشعب	-2259
▁احتلال	-2260
▁الثوره	-2261
▁الكامل	-2262
▁عسكريه	-2263
▁مستخدم	-2264
فد	-2265
مم	-2266
اتل	-2267
جاج	-2268
جهه	-2269
جيب	-2270
زمي	-2271
صره	-2272
طيع	-2273
علق	-2274
▁50	-2275
▁بث	-2276
▁ثي	-2277
▁طن	-2278
اربه	-2279
▁احل	-2280
▁تتك	-2281
▁راي	-2282
▁زير	-2283
▁شان	-2284
▁مال	-2285
▁يكي	-2286
ضائيه	-2287
وافقه	-2288
▁اصول	-2289
▁الده	-2290
▁الفي	-2291
▁خمسه	-2292
▁مثلا	-2293
▁محطه	-2294
▁مكتب	-2295
▁يورو	-2296
▁السوق	-2297
▁يتحدث	-2298
▁الخدمه	-2299
▁الشيعه	-2300
▁الصحيه	-2301
▁استقلال	-2302
▁الاعداد	-2303
▁المعروف	-2304
رر	-2305
زت	-2306
غي	-2307
خيص	-2308
رته	-2309
ريح	-2310
زام	-2311
فاف	-2312
▁80	-2313
▁حص	-2314
▁قن	-2315
احيه	-2316
▁غزو	-2317
▁يري	-2318
▁اتخذ	-2319
▁تحوي	-2320
▁دورا	-2321
▁عامه	-2322
▁اجراء	-2323
▁اسلام	-2324
▁الاما	-2325
▁الدعم	-2326
▁السبع	-2327
▁النها	-2328
▁تعديل	-2329
▁تيمور	-2330
▁صغيره	-2331
▁الاخير	-2332
▁العليا	-2333
▁المنظم	-2334
▁الاثريه	-2335
▁البشريه	-2336
▁التطبيق	-2337
▁الدستور	-2338
▁السياسه	-2339
▁العسكري	-2340
▁الموارد	-2341
▁البرلمان	-2342
بعه	-2343
هار	-2344
▁طي	-2345
▁مف	-2346
وفيت	-2347
▁حجم	-2348
▁درج	-2349
▁ريه	-2350
▁غات	-2351
▁قرا	-2352
▁2000	-2353
▁رجال	-2354
▁قرار	-2355
▁نجيب	-2356
▁البدا	-2357
▁الجزء	-2358
▁الفيل	-2359
▁الموس	-2360
▁النقد	-2361
▁النمو	-2362
▁شعبيه	-2363
▁طويله	-2364
▁مدريد	-2365
▁مسؤول	-2366
▁اجمالي	-2367
▁الجغرا	-2368
▁الحصول	-2369
▁الطريق	-2370
▁الموصل	-2371
▁الاهليه	-2372
▁التلفاز	-2373
▁الرومان	-2374
▁التقليديه	-2375
ئت	-2376
ائف	-2377
اسم	-2378
روه	-2379
روي	-2380
كند	-2381
واد	-2382
▁26	-2383
اعيه	-2384
سحاب	-2385
ليله	-2386
▁حلف	-2387
▁زمن	-2388
▁محم	-2389
▁موظ	-2390
▁التم	-2391
▁الجه	-2392
▁الخص	-2393
▁الغذ	-2394
▁النج	-2395
▁ريال	-2396
▁عاصي	-2397
▁احداث	-2398
▁اعتبر	-2399
▁البار	-2400
▁الصحي	-2401
▁تعليم	-2402
▁مرقند	-2403
▁الاقلي	-2404
▁الاموي	-2405
▁الجويه	-2406
▁الكويت	-2407
▁المناخ	-2408
▁مستشفي	-2409
▁اعتبارا	-2410
▁الافغان	-2411
▁الحاليه	-2412
▁العمانيه	-2413
▁الفرنسيه	-2414
صد	-2415
ائه	-2416
احف	-2417
اعي	-2418
الد	-2419
بطه	-2420
بوع	-2421
فعه	-2422
▁24	-2423
▁ظل	-2424
ديدا	-2425
ماعه	-2426
مانه	-2427
▁تحس	-2428
▁ترج	-2429
▁طائ	-2430
▁محط	-2431
راطيه	-2432
▁2001	-2433
▁اسره	-2434
▁اسطه	-2435
▁العد	-2436
▁المي	-2437
▁عددا	-2438
▁عشره	-2439
▁مهمه	-2440
▁يسمح	-2441
▁اجتما	-2442
▁الانش	-2443
▁الجمع	-2444
▁تلفزي	-2445
▁تمتلك	-2446
▁الاربع	-2447
▁الرسمي	-2448
▁الشخصي	-2449
▁المخابر	-2450
▁المواطن	-2451
▁ريطانيا	-2452
▁المجموعه	-2453
▁المستشفي	-2454
▁الموجوده	-2455
▁الانجليزيه	-2456
قق	-2457
لو	-2458
مز	-2459
تمر	-2460
خاص	-2461
عبه	-2462
ورت	-2463
وعه	-2464
▁27	-2465
▁طه	-2466
راوح	-2467
علقه	-2468
واحي	-2469
▁شري	-2470
▁منع	-2471
▁التب	-2472
▁الهي	-2473
▁تحدث	-2474
▁تحمل	-2475
▁مسلم	-2476
▁يرجع	-2477
▁العدد	-2478
▁المعت	-2479
▁قواعد	-2480
▁الثمان	-2481
▁الشتاء	-2482
▁المسجد	-2483
▁النساء	-2484
▁الواقع	-2485
▁الالعاب	-2486
▁الاجنبيه	-2487
▁اليهوديه	-2488
-19	-2489
اتب	-2490
اسب	-2491
اعه	-2492
روت	-2493
روط	-2494
صله	-2495
فار	-2496
يفه	-2497
▁31	-2498
▁مغ	-2499
اكره	-2500
قاطع	-2501
لفيه	-2502
ميزه	-2503
وليه	-2504
▁اعب	-2505
▁صفه	-2506
▁ضرب	-2507
▁عاش	-2508
▁مكه	-2509
▁ينه	-2510
▁2013	-2511
▁احتل	-2512
▁التك	-2513
▁الشب	-2514
▁المث	-2515
▁المم	-2516
▁تدري	-2517
▁حصول	-2518
▁اصدرت	-2519
▁اقامه	-2520
▁الاقل	-2521
▁الصلي	-2522
▁القرب	-2523
▁تصميم	-2524
▁تماما	-2525
▁خليفه	-2526
▁رئاسه	-2527
▁عنوان	-2528
▁مجتمع	-2529
▁التراث	-2530
▁السوري	-2531
▁العمال	-2532
▁المعاص	-2533
▁المنتج	-2534
▁عالميا	-2535
▁التابعه	-2536
▁السوفيت	-2537
▁الصغيره	-2538
▁الطبيعي	-2539
▁المهاجر	-2540
▁المعروفه	-2541
▁الخوارزمي	-2542
2.	-2543
او	-2544
ثا	-2545
رع	-2546
كد	-2547
▁:	-2548
اهر	-2549
تان	-2550
سيا	-2551
شري	-2552
عود	-2553
فاء	-2554
قام	-2555
لاك	-2556
وند	-2557
▁21	-2558
▁جذ	-2559
▁ذو	-2560
▁احه	-2561
▁تال	-2562
▁ترب	-2563
▁جدت	-2564
▁دين	-2565
▁زرا	-2566
▁صول	-2567
▁قرر	-2568
▁قصر	-2569
▁قوط	-2570
▁هجم	-2571
باراه	-2572
▁2007	-2573
▁ابقا	-2574
▁ارسل	-2575
▁الرك	-2576
▁انفس	-2577
▁تميز	-2578
▁ثيرا	-2579
▁دوره	-2580
▁صدام	-2581
▁عامي	-2582
▁منصب	-2583
▁يؤدي	-2584
▁يصبح	-2585
▁اتجاه	-2586
▁اتفاق	-2587
▁اشكال	-2588
▁الباب	-2589
▁الحرف	-2590
▁تقرير	-2591
▁دائره	-2592
▁عباره	-2593
▁مركزا	-2594
▁البلطي	-2595
▁المواد	-2596
▁النحاس	-2597
▁امريكا	-2598
▁الخلافه	-2599
▁العلماء	-2600
▁المرحله	-2601
▁الصناعيه	-2602
▁السوفيتيه	-2603
▁اللاتينيه	-2604
حد	-2605
طط	-2606
طلب	-2607
عمل	-2608
ورغ	-2609
▁دء	-2610
راءه	-2611
▁احق	-2612
▁اشا	-2613
▁اعد	-2614
▁تعي	-2615
▁تكل	-2616
▁تور	-2617
▁جور	-2618
▁رقه	-2619
▁شيء	-2620
▁مدي	-2621
▁مكت	-2622
قاطعه	-2623
▁2009	-2624
▁احيا	-2625
▁اطار	-2626
▁القص	-2627
▁اللي	-2628
▁الوث	-2629
▁انتش	-2630
▁تدير	-2631
▁قاده	-2632
▁البال	-2633
▁البرت	-2634
▁الحقي	-2635
▁الدين	-2636
▁الشري	-2637
▁الغاز	-2638
▁تتميز	-2639
▁تعرضت	-2640
▁تعريف	-2641
▁تفجير	-2642
▁ثقافه	-2643
▁مرحله	-2644
▁اختيار	-2645
▁استطاع	-2646
▁الجهاد	-2647
▁الكائن	-2648
▁النواه	-2649
▁استخدمت	-2650
▁استعمال	-2651
▁الانتاج	-2652
▁الجمهور	-2653
▁الشعبيه	-2654
▁الرحباني	-2655
ذج	-2656
ائج	-2657
اور	-2658
بيل	-2659
مره	-2660
واج	-2661
▁جر	-2662
▁حج	-2663
▁صن	-2664
▁صي	-2665
▁وي	-2666
ابله	-2667
حيان	-2668
▁حضر	-2669
▁عصر	-2670
▁عنه	-2671
▁مرا	-2672
▁ميه	-2673
▁هند	-2674
فتوحه	-2675
▁الهج	-2676
▁امير	-2677
▁تصبح	-2678
▁دخول	-2679
▁رلين	-2680
▁غايه	-2681
▁يذكر	-2682
▁يزيد	-2683
▁يطره	-2684
▁يطلق	-2685
▁يقدم	-2686
▁الاخت	-2687
▁الاعت	-2688
▁التسع	-2689
▁الوطن	-2690
▁اماره	-2691
▁تدريب	-2692
▁رسميه	-2693
▁مئويه	-2694
▁الاثار	-2695
▁البيزن	-2696
▁السابع	-2697
▁الصناع	-2698
▁الغالب	-2699
▁الهجره	-2700
▁تجاريه	-2701
▁الاحيان	-2702
▁الاداره	-2703
▁الاساسي	-2704
▁الجبليه	-2705
▁السابقه	-2706
▁السلطنه	-2707
▁الصحراء	-2708
▁المسؤول	-2709
▁الانتخاب	-2710
▁الميلادي	-2711
▁الرومانيه	-2712
ئا	-2713
قر	-2714
نق	-2715
ثاق	-2716
درس	-2717
نان	-2718
يدا	-2719
▁(3	-2720
▁29	-2721
▁عث	-2722
▁نب	-2723
جاوز	-2724
داول	-2725
فاعل	-2726
قلاب	-2727
▁ادو	-2728
▁امي	-2729
▁تام	-2730
▁توح	-2731
▁جان	-2732
▁خان	-2733
▁قيه	-2734
▁مان	-2735
▁مين	-2736
بلوما	-2737
▁1990	-2738
▁2006	-2739
▁اداء	-2740
▁الطب	-2741
▁اولي	-2742
▁حمله	-2743
▁ربما	-2744
▁مساح	-2745
▁نجاح	-2746
▁يعني	-2747
▁احتيا	-2748
▁الشكل	-2749
▁الواق	-2750
▁رئيسي	-2751
▁المصدر	-2752
▁مساعده	-2753
▁الاسواق	-2754
▁الدراسه	-2755
▁الشمالي	-2756
▁المساجد	-2757
▁السويديه	-2758
طا	-2759
بهه	-2760
راز	-2761
زمه	-2762
طول	-2763
قاب	-2764
هدف	-2765
▁2.	-2766
▁28	-2767
▁شؤ	-2768
▁غض	-2769
▁كي	-2770
▁ند	-2771
▁نك	-2772
بريه	-2773
طلسي	-2774
فاوض	-2775
لبيه	-2776
▁اجن	-2777
▁اخذ	-2778
▁ريق	-2779
▁صور	-2780
▁نيت	-2781
بيوتر	-2782
▁اشار	-2783
▁اقام	-2784
▁الاض	-2785
▁الها	-2786
▁انشا	-2787
▁تحول	-2788
▁تظهر	-2789
▁تغير	-2790
▁ثيره	-2791
▁رمجي	-2792
▁مراق	-2793
▁اتصال	-2794
▁اصلاح	-2795
▁التكن	-2796
▁التوا	-2797
▁الغاب	-2798
▁الكيم	-2799
▁الممت	-2800
▁النظر	-2801
▁تسجيل	-2802
▁طبيعه	-2803
▁مصادر	-2804
▁الاصلي	-2805
▁البنيه	-2806
▁الثلاث	-2807
▁الجبال	-2808
▁الرافد	-2809
▁السيار	-2810
▁الصراع	-2811
▁العمله	-2812
▁القرار	-2813
▁الوحيد	-2814
▁الارقام	-2815
▁الاطلسي	-2816
▁الاغريق	-2817
▁الالمان	-2818
▁الاراميه	-2819
▁المتعلقه	-2820
تش	-2821
اند	-2822
عهد	-2823
ميد	-2824
وام	-2825
يدر	-2826
▁ثل	-2827
▁جع	-2828
▁مض	-2829
دنيه	-2830
طلقت	-2831
▁ارا	-2832
▁حمل	-2833
▁خلف	-2834
▁داخ	-2835
▁ربط	-2836
▁يتك	-2837
▁يمت	-2838
▁القت	-2839
▁تغطي	-2840
▁زالت	-2841
▁مسجد	-2842
▁2010،	-2843
▁اعتمد	-2844
▁الصيد	-2845
▁الصيف	-2846
▁العرض	-2847
▁القسم	-2848
▁قابوس	-2849
▁قرابه	-2850
▁الجانب	-2851
▁الدواء	-2852
▁المنطق	-2853
▁انتشرت	-2854
▁الاوامر	-2855
▁البدايه	-2856
▁المجاهد	-2857
▁الاقليميه	-2858
60	-2859
لل	-2860
ابت	-2861
خرا	-2862
صاء	-2863
فاض	-2864
قاد	-2865
لبه	-2866
ناف	-2867
▁خص	-2868
▁شك	-2869
▁ضل	-2870
▁نع	-2871
▁نم	-2872
حتيه	-2873
حيده	-2874
راطي	-2875
نيسه	-2876
يليه	-2877
▁اين	-2878
▁تعا	-2879
▁حسن	-2880
▁قعت	-2881
▁مقا	-2882
▁يرف	-2883
انويه	-2884
▁1999	-2885
▁التغ	-2886
▁الرج	-2887
▁السه	-2888
▁حصلت	-2889
▁مصدر	-2890
▁نوات	-2891
▁يقدر	-2892
▁2009،	-2893
▁2011،	-2894
▁استبد	-2895
▁الادب	-2896
▁الاله	-2897
▁الدور	-2898
▁الروا	-2899
▁تحالف	-2900
▁تدمير	-2901
▁تعتمد	-2902
▁تعداد	-2903
▁مؤخرا	-2904
▁معلوم	-2905
▁اكتشاف	-2906
▁الالاف	-2907
▁البناء	-2908
▁الخامس	-2909
▁الدوري	-2910
▁الشباب	-2911
▁العالي	-2912
▁الفيني	-2913
▁المراه	-2914
▁المكتب	-2915
▁النشاط	-2916
▁مشاركه	-2917
▁البلطيق	-2918
▁التحالف	-2919
▁الحضاره	-2920
▁الصناعه	-2921
▁العلميه	-2922
▁الاتحاديه	-2923
▁الاجتماعي	-2924
▁امبراطوريه	-2925
▁الالكترونيه	-2926
ضح	-2927
غط	-2928
ئيا	-2929
ائد	-2930
باع	-2931
حوا	-2932
خال	-2933
خمه	-2934
سكر	-2935
لوب	-2936
نيا	-2937
▁خس	-2938
تداء	-2939
رائب	-2940
▁500	-2941
▁ارك	-2942
▁تجن	-2943
▁خرج	-2944
▁صاح	-2945
▁ضعه	-2946
▁ندن	-2947
▁نظر	-2948
▁ياس	-2949
▁التر	-2950
▁الحب	-2951
▁حدوث	-2952
▁رسوم	-2953
▁صلاح	-2954
▁موجب	-2955
▁استحو	-2956
▁افراد	-2957
▁الابت	-2958
▁الاير	-2959
▁الصحه	-2960
▁تقسيم	-2961
▁عائله	-2962
▁علاقه	-2963
▁مصطلح	-2964
▁معالج	-2965
▁الاستث	-2966
▁الاعلي	-2967
▁الشعبي	-2968
▁الكهرب	-2969
▁الاجانب	-2970
▁الاخبار	-2971
▁الاشترا	-2972
▁المباني	-2973
▁المعرفه	-2974
▁يلومترا	-2975
▁المستخدمه	-2976
جت	-2977
حاث	-2978
سير	-2979
طاج	-2980
كام	-2981
كذا	-2982
ماك	-2983
▁1,	-2984
▁60	-2985
▁70	-2986
▁حب	-2987
▁هن	-2988
اكمه	-2989
اليف	-2990
بيله	-2991
ضايا	-2992
▁ايج	-2993
▁رجل	-2994
▁رقم	-2995
▁صدر	-2996
▁يقت	-2997
▁2003	-2998
▁اشته	-2999
▁اعيد	-3000
▁الوي	-3001
▁تضمن	-3002
▁تونس	-3003
▁جمال	-3004
▁خطوط	-3005
▁شهره	-3006
▁عديد	-3007
▁عربي	-3008
▁مقتل	-3009
▁نشاط	-3010
▁يطرت	-3011
▁2020،	-3012
▁اساسي	-3013
▁الانس	-3014
▁الكلي	-3015
▁توحيد	-3016
▁ناحيه	-3017
▁نهائي	-3018
▁البيئه	-3019
▁الطبيه	-3020
▁معاهده	-3021
▁استراتي	-3022
▁استمرار	-3023
▁الاخوان	-3024
▁الاشوري	-3025
▁الامطار	-3026
▁الاندلس	-3027
▁التحتيه	-3028
▁التعبير	-3029
▁الرعايه	-3030
▁العامله	-3031
▁المراكز	-3032
▁المشروع	-3033
▁المواقع	-3034
▁الرياضيات	-3035
▁تكنولوجيا	-3036
اض	-3037
ادا	-3038
تها	-3039
جيا	-3040
راح	-3041
ضيع	-3042
طان	-3043
كور	-3044
ماه	-3045
ملو	-3046
نائ	-3047
هلك	-3048
▁حن	-3049
▁هل	-3050
ديان	-3051
ربعه	-3052
لاله	-3053
ميري	-3054
نائي	-3055
ينات	-3056
▁جون	-3057
▁شبك	-3058
▁غنت	-3059
▁قيد	-3060
▁ميز	-3061
مارسه	-3062
▁1998	-3063
▁الثل	-3064
▁اليد	-3065
▁تعلي	-3066
▁ثوره	-3067
▁جوده	-3068
▁دوري	-3069
▁شراء	-3070
▁عمرو	-3071
▁قلعه	-3072
▁مجله	-3073
▁هكذا	-3074
▁2003،	-3075
▁اعقاب	-3076
▁الامه	-3077
▁الاوز	-3078
▁السفر	-3079
▁العاب	-3080
▁الفعل	-3081
▁تحويل	-3082
▁تسميه	-3083
▁تصنيف	-3084
▁تعزيز	-3085
▁تنتشر	-3086
▁راديو	-3087
▁محدده	-3088
▁ياسيه	-3089
▁البرتغ	-3090
▁البريه	-3091
▁البصره	-3092
▁المهام	-3093
▁انتهاء	-3094
▁متنوعه	-3095
▁استحوذت	-3096
▁التخطيط	-3097
▁الكنيسه	-3098
▁الملكيه	-3099
▁المنظمه	-3100
▁الوحيده	-3101
▁الاستوني	-3102
▁الروماني	-3103
▁الساحليه	-3104
80	-3105
جع	-3106
هن	-3107
يق	-3108
500	-3109
اعم	-3110
بدو	-3111
بره	-3112
ضاع	-3113
ضيف	-3114
وعا	-3115
▁جم	-3116
▁ده	-3117
▁صب	-3118
▁قف	-3119
ائده	-3120
▁امه	-3121
▁تتم	-3122
▁حفل	-3123
▁زوج	-3124
▁شعب	-3125
▁صار	-3126
▁صلت	-3127
▁صله	-3128
▁ضعت	-3129
▁طور	-3130
▁عمو	-3131
▁قلب	-3132
يائيه	-3133
▁2004	-3134
▁2017	-3135
▁التا	-3136
▁النز	-3137
▁الوج	-3138
▁انما	-3139
▁توفي	-3140
▁دفاع	-3141
▁مارك	-3142
▁الجام	-3143
▁الحزب	-3144
▁الكتب	-3145
▁انتهت	-3146
▁تمويل	-3147
▁حديقه	-3148
▁رئيسا	-3149
▁مدارس	-3150
▁موارد	-3151
▁يحتوي	-3152
▁القائد	-3153
▁النصوص	-3154
▁قندهار	-3155
▁المؤسسه	-3156
▁الزراعيه	-3157
▁الاستقرار	-3158
40	-3159
70	-3160
حم	-3161
غب	-3162
طلع	-3163
موز	-3164
ونت	-3165
يوش	-3166
اريا	-3167
طراب	-3168
فهوم	-3169
ميله	-3170
▁اته	-3171
▁خطط	-3172
▁خطه	-3173
▁عثر	-3174
▁قله	-3175
▁2005	-3176
▁ابنه	-3177
▁البخ	-3178
▁البد	-3179
▁السف	-3180
▁العن	-3181
▁الفع	-3182
▁اليس	-3183
▁امله	-3184
▁تاتي	-3185
▁تقدر	-3186
▁تموز	-3187
▁تنتج	-3188
▁جهود	-3189
▁حيره	-3190
▁طاقه	-3191
▁علوم	-3192
▁قائد	-3193
▁معرض	-3194
▁مناف	-3195
▁نيسه	-3196
▁يمتد	-3197
كندريه	-3198
▁ارسال	-3199
▁الادو	-3200
▁الحجر	-3201
▁الحري	-3202
▁الحفل	-3203
▁الراي	-3204
▁ترخيص	-3205
▁يقارب	-3206
▁اشتهرت	-3207
▁البالغ	-3208
▁الحفاظ	-3209
▁الطلاب	-3210
▁العامل	-3211
▁الفنان	-3212
▁المتحف	-3213
▁النبات	-3214
▁اليمني	-3215
▁عالميه	-3216
▁التاليه	-3217
▁التصميم	-3218
▁التعريف	-3219
▁التنظيم	-3220
▁الرياضه	-3221
▁الفلسفه	-3222
▁المحتوي	-3223
▁المحكمه	-3224
▁الممالك	-3225
▁تاريخيا	-3226
▁المستقله	-3227
▁المسرحيه	-3228
▁المشاركه	-3229
▁المعماري	-3230
▁القانونيه	-3231
19	-3232
30	-3233
45	-3234
بب	-3235
جز	-3236
فذ	-3237
انئ	-3238
خصه	-3239
روا	-3240
سته	-3241
شيد	-3242
لاط	-3243
موت	-3244
وفه	-3245
يطه	-3246
▁دو	-3247
▁سن	-3248
▁صد	-3249
▁فق	-3250
▁قع	-3251
وائر	-3252
وقيه	-3253
▁اير	-3254
▁جبر	-3255
▁حفظ	-3256
▁طرد	-3257
▁قضي	-3258
▁مجد	-3259
▁منش	-3260
▁ميد	-3261
راهيم	-3262
ينيات	-3263
▁اختل	-3264
▁الحل	-3265
▁الذه	-3266
▁تمتد	-3267
▁توسي	-3268
▁توقي	-3269
▁زعيم	-3270
▁قالت	-3271
▁قدره	-3272
▁2014،	-3273
▁اخبار	-3274
▁البعث	-3275
▁الجوي	-3276
▁الدائ	-3277
▁الروس	-3278
▁الطائ	-3279
▁تابعه	-3280
▁تحرير	-3281
▁تقدير	-3282
▁تنميه	-3283
▁رياضي	-3284
▁عموما	-3285
▁قليله	-3286
▁الحضار	-3287
▁الدراس	-3288
▁الشرطه	-3289
▁العقبه	-3290
▁الغذاء	-3291
▁رئيسيه	-3292
▁معالجه	-3293
▁التركيه	-3294
▁السودان	-3295
▁الشهيره	-3296
▁المحافظ	-3297
▁اليمنيه	-3298
▁الاداريه	-3299
▁السياحيه	-3300
▁المسلمين	-3301
▁المشتركه	-3302
تا	-3303
جئ	-3304
سع	-3305
▁0	-3306
داه	-3307
دني	-3308
زاب	-3309
شرق	-3310
ضبه	-3311
ظمي	-3312
عار	-3313
كير	-3314
وزع	-3315
ويض	-3316
ياس	-3317
▁جا	-3318
▁جب	-3319
▁رت	-3320
▁صع	-3321
▁ضم	-3322
ابيه	-3323
رقيه	-3324
رنها	-3325
كومي	-3326
وائف	-3327
وسطه	-3328
▁جري	-3329
▁داع	-3330
▁صرح	-3331
▁قطع	-3332
▁متن	-3333
▁مضي	-3334
▁نور	-3335
▁يضم	-3336
هابيه	-3337
▁ابول	-3338
▁النه	-3339
▁تتبع	-3340
▁حدثت	-3341
▁صلاه	-3342
▁ظفار	-3343
▁عمله	-3344
▁ملوك	-3345
▁يظهر	-3346
▁يقال	-3347
رنهايت	-3348
▁2006،	-3349
▁احياء	-3350
▁اسماع	-3351
▁اطفال	-3352
▁اطلقت	-3353
▁الاصل	-3354
▁البنك	-3355
▁الدخل	-3356
▁الروم	-3357
▁السفن	-3358
▁السما	-3359
▁الشمس	-3360
▁القدس	-3361
▁القنو	-3362
▁الكلا	-3363
▁المحم	-3364
▁تراجع	-3365
▁زياره	-3366
▁قديمه	-3367
▁مشاكل	-3368
▁مواطن	-3369
▁نسبيا	-3370
▁يتالف	-3371
▁يعتمد	-3372
▁يمتلك	-3373
▁يونكس	-3374
▁الاسره	-3375
▁التشري	-3376
▁التوسع	-3377
▁الحجري	-3378
▁الحروب	-3379
▁الدوحه	-3380
▁القيمه	-3381
▁المهمه	-3382
▁مقارنه	-3383
▁استثناء	-3384
▁الاحداث	-3385
▁الداخلي	-3386
▁الشريعه	-3387
▁الطبيعه	-3388
▁المركزي	-3389
▁المنازل	-3390
▁هرنهايت	-3391
▁الافغاني	-3392
▁الثانويه	-3393
▁المشاريع	-3394
▁المهرجان	-3395
▁الديمقراطي	-3396
▁الديمقراطيه	-3397
24	-3398
شب	-3399
طع	-3400
كب	-3401
وء	-3402
احث	-3403
بان	-3404
برت	-3405
ريش	-3406
ريك	-3407
ضمت	-3408
عام	-3409
فره	-3410
فيا	-3411
قاع	-3412
نيع	-3413
▁3.	-3414
▁90	-3415
▁حث	-3416
▁خي	-3417
باره	-3418
خفاض	-3419
رافق	-3420
مبيه	-3421
▁انا	-3422
▁تاث	-3423
▁توج	-3424
▁توس	-3425
▁ثره	-3426
▁حجر	-3427
▁رصه	-3428
▁رفي	-3429
▁روع	-3430
▁عود	-3431
▁مول	-3432
▁ميك	-3433
▁نصر	-3434
▁هزي	-3435
▁1991	-3436
▁1996	-3437
▁2002	-3438
▁السح	-3439
▁الفص	-3440
▁الكر	-3441
▁تسمح	-3442
▁عامل	-3443
▁قريه	-3444
▁مبني	-3445
▁مدير	-3446
▁مريم	-3447
▁مواط	-3448
▁2007،	-3449
▁ادخال	-3450
▁ازداد	-3451
▁استضا	-3452
▁الاسر	-3453
▁الانا	-3454
▁الاهم	-3455
▁الطلب	-3456
▁المدر	-3457
▁الملف	-3458
▁الهدف	-3459
▁الياب	-3460
▁انضمت	-3461
▁اهداف	-3462
▁توسيع	-3463
▁شمالا	-3464
▁قرطاج	-3465
▁محتوي	-3466
▁ازدهار	-3467
▁الباحث	-3468
▁الرحمن	-3469
▁السويد	-3470
▁المغول	-3471
▁المكان	-3472
▁حزيران	-3473
▁حضرموت	-3474
▁مسرحيه	-3475
▁مشاريع	-3476
▁الادويه	-3477
▁الاصليه	-3478
▁الانهار	-3479
▁التطوير	-3480
▁الجنوبي	-3481
▁الذاكره	-3482
▁الرابعه	-3483
▁العبريه	-3484
▁العناصر	-3485
▁الكلاسي	-3486
▁المحيطه	-3487
▁الاحتلال	-3488
▁العباسيه	-3489
▁الفارسيه	-3490
▁الاستخدام	-3491
ذر	-3492
ذي	-3493
ائص	-3494
ابق	-3495
اعر	-3496
افي	-3497
اول	-3498
بيب	-3499
طال	-3500
عاء	-3501
كله	-3502
مرد	-3503
ندس	-3504
واط	-3505
واع	-3506
وجل	-3507
▁0.	-3508
▁حف	-3509
▁ور	-3510
سترا	-3511
هاده	-3512
وافل	-3513
▁امك	-3514
▁تتح	-3515
▁ثال	-3516
▁حره	-3517
▁خري	-3518
▁طبق	-3519
▁طرف	-3520
▁قرب	-3521
▁نزل	-3522
▁يتع	-3523
▁اجهه	-3524
▁اريس	-3525
▁الجي	-3526
▁الخض	-3527
▁العر	-3528
▁النص	-3529
▁تجري	-3530
▁تجمع	-3531
▁تحدي	-3532
▁تنوع	-3533
▁توسع	-3534
▁جوجل	-3535
▁جورج	-3536
▁حاول	-3537
▁خالد	-3538
▁شروط	-3539
▁طلاب	-3540
▁عضوا	-3541
▁علام	-3542
▁قليل	-3543
▁مؤشر	-3544
▁موطن	-3545
▁هجره	-3546
▁ياتي	-3547
▁يتبع	-3548
▁يحدث	-3549
▁يفيه	-3550
▁اخيرا	-3551
▁اسباب	-3552
▁اسعار	-3553
▁اشاره	-3554
▁اطراف	-3555
▁البشت	-3556
▁السوم	-3557
▁العقل	-3558
▁الفتح	-3559
▁المبا	-3560
▁تتضمن	-3561
▁تتمتع	-3562
▁تجاره	-3563
▁تحولت	-3564
▁حديثه	-3565
▁شوارع	-3566
▁قبيله	-3567
▁محافظ	-3568
▁محمود	-3569
▁ممالك	-3570
▁منصور	-3571
▁اختلاف	-3572
▁الحقوق	-3573
▁الرجال	-3574
▁العلمي	-3575
▁الغناء	-3576
▁الكلمه	-3577
▁الهواء	-3578
▁تتراوح	-3579
▁رئيسيا	-3580
▁مراقبه	-3581
▁ممارسه	-3582
▁ابراهيم	-3583
▁الاصلاح	-3584
▁الباديه	-3585
▁التوزيع	-3586
▁الحميري	-3587
▁المتاحف	-3588
▁المقابل	-3589
▁الناحيه	-3590
▁التنفيذي	-3591
▁المستوطن	-3592
▁الاميركيه	-3593
▁الفلسطيني	-3594
▁الكيميائيه	-3595
11	-3596
33	-3597
95	-3598
اغ	-3599
جب	-3600
فس	-3601
لح	-3602
▁,	-3603
بيت	-3604
داء	-3605
رجم	-3606
رهه	-3607
صبه	-3608
كري	-3609
لسل	-3610
ليف	-3611
مام	-3612
منه	-3613
يته	-3614
▁(6	-3615
▁رز	-3616
▁ست	-3617
▁شل	-3618
اجيك	-3619
ارضه	-3620
تيال	-3621
رخيص	-3622
ليني	-3623
وعيه	-3624
يلاء	-3625
▁186	-3626
▁اشن	-3627
▁تما	-3628
▁دمج	-3629
▁ذهب	-3630
▁شده	-3631
▁ظلت	-3632
▁عقب	-3633
▁متط	-3634
▁مرك	-3635
▁معل	-3636
▁نقص	-3637
▁يئه	-3638
▁ينب	-3639
واهري	-3640
▁اخذت	-3641
▁ازدي	-3642
▁استه	-3643
▁اصدر	-3644
▁افقت	-3645
▁البت	-3646
▁الجم	-3647
▁العض	-3648
▁الكم	-3649
▁النو	-3650
▁الور	-3651
▁تؤدي	-3652
▁تحتل	-3653
▁تدخل	-3654
▁تدعي	-3655
▁ثافه	-3656
▁حكمه	-3657
▁رؤيه	-3658
▁شعار	-3659
▁صاحب	-3660
▁عالي	-3661
▁مجمع	-3662
▁مدرب	-3663
▁نسخه	-3664
▁هجوم	-3665
▁هوله	-3666
▁يؤمن	-3667
▁يشار	-3668
ولوجيه	-3669
▁2010.	-3670
▁2016،	-3671
▁ابطال	-3672
▁ابناء	-3673
▁اقسام	-3674
▁الاسي	-3675
▁الفلك	-3676
▁القاد	-3677
▁المئه	-3678
▁النار	-3679
▁الهجم	-3680
▁الويب	-3681
▁انتهي	-3682
▁انخفض	-3683
▁تختلف	-3684
▁تخطيط	-3685
▁ترتيب	-3686
▁تقنيه	-3687
▁تكريت	-3688
▁تكلفه	-3689
▁ثانيه	-3690
▁جماعه	-3691
▁دستور	-3692
▁موضوع	-3693
▁يتعلق	-3694
▁ابتداء	-3695
▁استولي	-3696
▁افتتاح	-3697
▁الاسود	-3698
▁البشري	-3699
▁الجبهه	-3700
▁الحاضر	-3701
▁القومي	-3702
▁انتقلت	-3703
▁دولارا	-3704
▁مقاطعه	-3705
▁اسماعيل	-3706
▁الاشخاص	-3707
▁الانشطه	-3708
▁الترخيص	-3709
▁الثقافي	-3710
▁الخامسه	-3711
▁الصحافه	-3712
▁الضرائب	-3713
▁العلاقه	-3714
▁القطريه	-3715
▁المسائل	-3716
▁المنصور	-3717
▁تدريجيا	-3718
▁الانتقال	-3719
▁الاستثمار	-3720
▁السوفياتي	-3721
▁التكنولوجيا	-3722
16	-3723
ئل	-3724
حق	-3725
شا	-3726
شف	-3727
ادئ	-3728
ازل	-3729
ماج	-3730
▁حظ	-3731
▁زه	-3732
▁سد	-3733
▁فر	-3734
▁لن	-3735
▁لو	-3736
ائعه	-3737
اتها	-3738
ادله	-3739
اصيل	-3740
وفيه	-3741
▁300	-3742
▁اسط	-3743
▁ايط	-3744
▁تبر	-3745
▁تقي	-3746
▁دام	-3747
▁دعا	-3748
▁زار	-3749
▁شيد	-3750
▁عدا	-3751
▁قيل	-3752
▁منف	-3753
▁ندا	-3754
▁هول	-3755
▁ينص	-3756
▁1920	-3757
▁احدا	-3758
▁اغني	-3759
▁الخي	-3760
▁الرم	-3761
▁السج	-3762
▁الكث	-3763
▁تبقي	-3764
▁توقف	-3765
▁ثيقه	-3766
▁دعوي	-3767
▁زراء	-3768
▁شملت	-3769
▁ضمان	-3770
▁ظيفه	-3771
▁عادت	-3772
▁غالب	-3773
▁غيره	-3774
▁قدرت	-3775
▁نفوذ	-3776
▁ياسي	-3777
▁يهود	-3778
▁يوفر	-3779
▁2004،	-3780
▁2015،	-3781
▁اتباع	-3782
▁اذاعه	-3783
▁اغراض	-3784
▁اغلاق	-3785
▁الاشت	-3786
▁الجها	-3787
▁السبب	-3788
▁العقد	-3789
▁الفني	-3790
▁الكاث	-3791
▁المثل	-3792
▁المسا	-3793
▁المشه	-3794
▁المقر	-3795
▁النيل	-3796
▁الوضع	-3797
▁دوليه	-3798
▁زراعه	-3799
▁شخصيه	-3800
▁عليها	-3801
▁مثابه	-3802
▁مفهوم	-3803
▁يتميز	-3804
▁اضافيه	-3805
▁الاوزب	-3806
▁الحاجه	-3807
▁السبئي	-3808
▁القدره	-3809
▁المذهب	-3810
▁الهندي	-3811
▁الوحده	-3812
▁رياضيه	-3813
▁مباراه	-3814
▁محدوده	-3815
▁موجوده	-3816
▁الاغاني	-3817
▁البطوله	-3818
▁الجنسيه	-3819
▁الحضريه	-3820
▁الخلفاء	-3821
▁العاليه	-3822
▁المدنيه	-3823
▁المرتفع	-3824
▁تاريخيه	-3825
▁الاشوريه	-3826
▁البيزنطي	-3827
▁الجغرافي	-3828
▁الظواهري	-3829
▁القانوني	-3830
▁الاستخبار	-3831
▁الكمبيوتر	-3832
▁اليونانيه	-3833
14	-3834
25	-3835
86	-3836
شح	-3837
يس	-3838
ادث	-3839
اطئ	-3840
تين	-3841
داب	-3842
زال	-3843
ستر	-3844
سكو	-3845
سمه	-3846
كنت	-3847
لنك	-3848
ناق	-3849
واص	-3850
وته	-3851
وتي	-3852
▁طر	-3853
▁غر	-3854
ابته	-3855
ابيع	-3856
ارته	-3857
ارير	-3858
البه	-3859
الحه	-3860
حواذ	-3861
رالي	-3862
زايد	-3863
غراف	-3864
وامل	-3865
وطنه	-3866
▁400	-3867
▁ارق	-3868
▁تخص	-3869
▁ثلث	-3870
▁جلب	-3871
▁جنب	-3872
▁حصه	-3873
▁درس	-3874
▁رائ	-3875
▁رحل	-3876
▁عال	-3877
▁قاح	-3878
▁مرو	-3879
▁مهم	-3880
▁نون	-3881
▁هجه	-3882
▁هرب	-3883
لاحقه	-3884
▁1970	-3885
▁اذار	-3886
▁اقصي	-3887
▁الجد	-3888
▁الدم	-3889
▁السر	-3890
▁الصي	-3891
▁الهو	-3892
▁انسح	-3893
▁رسول	-3894
▁شرقا	-3895
▁عقود	-3896
▁علاج	-3897
▁عوده	-3898
▁مترا	-3899
▁مدار	-3900
▁مرور	-3901
▁مقرا	-3902
▁يبدو	-3903
▁يشمل	-3904
▁يمان	-3905
▁2018،	-3906
▁ابرهه	-3907
▁احصاء	-3908
▁اساسا	-3909
▁اسواق	-3910
▁الارت	-3911
▁الارث	-3912
▁الالت	-3913
▁البير	-3914
▁التام	-3915
▁السكك	-3916
▁المحا	-3917
▁المحد	-3918
▁المحط	-3919
▁المخت	-3920
▁المطل	-3921
▁امتدت	-3922
▁انجاز	-3923
▁قراءه	-3924
▁مسيحي	-3925
▁هزيمه	-3926
▁الاستع	-3927
▁البروت	-3928
▁التطور	-3929
▁الجماع	-3930
▁الحجاز	-3931
▁الرشيد	-3932
▁الرياح	-3933
▁انقلاب	-3934
بلوماسيه	-3935
▁الاتفاق	-3936
▁الاسماك	-3937
▁الالفيه	-3938
▁التاثير	-3939
▁الثلاثه	-3940
▁القائمه	-3941
▁المتوقع	-3942
▁المساحه	-3943
▁المعادل	-3944
▁المقاطع	-3945
▁الواقعه	-3946
▁امكانيه	-3947
▁الانسحاب	-3948
▁التاريخي	-3949
▁التقليدي	-3950
▁الموافقه	-3951
▁الاشتراكي	-3952
▁الباكستاني	-3953
▁الفلسطينيه	-3954
10	-3955
ظف	-3956
يع	-3957
200	-3958
اجر	-3959
ارل	-3960
بيد	-3961
رحي	-3962
سبه	-3963
كنه	-3964
واح	-3965
وطه	-3966
▁65	-3967
▁75	-3968
▁بع	-3969
▁ذه	-3970
امنه	-3971
بورغ	-3972
ديما	-3973
صريه	-3974
نديه	-3975
▁190	-3976
▁اظه	-3977
▁انط	-3978
▁اوب	-3979
▁حلت	-3980
▁صيا	-3981
▁صيد	-3982
▁قاع	-3983
▁قنو	-3984
▁ناد	-3985
▁نشا	-3986
بيقيه	-3987
قاليم	-3988
▁اشور	-3989
▁اعتم	-3990
▁الرب	-3991
▁الشؤ	-3992
▁المض	-3993
▁تبدا	-3994
▁حاجه	-3995
▁شعوب	-3996
▁شكلت	-3997
▁صغير	-3998
▁ماده	-3999
▁معهد	-4000
▁ملحو	-4001
▁يجمع	-4002
▁يدعي	-4003
▁2012،	-4004
▁احتلت	-4005
▁اشنطن	-4006
▁الجزر	-4007
▁الرقص	-4008
▁الفرد	-4009
▁المند	-4010
▁المنش	-4011
▁الهيد	-4012
▁انتشر	-4013
▁انشئت	-4014
▁توجيه	-4015
▁حضاره	-4016
▁دائما	-4017
▁رساله	-4018
▁قديما	-4019
▁قصيره	-4020
▁محكمه	-4021
▁مسافه	-4022
▁مسعود	-4023
▁مكتبه	-4024
▁يتمتع	-4025
▁ارتباط	-4026
▁ازدياد	-4027
▁البحار	-4028
▁الحادي	-4029
▁الرياض	-4030
▁الساعه	-4031
▁الشبكه	-4032
▁العقود	-4033
▁المسيح	-4034
▁المطار	-4035
▁الهجوم	-4036
▁انخفاض	-4037
▁انهيار	-4038
▁غالبيه	-4039
▁يستطيع	-4040
▁يستعمل	-4041
▁احتياطي	-4042
▁استضافت	-4043
▁استقبال	-4044
▁الاربعه	-4045
▁الاصدار	-4046
▁الاغنيه	-4047
▁التحليل	-4048
▁الحكومي	-4049
▁الحلفاء	-4050
▁السريعه	-4051
▁السنويه	-4052
▁الشوارع	-4053
▁العمران	-4054
▁الفيديو	-4055
▁المؤتمر	-4056
▁المصطلح	-4057
▁الهنديه	-4058
▁ايطاليا	-4059
▁الاجتماع	-4060
▁الاحتفال	-4061
▁الاقليمي	-4062
▁الحديديه	-4063
▁المستقبل	-4064
▁تيمورلنك	-4065
75	-4066
85	-4067
92	-4068
ذه	-4069
طت	-4070
مج	-4071
ئله	-4072
ابس	-4073
باق	-4074
شاب	-4075
فور	-4076
فيض	-4077
وعي	-4078
ويق	-4079
▁33	-4080
▁خر	-4081
▁ذي	-4082
▁عش	-4083
▁قح	-4084
▁كر	-4085
▁وء	-4086
رويج	-4087
سيطر	-4088
وفره	-4089
▁انع	-4090
▁حار	-4091
▁حري	-4092
▁خطا	-4093
▁خلق	-4094
▁ربع	-4095
▁صلي	-4096
▁ضعف	-4097
▁طار	-4098
▁قيت	-4099
▁قيم	-4100
▁ملف	-4101
▁مها	-4102
▁نسخ	-4103
▁نظم	-4104
▁هام	-4105
▁يتي	-4106
▁1994	-4107
▁1995	-4108
▁ازمه	-4109
▁اقرب	-4110
▁الخب	-4111
▁الطي	-4112
▁العش	-4113
▁الكا	-4114
▁تاثر	-4115
▁تجاه	-4116
▁تدعم	-4117
▁تركز	-4118
▁تصدر	-4119
▁تقام	-4120
▁تلقي	-4121
▁حافظ	-4122
▁حققت	-4123
▁خليج	-4124
▁داعش	-4125
▁رشيد	-4126
▁طائر	-4127
▁قاعه	-4128
▁قوان	-4129
▁قويه	-4130
▁منزل	-4131
▁مهام	-4132
▁نواه	-4133
▁نوعا	-4134
▁هاجر	-4135
▁يغطي	-4136
▁2005،	-4137
▁2007.	-4138
▁اختار	-4139
▁اسبوع	-4140
▁اسلوب	-4141
▁اشجار	-4142
▁افكار	-4143
▁الايط	-4144
▁الذكر	-4145
▁السكن	-4146
▁الصوت	-4147
▁القري	-4148
▁المتط	-4149
▁المرا	-4150
▁المقا	-4151
▁امانه	-4152
▁امثال	-4153
▁تنقسم	-4154
▁جنوبي	-4155
▁حيوان	-4156
▁عضويه	-4157
▁عناصر	-4158
▁غيرهم	-4159
▁مشترك	-4160
▁معرفه	-4161
▁معسكر	-4162
▁ميلاد	-4163
▁ميناء	-4164
▁البحري	-4165
▁التقدم	-4166
▁الجليد	-4167
▁الحريه	-4168
▁الحقبه	-4169
▁العظيم	-4170
▁القضاء	-4171
▁القطري	-4172
▁اللاجئ	-4173
▁المائه	-4174
▁الواحد	-4175
▁اهتمام	-4176
▁ثمانيه	-4177
▁مشتركه	-4178
▁موسيقي	-4179
▁اعتباره	-4180
▁الاسلحه	-4181
▁الاموال	-4182
▁الانباط	-4183
▁التدريب	-4184
▁الترفيه	-4185
▁التعامل	-4186
▁التفكير	-4187
▁التقنيه	-4188
▁الصليبي	-4189
▁القبليه	-4190
▁الكتابه	-4191
▁المشترك	-4192
▁المهندس	-4193
▁الانتداب	-4194
▁الكاثولي	-4195
▁الكهرباء	-4196
▁المتخصصه	-4197
▁الاولمبيه	-4198
▁التعليميه	-4199
.2	-4200
87	-4201
ؤه	-4202
بس	-4203
زع	-4204
الق	-4205
حده	-4206
ريض	-4207
ساء	-4208
سيق	-4209
قاق	-4210
مسا	-4211
ندا	-4212
▁35	-4213
▁تض	-4214
▁شو	-4215
▁هد	-4216
اديم	-4217
اسبه	-4218
اليب	-4219
جديه	-4220
رائي	-4221
راكه	-4222
قدمه	-4223
كسيه	-4224
لاحظ	-4225
وقعه	-4226
يديه	-4227
▁180	-4228
▁اثب	-4229
▁اصط	-4230
▁امم	-4231
▁تتع	-4232
▁جزر	-4233
▁حلب	-4234
▁حمو	-4235
▁ذوي	-4236
▁زاد	-4237
▁قطت	-4238
▁قمه	-4239
▁معد	-4240
▁نيا	-4241
ملوكه	-4242
وائيه	-4243
ولوجي	-4244
▁2016	-4245
▁ازده	-4246
▁استن	-4247
▁اعظم	-4248
▁الته	-4249
▁العا	-4250
▁المئ	-4251
▁النت	-4252
▁النم	-4253
▁اولا	-4254
▁تالي	-4255
▁جندي	-4256
▁حكام	-4257
▁دمرت	-4258
▁رسمي	-4259
▁رعيه	-4260
▁رمجه	-4261
▁زياد	-4262
▁طبقا	-4263
▁عروض	-4264
▁عنصر	-4265
▁مبلغ	-4266
▁مكاف	-4267
▁مهما	-4268
▁موظف	-4269
▁نشرت	-4270
▁نهاد	-4271
▁هرمز	-4272
غرافيا	-4273
▁2008،	-4274
▁اعلام	-4275
▁الاكس	-4276
▁الجاه	-4277
▁الخار	-4278
▁الغاء	-4279
▁الكتر	-4280
▁الميت	-4281
▁النوع	-4282
▁ايجاد	-4283
▁تعاني	-4284
▁تمثيل	-4285
▁حديثا	-4286
▁حراره	-4287
▁روايه	-4288
▁صياغه	-4289
▁ظاهره	-4290
▁محليه	-4291
▁منازل	-4292
▁موجود	-4293
▁نتائج	-4294
▁ينبغي	-4295
▁الارمن	-4296
▁الاسته	-4297
▁الامور	-4298
▁البلدي	-4299
▁التربه	-4300
▁الجهاز	-4301
▁الخطوط	-4302
▁الخلاف	-4303
▁الذكيه	-4304
▁السريع	-4305
▁السياح	-4306
▁العزيز	-4307
▁الفيلم	-4308
▁الماده	-4309
▁المتعد	-4310
▁المزيد	-4311
▁المقام	-4312
▁الناطق	-4313
▁النواب	-4314
▁انسحاب	-4315
▁ردستان	-4316
▁متابعه	-4317
▁مفتوحه	-4318
▁استقرار	-4319
▁الارثوذ	-4320
▁الانواع	-4321
▁التصوير	-4322
▁الحقيقي	-4323
▁الراديو	-4324
▁الزراعي	-4325
▁القضايا	-4326
▁المعاصر	-4327
▁النقديه	-4328
▁القضائيه	-4329
▁المعاصره	-4330
▁التطبيقيه	-4331
▁الجغرافيه	-4332
.6	-4333
12	-4334
83	-4335
84	-4336
99	-4337
نج	-4338
حدر	-4339
خلص	-4340
ذيه	-4341
ساد	-4342
ضان	-4343
علي	-4344
فاه	-4345
فضه	-4346
فيد	-4347
فيس	-4348
كما	-4349
لول	-4350
ماس	-4351
واي	-4352
يتي	-4353
▁شن	-4354
▁فه	-4355
▁يث	-4356
اكيد	-4357
رابل	-4358
غلال	-4359
وائز	-4360
▁150	-4361
▁ابت	-4362
▁ارل	-4363
▁ارن	-4364
▁اعه	-4365
▁افر	-4366
▁امن	-4367
▁روت	-4368
▁شرح	-4369
▁صفت	-4370
▁صيف	-4371
▁مرض	-4372
▁هار	-4373
▁هدم	-4374
▁هير	-4375
▁يتر	-4376
باريه	-4377
ماريه	-4378
▁2018	-4379
▁ادخل	-4380
▁اديه	-4381
▁استر	-4382
▁استش	-4383
▁اسرع	-4384
▁اصغر	-4385
▁افيه	-4386
▁الخز	-4387
▁الدع	-4388
▁السط	-4389
▁الصخ	-4390
▁القل	-4391
▁اليع	-4392
▁انتا	-4393
▁ايدي	-4394
▁ايمن	-4395
▁تعطي	-4396
▁تهدف	-4397
▁توجه	-4398
▁جدار	-4399
▁جعلت	-4400
▁حروب	-4401
▁صراع	-4402
▁مؤلف	-4403
▁مارب	-4404
▁مثال	-4405
▁ممثل	-4406
▁مواد	-4407
▁موقف	-4408
▁نظري	-4409
▁يؤكد	-4410
▁يجري	-4411
▁يحمل	-4412
▁يدخل	-4413
رائيلي	-4414
▁ابحاث	-4415
▁ادويه	-4416
▁اغاني	-4417
▁اكتشف	-4418
▁الالي	-4419
▁البوم	-4420
▁السلا	-4421
▁السير	-4422
▁المام	-4423
▁امراء	-4424
▁تشتهر	-4425
▁تصنيع	-4426
▁جمعيه	-4427
▁رعايه	-4428
▁صنعاء	-4429
▁قابله	-4430
▁مؤتمر	-4431
▁مجددا	-4432
▁مدنيه	-4433
▁مراحل	-4434
▁مرتفع	-4435
▁مشكله	-4436
▁معارك	-4437
▁اجتماع	-4438
▁اغلبيه	-4439
▁الاتفا	-4440
▁الازمه	-4441
▁الاعتم	-4442
▁التجري	-4443
▁التيار	-4444
▁الجدار	-4445
▁الحمله	-4446
▁الصحرا	-4447
▁الطيور	-4448
▁الظروف	-4449
▁الكميه	-4450
▁اللهجه	-4451
▁المحاف	-4452
▁المستع	-4453
▁النسخه	-4454
▁النطاق	-4455
▁الوجود	-4456
▁الوهاب	-4457
▁انتصار	-4458
▁ميلادي	-4459
▁يتجاوز	-4460
▁اسلاميه	-4461
▁الاهميه	-4462
▁الجامعي	-4463
▁الجبريه	-4464
▁الصناعي	-4465
▁الطوائف	-4466
▁الماضيه	-4467
▁المقدسه	-4468
▁الممتده	-4469
▁الموضوع	-4470
▁النهايه	-4471
▁الهواتف	-4472
▁الاسيويه	-4473
▁الاستيلاء	-4474
▁الانسانيه	-4475
▁الموسيقيه	-4476
▁استراتيجيه	-4477
▁الاسكندريه	-4478
.،	-4479
90	-4480
خم	-4481
عر	-4482
لد	-4483
نم	-4484
▁[	-4485
▁؛	-4486
اصل	-4487
ترب	-4488
زلج	-4489
صفح	-4490
قاف	-4491
لبك	-4492
مير	-4493
ناس	-4494
ياب	-4495
يوخ	-4496
▁تث	-4497
▁مظ	-4498
ايده	-4499
ايير	-4500
ريمه	-4501
ماذج	-4502
نائس	-4503
واجه	-4504
وادث	-4505
وادم	-4506
وسبه	-4507
وكول	-4508
▁(20	-4509
▁اسر	-4510
▁تتش	-4511
▁تخز	-4512
▁تدل	-4513
▁تده	-4514
▁تلا	-4515
▁تلق	-4516
▁جلت	-4517
▁حاج	-4518
▁حظر	-4519
▁خار	-4520
▁خرا	-4521
▁ديم	-4522
▁رضت	-4523
▁رون	-4524
▁ريث	-4525
▁زال	-4526
▁شرب	-4527
▁صحه	-4528
▁طرح	-4529
▁عبت	-4530
▁عدن	-4531
▁قرن	-4532
▁قصه	-4533
▁قيا	-4534
▁ماه	-4535
▁مسا	-4536
▁مشه	-4537
▁ممن	-4538
▁هات	-4539
▁يبر	-4540
▁يشت	-4541
▁يطر	-4542
▁يمر	-4543
▁يوت	-4544
رابلس	-4545
لنديه	-4546
ليموس	-4547
▁1980	-4548
▁1992	-4549
▁اختر	-4550
▁اراد	-4551
▁اطول	-4552
▁اعاد	-4553
▁اقوي	-4554
▁النخ	-4555
▁امان	-4556
▁اندل	-4557
▁تشجي	-4558
▁تلعب	-4559
▁ثالث	-4560
▁جاءت	-4561
▁جعفر	-4562
▁حديث	-4563
▁حضار	-4564
▁حكوم	-4565
▁خلاف	-4566
▁دفعت	-4567
▁دليل	-4568
▁شرقي	-4569
▁شيئا	-4570
▁طنيه	-4571
▁علبك	-4572
▁عهده	-4573
▁قتال	-4574
▁مؤرخ	-4575
▁مؤقت	-4576
▁مجرد	-4577
▁مدين	-4578
▁مقات	-4579
▁مكعب	-4580
▁مناص	-4581
▁ياره	-4582
▁يوما	-4583
اديميه	-4584
غرافيه	-4585
▁2001،	-4586
▁اجريت	-4587
▁اخراج	-4588
▁ارباح	-4589
▁ارتبط	-4590
▁الحان	-4591
▁الرائ	-4592
▁الصحف	-4593
▁الصفر	-4594
▁القول	-4595
▁الكره	-4596
▁المعد	-4597
▁النشر	-4598
▁النصف	-4599
▁الوظي	-4600
▁تتالف	-4601
▁تتوفر	-4602
▁ترجمه	-4603
▁تسويه	-4604
▁تغطيه	-4605
▁قائلا	-4606
▁متعدد	-4607
▁مكانه	-4608
▁ملحوظ	-4609
▁ميثاق	-4610
▁نيسان	-4611
▁ينهما	-4612
▁يوميا	-4613
▁ازدهرت	-4614
▁الابتد	-4615
▁التقني	-4616
▁الحصار	-4617
▁الخصوص	-4618
▁الذاتي	-4619
▁الذهبي	-4620
▁الرسوم	-4621
▁الروسي	-4622
▁السنوي	-4623
▁الصغير	-4624
▁العظمي	-4625
▁القائم	-4626
▁الكعبه	-4627
▁المعهد	-4628
▁المعيش	-4629
▁النمسا	-4630
▁الهاتف	-4631
▁انتقاد	-4632
▁انضمام	-4633
▁دوراني	-4634
▁طليموس	-4635
▁قضائيه	-4636
▁مواطني	-4637
▁استعاده	-4638
▁اقليميه	-4639
▁البابلي	-4640
▁البتراء	-4641
▁التصنيف	-4642
▁الطريقه	-4643
▁العضويه	-4644
▁القوميه	-4645
▁الكنائس	-4646
▁المباشر	-4647
▁المعالم	-4648
▁الموافق	-4649
▁اقتصاديه	-4650
▁الاعتماد	-4651
▁الانتشار	-4652
▁الحقيقيه	-4653
▁السكانيه	-4654
▁المعالجه	-4655
▁المعدنيه	-4656
▁الاستراتي	-4657
▁الايرانيه	-4658
▁الاسرائيلي	-4659
▁التلفزيونيه	-4660
,0	-4661
49	-4662
54	-4663
دس	-4664
رم	-4665
غا	-4666
قس	-4667
800	-4668
ائب	-4669
ابا	-4670
الك	-4671
تار	-4672
ديس	-4673
زيج	-4674
شيه	-4675
صاص	-4676
ظيف	-4677
عيم	-4678
فيف	-4679
كلم	-4680
وبا	-4681
وفا	-4682
▁63	-4683
▁خض	-4684
▁رط	-4685
▁عت	-4686
▁غا	-4687
▁غز	-4688
▁قم	-4689
ؤوله	-4690
انتو	-4691
اهيم	-4692
رائم	-4693
ربيع	-4694
رتيب	-4695
صائي	-4696
ندوق	-4697
هالي	-4698
▁ابد	-4699
▁اتس	-4700
▁اذن	-4701
▁تسه	-4702
▁تشت	-4703
▁تكو	-4704
▁تمن	-4705
▁جاه	-4706
▁حدد	-4707
▁حرف	-4708
▁حمد	-4709
▁حوض	-4710
▁دءا	-4711
▁شعر	-4712
▁شمل	-4713
▁طال	-4714
▁غاب	-4715
▁قطب	-4716
▁مبر	-4717
▁نفط	-4718
▁هزم	-4719
▁يات	-4720
▁يسم	-4721
ستانت	-4722
▁1945	-4723
▁1966	-4724
▁1967	-4725
▁1973	-4726
▁1975	-4727
▁1989	-4728
▁ارسط	-4729
▁استي	-4730
▁اعدت	-4731
▁اقلي	-4732
▁البا	-4733
▁السم	-4734
▁الفخ	-4735
▁اميه	-4736
▁تجنب	-4737
▁تقني	-4738
▁جذور	-4739
▁جماع	-4740
▁حفاظ	-4741
▁حمير	-4742
▁دولي	-4743
▁رانك	-4744
▁رعان	-4745
▁شخصي	-4746
▁صحار	-4747
▁صناع	-4748
▁عدما	-4749
▁عزام	-4750
▁عقدت	-4751
▁مبيع	-4752
▁محرك	-4753
▁نيوز	-4754
▁هاما	-4755
▁2006.	-4756
▁اشتهر	-4757
▁اعوام	-4758
▁اقيمت	-4759
▁الاحو	-4760
▁الاقت	-4761
▁البدو	-4762
▁الحجم	-4763
▁الحدث	-4764
▁الطرف	-4765
▁اللقب	-4766
▁المتب	-4767
▁المتع	-4768
▁المرج	-4769
▁المصد	-4770
▁الهاش	-4771
▁انتها	-4772
▁انهاء	-4773
▁تحديث	-4774
▁تربيه	-4775
▁تشجيع	-4776
▁تقليد	-4777
▁تميزت	-4778
▁تناول	-4779
▁توقيع	-4780
▁حياته	-4781
▁شاركت	-4782
▁شهاده	-4783
▁عاصمت	-4784
▁قاموا	-4785
▁مباني	-4786
▁معالم	-4787
▁معروف	-4788
▁مكاتب	-4789
▁نهيان	-4790
▁الاساس	-4791
▁الاكسج	-4792
▁البديه	-4793
▁التمرد	-4794
▁الجنسي	-4795
▁الديني	-4796
▁الرقمي	-4797
▁الزمان	-4798
▁الستين	-4799
▁الشاعر	-4800
▁الصفوي	-4801
▁العثور	-4802
▁الفتوح	-4803
▁الفساد	-4804
▁القتال	-4805
▁القيام	-4806
▁الكوفه	-4807
▁المعدل	-4808
▁المعني	-4809
▁الملكي	-4810
▁المناه	-4811
▁المنزل	-4812
▁خارجيه	-4813
▁مسيحيه	-4814
▁مماثله	-4815
▁الاجزاء	-4816
▁الاحزاب	-4817
▁الافراد	-4818
▁الامويه	-4819
▁الانجاز	-4820
▁الانفاق	-4821
▁التسميه	-4822
▁التعديل	-4823
▁التوالي	-4824
▁الجماعه	-4825
▁السكنيه	-4826
▁السياحي	-4827
▁الضواحي	-4828
▁القصيره	-4829
▁المعارض	-4830
▁المنتخب	-4831
▁المواصل	-4832
▁النظريه	-4833
▁النهائي	-4834
▁اليوميه	-4835
▁امريكيه	-4836
▁اهتماما	-4837
▁الغنائيه	-4838
▁المساعده	-4839
▁المفتوحه	-4840
▁الفينيقيه	-4841
▁الالكتروني	-4842
41	-4843
88	-4844
96	-4845
تو	-4846
سد	-4847
شل	-4848
صا	-4849
عو	-4850
قف	-4851
▁ؤ	-4852
▁ئ	-4853
اصر	-4854
اقط	-4855
اوز	-4856
باك	-4857
بلي	-4858
درا	-4859
رال	-4860
زيف	-4861
شرف	-4862
صيل	-4863
ظام	-4864
عيد	-4865
ميت	-4866
نعه	-4867
واز	-4868
▁32	-4869
▁عز	-4870
التي	-4871
اهمه	-4872
خفضه	-4873
ضائع	-4874
ضمام	-4875
طيله	-4876
كندر	-4877
لندي	-4878
هابي	-4879
واقف	-4880
وبيه	-4881
▁120	-4882
▁140	-4883
▁187	-4884
▁اثن	-4885
▁اجت	-4886
▁اسب	-4887
▁اغت	-4888
▁اكد	-4889
▁انق	-4890
▁تخل	-4891
▁تلت	-4892
▁جدل	-4893
▁ضمت	-4894
▁عكس	-4895
▁غني	-4896
▁قاء	-4897
▁قوي	-4898
▁مدر	-4899
▁مرس	-4900
▁ممر	-4901
▁منز	-4902
▁ناق	-4903
▁نجد	-4904
▁نين	-4905
ماليك	-4906
ماليه	-4907
مهوري	-4908
▁(200	-4909
▁ابدا	-4910
▁اداه	-4911
▁الجو	-4912
▁القا	-4913
▁اللذ	-4914
▁انهي	-4915
▁تبني	-4916
▁تتخذ	-4917
▁تدرس	-4918
▁تربط	-4919
▁تسعه	-4920
▁تعيش	-4921
▁تلفا	-4922
▁تيار	-4923
▁جنبا	-4924
▁جنيه	-4925
▁حسين	-4926
▁حصار	-4927
▁حقبه	-4928
▁حيدر	-4929
▁خاري	-4930
▁صفته	-4931
▁طابع	-4932
▁طارق	-4933
▁طويل	-4934
▁طيله	-4935
▁ظائف	-4936
▁قيود	-4937
▁مجان	-4938
▁مضيق	-4939
▁مطلع	-4940
▁منحت	-4941
▁موسم	-4942
▁نصيب	-4943
▁نفور	-4944
▁يدرس	-4945
▁يمكن	-4946
برانتو	-4947
▁1996،	-4948
▁2000،	-4949
▁2005.	-4950
▁ارسطو	-4951
▁اسلحه	-4952
▁اشخاص	-4953
▁اعطاء	-4954
▁اعمار	-4955
▁الايو	-4956
▁البول	-4957
▁البيت	-4958
▁الحلي	-4959
▁الذهب	-4960
▁الساس	-4961
▁السوا	-4962
▁السيد	-4963
▁الصرف	-4964
▁الضغط	-4965
▁الضفه	-4966
▁الطبق	-4967
▁القتل	-4968
▁القطع	-4969
▁الكلد	-4970
▁اليها	-4971
▁تالين	-4972
▁تطورت	-4973
▁تمكنت	-4974
▁تنتمي	-4975
▁توافق	-4976
▁جزئيا	-4977
▁حدائق	-4978
▁دينيه	-4979
▁طائره	-4980
▁عباده	-4981
▁مباشر	-4982
▁مساجد	-4983
▁مستقل	-4984
▁موظفي	-4985
وركسترا	-4986
▁اساسيه	-4987
▁اغتيال	-4988
▁الاداب	-4989
▁الادني	-4990
▁الاصول	-4991
▁البحوث	-4992
▁التخصص	-4993
▁التدخل	-4994
▁الجنود	-4995
▁الحكمه	-4996
▁الحكوم	-4997
▁الرموز	-4998
▁الشريف	-4999
▁العائل	-5000
▁القلاع	-5001
▁القلعه	-5002
▁القناه	-5003
▁الكريم	-5004
▁المخطط	-5005
▁المركب	-5006
▁المشرق	-5007
▁المطور	-5008
▁النادي	-5009
▁النزاع	-5010
▁امتداد	-5011
▁حكوميه	-5012
▁خراسان	-5013
▁طبيعيه	-5014
▁مرتفعه	-5015
▁مواجهه	-5016
▁الاحوال	-5017
▁الاشكال	-5018
▁البرمجه	-5019
▁البضائع	-5020
▁الترتيب	-5021
▁التقرير	-5022
▁الحقيقه	-5023
▁الحمراء	-5024
▁الرقميه	-5025
▁العديده	-5026
▁الفارسي	-5027
▁المعارك	-5028
▁الموانئ	-5029
▁النتائج	-5030
▁الوثائق	-5031
▁الولايه	-5032
▁انتشارا	-5033
▁اجتماعيه	-5034
▁الاضطراب	-5035
▁الاغلبيه	-5036
▁الانضمام	-5037
▁المحافظه	-5038
▁المحموله	-5039
▁المماليك	-5040
▁الهيدروج	-5041
▁اليوناني	-5042
▁التنفيذيه	-5043
▁السوفييتي	-5044
▁تلفزيونيه	-5045
.7	-5046
15	-5047
18	-5048
44	-5049
تس	-5050
خد	-5051
هل	-5052
وغ	-5053
ائط	-5054
افل	-5055
الا	-5056
الس	-5057
انع	-5058
بري	-5059
تهم	-5060
جاء	-5061
خاذ	-5062
ديق	-5063
ذره	-5064
رام	-5065
صاب	-5066
غبه	-5067
فسه	-5068
قاح	-5069
كوك	-5070
لائ	-5071
همت	-5072
وضي	-5073
▁37	-5074
▁76	-5075
▁ئه	-5076
▁ضي	-5077
▁طل	-5078
▁قس	-5079
الته	-5080
تمام	-5081
داخل	-5082
روره	-5083
ريقي	-5084
صيده	-5085
ظيمه	-5086
لاقه	-5087
مايه	-5088
واطئ	-5089
وانب	-5090
وزعه	-5091
وسيه	-5092
ويلا	-5093
▁ابا	-5094
▁اده	-5095
▁اضط	-5096
▁افغ	-5097
▁انس	-5098
▁اور	-5099
▁تاي	-5100
▁جسر	-5101
▁داي	-5102
▁ردي	-5103
▁روز	-5104
▁روك	-5105
▁شرط	-5106
▁ضغط	-5107
▁غاز	-5108
▁قري	-5109
▁مرف	-5110
▁مفت	-5111
▁مفر	-5112
▁نبي	-5113
▁نحن	-5114
▁نفق	-5115
▁نهم	-5116
▁هاج	-5117
▁يرب	-5118
▁يرج	-5119
ليديه	-5120
▁1000	-5121
▁1979	-5122
▁1988	-5123
▁1997	-5124
▁2021	-5125
▁3000	-5126
▁احدث	-5127
▁ادله	-5128
▁اردن	-5129
▁استد	-5130
▁اسما	-5131
▁الجر	-5132
▁الدخ	-5133
▁الصب	-5134
▁الصد	-5135
▁الفا	-5136
▁الوظ	-5137
▁الوف	-5138
▁تاسس	-5139
▁تدفع	-5140
▁تدفق	-5141
▁تراث	-5142
▁تسبب	-5143
▁تشهد	-5144
▁تقسم	-5145
▁تقول	-5146
▁جافا	-5147
▁جعله	-5148
▁جيوش	-5149
▁داود	-5150
▁ديمق	-5151
▁ذاته	-5152
▁رفعت	-5153
▁شباط	-5154
▁صفقه	-5155
▁ضخمه	-5156
▁عرضت	-5157
▁قاسم	-5158
▁قررت	-5159
▁قضاء	-5160
▁قطار	-5161
▁محيط	-5162
▁معين	-5163
▁مناق	-5164
▁مناه	-5165
▁نموا	-5166
▁نوبل	-5167
▁يحدد	-5168
▁يحصل	-5169
▁يحوي	-5170
▁يعرض	-5171
▁يقصد	-5172
▁يقود	-5173
▁يكون	-5174
▁ينوس	-5175
ستوريه	-5176
▁2013،	-5177
▁ابواب	-5178
▁اتخاذ	-5179
▁احكام	-5180
▁اختلف	-5181
▁اعتنق	-5182
▁اقترح	-5183
▁الانف	-5184
▁الاوب	-5185
▁التقا	-5186
▁الجنس	-5187
▁الحرم	-5188
▁الخطا	-5189
▁الربع	-5190
▁الروح	-5191
▁الشهر	-5192
▁العدل	-5193
▁القمر	-5194
▁المتن	-5195
▁المصل	-5196
▁المعق	-5197
▁المفت	-5198
▁الميد	-5199
▁الميز	-5200
▁الناش	-5201
▁النظم	-5202
▁النمط	-5203
▁الوسط	-5204
▁تتطلب	-5205
▁تتعلق	-5206
▁تجاري	-5207
▁تجاوز	-5208
▁تجميع	-5209
▁تحتاج	-5210
▁تفاعل	-5211
▁تقليل	-5212
▁تواجد	-5213
▁توسعت	-5214
▁جمهور	-5215
▁دوائر	-5216
▁رياضه	-5217
▁شديده	-5218
▁ضواحي	-5219
▁عثمان	-5220
▁قحطان	-5221
▁محدود	-5222
▁مشاهد	-5223
▁مصالح	-5224
▁مقدار	-5225
▁يساعد	-5226
▁يشارك	-5227
▁يشتهر	-5228
▁يمارس	-5229
▁ينتشر	-5230
▁ينقسم	-5231
▁احتفال	-5232
▁اسابيع	-5233
▁اعتمدت	-5234
▁اعماله	-5235
▁افتتحت	-5236
▁الاقصي	-5237
▁الايام	-5238
▁البحير	-5239
▁التابع	-5240
▁التنوع	-5241
▁الساحه	-5242
▁الصحفي	-5243
▁الطائر	-5244
▁العروض	-5245
▁العلام	-5246
▁العوده	-5247
▁الفضاء	-5248
▁القوان	-5249
▁اللقاح	-5250
▁المقدس	-5251
▁الملحن	-5252
▁الموظف	-5253
▁النجاح	-5254
▁انتقال	-5255
▁تستطيع	-5256
▁طرابلس	-5257
▁مرتبطه	-5258
▁معاويه	-5259
▁مقاتلي	-5260
▁مقاومه	-5261
▁مواضيع	-5262
▁موافقه	-5263
▁استغلال	-5264
▁الاتراك	-5265
▁الاديان	-5266
▁الارهاب	-5267
▁الاشاره	-5268
▁الاطلاق	-5269
▁الاعدام	-5270
▁الافكار	-5271
▁الاهوار	-5272
▁التغيير	-5273
▁التمويل	-5274
▁الثامنه	-5275
▁الجزائر	-5276
▁الجميله	-5277
▁الجوفيه	-5278
▁الحيويه	-5279
▁الخارجي	-5280
▁الخضراء	-5281
▁الخيريه	-5282
▁السائده	-5283
▁الطاجيك	-5284
▁العموني	-5285
▁المحتله	-5286
▁المشاكل	-5287
▁المعالج	-5288
▁المعركه	-5289
▁المهنيه	-5290
▁الميثاق	-5291
▁مستطيله	-5292
▁استرليني	-5293
▁الابجديه	-5294
▁الاذاعيه	-5295
▁الامبراط	-5296
▁المباراه	-5297
▁المتوسطه	-5298
▁المنافسه	-5299
▁الاتفاقيه	-5300
▁السريانيه	-5301
▁المعماريه	-5302
):	-5303
,3	-5304
,7	-5305
.8	-5306
76	-5307
82	-5308
98	-5309
تك	-5310
جح	-5311
جو	-5312
عف	-5313
هي	-5314
اثر	-5315
اهب	-5316
ببه	-5317
ذبه	-5318
ستي	-5319
سعه	-5320
شاف	-5321
صنه	-5322
ضول	-5323
ظبي	-5324
غال	-5325
لمه	-5326
مده	-5327
نوك	-5328
وات	-5329
يرت	-5330
يمز	-5331
ييد	-5332
▁(5	-5333
▁45	-5334
▁95	-5335
▁شف	-5336
▁صم	-5337
▁نخ	-5338
باعه	-5339
روضه	-5340
ضاعف	-5341
غداد	-5342
واهر	-5343
▁اتت	-5344
▁اتش	-5345
▁اصح	-5346
▁اضح	-5347
▁اعج	-5348
▁اقر	-5349
▁تلي	-5350
▁ثوم	-5351
▁حزم	-5352
▁حقق	-5353
▁خبر	-5354
▁خسر	-5355
▁خفض	-5356
▁دمر	-5357
▁ريف	-5358
▁شفت	-5359
▁شير	-5360
▁غضب	-5361
▁قوع	-5362
▁ماك	-5363
▁مرج	-5364
▁ملت	-5365
▁مهد	-5366
▁ناب	-5367
▁نده	-5368
▁نمط	-5369
▁يتو	-5370
▁يحي	-5371
▁يسا	-5372
▁يطه	-5373
انيين	-5374
راجعه	-5375
ستاني	-5376
غرافي	-5377
▁1918	-5378
▁اتفق	-5379
▁ادرك	-5380
▁استح	-5381
▁الحص	-5382
▁الخل	-5383
▁القم	-5384
▁الوق	-5385
▁امرا	-5386
▁تذكر	-5387
▁تشري	-5388
▁جايه	-5389
▁حديد	-5390
▁حروف	-5391
▁دعوه	-5392
▁دواء	-5393
▁رحله	-5394
▁ريتش	-5395
▁صباح	-5396
▁صدرت	-5397
▁ضفاف	-5398
▁طوال	-5399
▁ظروف	-5400
▁عائل	-5401
▁عمال	-5402
▁عيده	-5403
▁غادر	-5404
▁غربي	-5405
▁قتلت	-5406
▁قديم	-5407
▁قصير	-5408
▁مخطط	-5409
▁مسار	-5410
▁مستع	-5411
▁مستق	-5412
▁مشهد	-5413
▁منظم	-5414
▁نجحت	-5415
▁هنري	-5416
▁يجوز	-5417
▁يربط	-5418
▁يشغل	-5419
▁يقسم	-5420
▁يهدف	-5421
▁2001.	-5422
▁2003.	-5423
▁2009.	-5424
▁2017،	-5425
▁اقليه	-5426
▁الابد	-5427
▁الباق	-5428
▁البوك	-5429
▁التقي	-5430
▁الجما	-5431
▁الحضر	-5432
▁الحيه	-5433
▁الصله	-5434
▁الضرب	-5435
▁الطول	-5436
▁العنف	-5437
▁الفرق	-5438
▁الفضل	-5439
▁الفوز	-5440
▁القبه	-5441
▁الكلم	-5442
▁اللهج	-5443
▁المدم	-5444
▁المطب	-5445
▁الملح	-5446
▁المنز	-5447
▁المنس	-5448
▁تخصيص	-5449
▁ترتفع	-5450
▁تسليم	-5451
▁تسويق	-5452
▁تعترف	-5453
▁جبران	-5454
▁جديدا	-5455
▁جنوبا	-5456
▁جوزيف	-5457
▁دقيقه	-5458
▁رمجيه	-5459
▁زوجته	-5460
▁شيوعا	-5461
▁صندوق	-5462
▁عالمي	-5463
▁عسكري	-5464
▁علامه	-5465
▁علميه	-5466
▁متحدث	-5467
▁مختبر	-5468
▁ملكيه	-5469
▁يتطلب	-5470
▁يتكلم	-5471
▁اتفاقي	-5472
▁اجنبيه	-5473
▁اساليب	-5474
▁اقتراح	-5475
▁البقاء	-5476
▁الحاسب	-5477
▁الخصيب	-5478
▁الخطاب	-5479
▁الدرجه	-5480
▁الذهاب	-5481
▁الشركس	-5482
▁الفرات	-5483
▁القليل	-5484
▁اللجان	-5485
▁المخرج	-5486
▁المطاف	-5487
▁النقوش	-5488
▁النهضه	-5489
▁الهضبه	-5490
▁الهلال	-5491
▁الهويه	-5492
▁اندلعت	-5493
▁تتجاوز	-5494
▁تحديدا	-5495
▁ثنائيه	-5496
▁داخليه	-5497
▁مبادره	-5498
▁معروفه	-5499
▁يتراوح	-5500
▁استثمار	-5501
▁الاماره	-5502
▁الامثله	-5503
▁الامراض	-5504
▁الامنيه	-5505
▁الانبار	-5506
▁البارده	-5507
▁التركيز	-5508
▁التصويت	-5509
▁الحريري	-5510
▁الحوسبه	-5511
▁الدولار	-5512
▁الديانه	-5513
▁الشائعه	-5514
▁الشيوعي	-5515
▁العرقيه	-5516
▁القراءه	-5517
▁الكامله	-5518
▁المبكره	-5519
▁المسرحي	-5520
▁المشاهد	-5521
▁المعنيه	-5522
▁النوويه	-5523
▁الواسعه	-5524
▁اليونان	-5525
▁الازدهار	-5526
▁الاشتراك	-5527
▁الاناضول	-5528
▁الاهتمام	-5529
▁الثمانين	-5530
▁الحسابيه	-5531
▁الرافدين	-5532
▁المتعدده	-5533
▁المعارضه	-5534
▁المقارنه	-5535
▁المقاومه	-5536
▁الكلاسيكيه	-5537
17	-5538
39	-5539
ؤل	-5540
جن	-5541
صت	-5542
ضت	-5543
غو	-5544
وخ	-5545
ئمه	-5546
اءه	-5547
باس	-5548
تهي	-5549
دود	-5550
ساس	-5551
سوف	-5552
سيج	-5553
شير	-5554
عاد	-5555
عدا	-5556
فان	-5557
فوذ	-5558
نوع	-5559
واس	-5560
واض	-5561
ينن	-5562
▁41	-5563
▁تذ	-5564
▁زن	-5565
▁كك	-5566
ارات	-5567
بطيه	-5568
تمده	-5569
دامه	-5570
عمان	-5571
عومه	-5572
فيفه	-5573
كاله	-5574
مائه	-5575
ناول	-5576
وائي	-5577
وافذ	-5578
ياكل	-5579
▁ائح	-5580
▁ابق	-5581
▁ابه	-5582
▁تبث	-5583
▁تري	-5584
▁تقت	-5585
▁تكر	-5586
▁تيف	-5587
▁جام	-5588
▁جزي	-5589
▁جند	-5590
▁جير	-5591
▁حرا	-5592
▁حرك	-5593
▁خام	-5594
▁دبي	-5595
▁دير	-5596
▁ديل	-5597
▁روي	-5598
▁زين	-5599
▁صرف	-5600
▁صلا	-5601
▁صمم	-5602
▁صنف	-5603
▁طات	-5604
▁عزل	-5605
▁قصد	-5606
▁متز	-5607
▁متك	-5608
▁مصط	-5609
▁نات	-5610
▁ياخ	-5611
والتي	-5612
▁1968	-5613
▁1993	-5614
▁ابان	-5615
▁اتجه	-5616
▁اثرت	-5617
▁اسفر	-5618
▁الحن	-5619
▁الرئ	-5620
▁الفق	-5621
▁الفك	-5622
▁اللح	-5623
▁تبعد	-5624
▁تحدد	-5625
▁تخضع	-5626
▁ترجع	-5627
▁تسعي	-5628
▁تغلب	-5629
▁تمنح	-5630
▁جيده	-5631
▁حضور	-5632
▁حكمت	-5633
▁رخصه	-5634
▁رواي	-5635
▁شباب	-5636
▁شخصا	-5637
▁صحيح	-5638
▁صفحه	-5639
▁عرضه	-5640
▁قائم	-5641
▁قضيه	-5642
▁مركب	-5643
▁مزيد	-5644
▁مقام	-5645
▁نقلت	-5646
▁هامه	-5647
▁هيكل	-5648
▁يؤثر	-5649
▁يبدا	-5650
▁يبقي	-5651
▁يقام	-5652
▁ينظر	-5653
دراليه	-5654
▁2017.	-5655
▁2019،	-5656
▁اتخذت	-5657
▁احتفظ	-5658
▁اضرار	-5659
▁اعترف	-5660
▁الالف	-5661
▁الانب	-5662
▁التحق	-5663
▁الجسم	-5664
▁الخبر	-5665
▁الخشب	-5666
▁الريف	-5667
▁الزيت	-5668
▁السيخ	-5669
▁العرش	-5670
▁الفائ	-5671
▁الكرب	-5672
▁الكنع	-5673
▁الكون	-5674
▁الليل	-5675
▁المره	-5676
▁المرو	-5677
▁المفو	-5678
▁المهد	-5679
▁النيا	-5680
▁اموال	-5681
▁اندرو	-5682
▁انشطه	-5683
▁انهار	-5684
▁اوفيس	-5685
▁اولاد	-5686
▁ايلول	-5687
▁تايمز	-5688
▁تجربه	-5689
▁تداول	-5690
▁تصريف	-5691
▁تضمنت	-5692
▁تعامل	-5693
▁تعبير	-5694
▁تعليق	-5695
▁تقييم	-5696
▁خريطه	-5697
▁خصائص	-5698
▁ذاكره	-5699
▁رانكف	-5700
▁شرعيه	-5701
▁صحراء	-5702
▁ضريبه	-5703
▁طائفه	-5704
▁طيران	-5705
▁مبادئ	-5706
▁متاحف	-5707
▁متصفح	-5708
▁مفاوض	-5709
▁مقدمه	-5710
▁مناصب	-5711
▁منصبه	-5712
▁ميدان	-5713
▁نوعيه	-5714
▁يتولي	-5715
▁يحاول	-5716
▁يختلف	-5717
▁يرتبط	-5718
▁يعادل	-5719
▁ابوظبي	-5720
▁اختبار	-5721
▁استوطن	-5722
▁اعتماد	-5723
▁البوند	-5724
▁التزلج	-5725
▁التعلي	-5726
▁الثروه	-5727
▁الجيوش	-5728
▁الحاله	-5729
▁الحرير	-5730
▁الدخول	-5731
▁الربيع	-5732
▁السلاح	-5733
▁الشهير	-5734
▁الشيعي	-5735
▁الشيوخ	-5736
▁الطبقه	-5737
▁العلاج	-5738
▁الفخار	-5739
▁القديس	-5740
▁المؤمن	-5741
▁المائي	-5742
▁المجمع	-5743
▁المعلم	-5744
▁المقرر	-5745
▁المقيم	-5746
▁النفوذ	-5747
▁الهيئه	-5748
▁تاريخه	-5749
▁تستعمل	-5750
▁شماليه	-5751
▁متخصصه	-5752
▁متميزه	-5753
▁متوفره	-5754
▁محاربه	-5755
▁مركزيه	-5756
▁مستمره	-5757
▁مقابله	-5758
▁اسبانيا	-5759
▁الاجنبي	-5760
▁الاحتيا	-5761
▁الاخشاب	-5762
▁الاشياء	-5763
▁الامانه	-5764
▁الاوائل	-5765
▁الاوليه	-5766
▁التحرير	-5767
▁التسجيل	-5768
▁التهديد	-5769
▁التواصل	-5770
▁الدقيقه	-5771
▁السواحل	-5772
▁السويدي	-5773
▁الشعراء	-5774
▁الصيفيه	-5775
▁العائله	-5776
▁الفرعيه	-5777
▁القوافل	-5778
▁القياده	-5779
▁اللازمه	-5780
▁المؤقته	-5781
▁المساعد	-5782
▁المعاهد	-5783
▁المغترب	-5784
▁الوظائف	-5785
▁اليابان	-5786
▁رلمانيه	-5787
▁ريتشارد	-5788
▁ميزانيه	-5789
▁الاسكندر	-5790
▁البابليه	-5791
▁السوفييت	-5792
▁الفينيقي	-5793
▁المستهلك	-5794
▁الهاشميه	-5795
▁الثمانيني	-5796
▁الصحراويه	-5797
▁المسؤوليه	-5798
42	-5799
ئك	-5800
رز	-5801
اخر	-5802
ارئ	-5803
ارا	-5804
اقب	-5805
بعد	-5806
بول	-5807
رمو	-5808
صرت	-5809
غوط	-5810
فير	-5811
كوس	-5812
كيا	-5813
منت	-5814
ومي	-5815
ويد	-5816
ويم	-5817
ياد	-5818
يبه	-5819
يما	-5820
▁36	-5821
▁خز	-5822
▁رص	-5823
▁رف	-5824
▁شط	-5825
▁شغ	-5826
▁وب	-5827
▁يض	-5828
ابقه	-5829
اخره	-5830
الذي	-5831
اويه	-5832
حايا	-5833
دران	-5834
شقند	-5835
فاوت	-5836
ليلا	-5837
مييز	-5838
واصم	-5839
وافد	-5840
ومال	-5841
ويره	-5842
▁...	-5843
▁1.5	-5844
▁125	-5845
▁2.5	-5846
▁ئات	-5847
▁ائر	-5848
▁اتي	-5849
▁ارف	-5850
▁ازت	-5851
▁اطه	-5852
▁اعض	-5853
▁افق	-5854
▁اقع	-5855
▁انب	-5856
▁انص	-5857
▁اني	-5858
▁اوق	-5859
▁تبت	-5860
▁تين	-5861
▁جده	-5862
▁جذب	-5863
▁جرت	-5864
▁جوه	-5865
▁خاض	-5866
▁دقه	-5867
▁ردا	-5868
▁رزت	-5869
▁عرق	-5870
▁غرض	-5871
▁قبر	-5872
▁قبه	-5873
▁ماي	-5874
▁متت	-5875
▁متع	-5876
▁مطل	-5877
▁معق	-5878
▁ملح	-5879
▁مون	-5880
▁مير	-5881
▁ناج	-5882
▁ناف	-5883
▁نبو	-5884
▁نجح	-5885
▁نست	-5886
▁نمت	-5887
▁نيو	-5888
▁هيل	-5889
▁يحل	-5890
▁يضع	-5891
▁يفت	-5892
▁يني	-5893
نمارك	-5894
▁1940	-5895
▁1971	-5896
▁2019	-5897
▁2022	-5898
▁ائده	-5899
▁اجور	-5900
▁ادني	-5901
▁ارما	-5902
▁استس	-5903
▁استف	-5904
▁اسست	-5905
▁اصيب	-5906
▁اضاف	-5907
▁اعطي	-5908
▁الغز	-5909
▁القس	-5910
▁الكح	-5911
▁اهمت	-5912
▁اوبن	-5913
▁تحرك	-5914
▁تخدم	-5915
▁تعدد	-5916
▁تملك	-5917
▁توصل	-5918
▁ثائق	-5919
▁ثمان	-5920
▁جنود	-5921
▁جيزه	-5922
▁حبيب	-5923
▁حزمه	-5924
▁حملت	-5925
▁خلفه	-5926
▁خليل	-5927
▁دراس	-5928
▁دوست	-5929
▁راسه	-5930
▁رميل	-5931
▁رناس	-5932
▁زوار	-5933
▁شارل	-5934
▁شهرا	-5935
▁ضريح	-5936
▁عصور	-5937
▁عملت	-5938
▁مالي	-5939
▁مزار	-5940
▁مساف	-5941
▁مصنع	-5942
▁مكون	-5943
▁ملكا	-5944
▁نائب	-5945
▁نوري	-5946
▁هضبه	-5947
▁ياتل	-5948
▁ياده	-5949
▁يبيا	-5950
▁يدعم	-5951
▁يشبه	-5952
▁يقيم	-5953
▁1990،	-5954
▁1998.	-5955
▁2013.	-5956
▁استاذ	-5957
▁اسرته	-5958
▁اصابه	-5959
▁اظهرت	-5960
▁الابن	-5961
▁الالب	-5962
▁الامت	-5963
▁البني	-5964
▁البها	-5965
▁البيع	-5966
▁التاي	-5967
▁التعد	-5968
▁الثور	-5969
▁الجبل	-5970
▁الجهه	-5971
▁الحار	-5972
▁الدقه	-5973
▁الرجل	-5974
▁السهل	-5975
▁الصخر	-5976
▁الصور	-5977
▁الطفل	-5978
▁الطقس	-5979
▁الفات	-5980
▁الفاط	-5981
▁الكرك	-5982
▁المقت	-5983
▁النفس	-5984
▁النور	-5985
▁انقسم	-5986
▁اولئك	-5987
▁تاثرت	-5988
▁تبادل	-5989
▁تجنيد	-5990
▁تشكلت	-5991
▁تصريح	-5992
▁تعويض	-5993
▁ثنائي	-5994
▁حاولت	-5995
▁حقيقه	-5996
▁حلفائ	-5997
▁خاصيه	-5998
▁دلاله	-5999
▁رلمان	-6000
▁شمالي	-6001
▁طشقند	-6002
▁عراقي	-6003
▁ماليه	-6004
▁محاول	-6005
▁مساحت	-6006
▁مستخد	-6007
▁مصطفي	-6008
▁معادل	-6009
▁مناسب	-6010
▁ياسيا	-6011
▁يحتاج	-6012
▁يشاور	-6013
يدراليه	-6014
▁اختراع	-6015
▁استعاد	-6016
▁اضطراب	-6017
▁الاخضر	-6018
▁الاستش	-6019
▁الاعظم	-6020
▁البنوك	-6021
▁التجمع	-6022
▁التلوث	-6023
▁الثقاف	-6024
▁الجفاف	-6025
▁الحافل	-6026
▁الحروف	-6027
▁الدنيا	-6028
▁الذكور	-6029
▁الزواج	-6030
▁السماح	-6031
▁الشروط	-6032
▁الصفقه	-6033
▁الطلبه	-6034
▁العنصر	-6035
▁الفريق	-6036
▁الفوضي	-6037
▁المسند	-6038
▁المعاد	-6039
▁الممثل	-6040
▁النجوم	-6041
▁امبراط	-6042
▁اندلاع	-6043
▁تستضيف	-6044
▁تماثيل	-6045
▁حواسيب	-6046
▁مملوكه	-6047
▁مناسبه	-6048
▁ارتباطا	-6049
▁استبدال	-6050
▁استخراج	-6051
▁استنادا	-6052
▁الابحاث	-6053
▁الاجراء	-6054
▁الاسعار	-6055
▁الاسماء	-6056
▁الاشجار	-6057
▁الاعمار	-6058
▁الاكراد	-6059
▁الاهداف	-6060
▁الاوزبك	-6061
▁البارزه	-6062
▁البطاله	-6063
▁البغداد	-6064
▁البلديه	-6065
▁التداول	-6066
▁التشكيل	-6067
▁التفجير	-6068
▁التكامل	-6069
▁الدعايه	-6070
▁الدوائر	-6071
▁الروايه	-6072
▁السومري	-6073
▁الصحيحه	-6074
▁الصومال	-6075
▁العملاء	-6076
▁القادمه	-6077
▁الكثافه	-6078
▁الكرديه	-6079
▁المشارك	-6080
▁المشهور	-6081
▁المطاعم	-6082
▁المقدمه	-6083
▁المميزه	-6084
▁الناطقه	-6085
▁تقليديا	-6086
▁استخدامه	-6087
▁الاختلاف	-6088
▁الاقاليم	-6089
▁البرتغال	-6090
▁التقارير	-6091
▁الثنائيه	-6092
▁الدنمارك	-6093
▁السومريه	-6094
▁الغالبيه	-6095
▁المتبقيه	-6096
▁المستشار	-6097
▁المواضيع	-6098
▁البيزنطيه	-6099
▁ميكروسوفت	-6100
▁الدبلوماسيه	-6101
.1	-6102
.3	-6103
35	-6104
43	-6105
46	-6106
77	-6107
97	-6108
تت	-6109
حر	-6110
ائح	-6111
ازه	-6112
اطف	-6113
الل	-6114
باه	-6115
بله	-6116
تيش	-6117
ثمر	-6118
ثيه	-6119
جمه	-6120
حام	-6121
خلف	-6122
رضت	-6123
سكي	-6124
صود	-6125
طور	-6126
فظه	-6127
فيل	-6128
قدم	-6129
كلي	-6130
كوم	-6131
لاس	-6132
لفه	-6133
نام	-6134
وجه	-6135
ومن	-6136
▁38	-6137
▁46	-6138
▁دت	-6139
▁صه	-6140
▁لف	-6141
▁نح	-6142
▁وف	-6143
▁يذ	-6144
ارده	-6145
ارقه	-6146
اميم	-6147
اهيل	-6148
تشاف	-6149
تهام	-6150
روري	-6151
روعه	-6152
سيطه	-6153
فاضه	-6154
كتور	-6155
نتاج	-6156
وريا	-6157
ولان	-6158
▁700	-6159
▁ائن	-6160
▁اثي	-6161
▁ارد	-6162
▁ارو	-6163
▁اسه	-6164
▁تان	-6165
▁تحد	-6166
▁تقل	-6167
▁تمر	-6168
▁تنص	-6169
▁تنه	-6170
▁تهي	-6171
▁ثور	-6172
▁جبه	-6173
▁حاض	-6174
▁حام	-6175
▁حيا	-6176
▁خطي	-6177
▁ردت	-6178
▁شمس	-6179
▁قاط	-6180
▁قوت	-6181
▁قوم	-6182
▁ماد	-6183
▁منس	-6184
▁مور	-6185
▁ميش	-6186
▁نار	-6187
▁نوي	-6188
▁نيك	-6189
▁ياح	-6190
▁يجد	-6191
▁يوح	-6192
قاليه	-6193
لانيه	-6194
وانتك	-6195
ونيان	-6196
▁1936	-6197
▁1941	-6198
▁1944	-6199
▁1960	-6200
▁1961	-6201
▁1964	-6202
▁1981	-6203
▁5000	-6204
▁اجري	-6205
▁اخيه	-6206
▁اراء	-6207
▁اسكت	-6208
▁اصلا	-6209
▁اضطر	-6210
▁اكتس	-6211
▁البن	-6212
▁التز	-6213
▁التض	-6214
▁الحف	-6215
▁الخش	-6216
▁الرط	-6217
▁العت	-6218
▁انتل	-6219
▁انشئ	-6220
▁تخرج	-6221
▁تدار	-6222
▁تصنف	-6223
▁تعبر	-6224
▁تكلم	-6225
▁تلقت	-6226
▁ثابت	-6227
▁جلال	-6228
▁جويه	-6229
▁جيدا	-6230
▁حلقه	-6231
▁حمام	-6232
▁خروج	-6233
▁خلفا	-6234
▁دعما	-6235
▁ربيع	-6236
▁رفيق	-6237
▁رموز	-6238
▁رياض	-6239
▁ريده	-6240
▁زارت	-6241
▁شديد	-6242
▁شريه	-6243
▁شهور	-6244
▁شيدت	-6245
▁صدور	-6246
▁صولا	-6247
▁طلال	-6248
▁عمره	-6249
▁غربا	-6250
▁غناء	-6251
▁غنيه	-6252
▁قايا	-6253
▁قطري	-6254
▁قياد	-6255
▁مالك	-6256
▁مبار	-6257
▁مبكر	-6258
▁مترو	-6259
▁محدد	-6260
▁مخرج	-6261
▁مخيم	-6262
▁مزيج	-6263
▁مضاد	-6264
▁معان	-6265
▁معبد	-6266
▁معتد	-6267
▁ناني	-6268
▁نبات	-6269
▁ياحه	-6270
▁ياخذ	-6271
▁يحتل	-6272
▁يحقق	-6273
▁يدير	-6274
▁يرغب	-6275
▁يعطي	-6276
▁يقطن	-6277
▁ينتم	-6278
فورنيا	-6279
▁1989،	-6280
▁1994،	-6281
▁1995،	-6282
▁1999،	-6283
▁2002،	-6284
▁2008.	-6285
▁اتساع	-6286
▁اتهمت	-6287
▁اثاره	-6288
▁ارتفع	-6289
▁ارجاء	-6290
▁ارقام	-6291
▁استقر	-6292
▁اشارت	-6293
▁اشترت	-6294
▁اغتيل	-6295
▁الارز	-6296
▁الارس	-6297
▁الانق	-6298
▁الجزي	-6299
▁الحسن	-6300
▁الراس	-6301
▁الراق	-6302
▁الرحل	-6303
▁السعي	-6304
▁السلع	-6305
▁السله	-6306
▁السند	-6307
▁الشبك	-6308
▁الشرب	-6309
▁الشيء	-6310
▁الفكر	-6311
▁الفيز	-6312
▁القاب	-6313
▁المار	-6314
▁الموت	-6315
▁المول	-6316
▁الميك	-6317
▁الهيئ	-6318
▁الوحد	-6319
▁انسان	-6320
▁انسحب	-6321
▁تتركز	-6322
▁تتمثل	-6323
▁تحليل	-6324
▁تخفيض	-6325
▁ترتبط	-6326
▁تسهيل	-6327
▁خسائر	-6328
▁طويلا	-6329
▁علاوه	-6330
▁عوامل	-6331
▁غربيه	-6332
▁قادره	-6333
▁قضايا	-6334
▁قواته	-6335
▁قوافل	-6336
▁مترجم	-6337
▁مخصصه	-6338
▁مساعد	-6339
▁مستمر	-6340
▁مشابه	-6341
▁معارض	-6342
▁معتدل	-6343
▁مقاطع	-6344
▁موانئ	-6345
▁ميديا	-6346
▁نسبته	-6347
بلوماسي	-6348
▁اختصار	-6349
▁الاشار	-6350
▁البحته	-6351
▁البرون	-6352
▁التزام	-6353
▁التوجه	-6354
▁الجمعه	-6355
▁الجوار	-6356
▁الديان	-6357
▁الذكري	-6358
▁الرومي	-6359
▁السهول	-6360
▁الطابع	-6361
▁الطالب	-6362
▁العاده	-6363
▁العادي	-6364
▁العباس	-6365
▁العذبه	-6366
▁الفكره	-6367
▁القاده	-6368
▁القضيه	-6369
▁المدير	-6370
▁المراق	-6371
▁المستن	-6372
▁المعرض	-6373
▁المهدي	-6374
▁اليرمو	-6375
▁انتهاك	-6376
▁تفاصيل	-6377
▁تكاليف	-6378
▁ثقافيه	-6379
▁دراسته	-6380
▁مساهمه	-6381
▁مكافحه	-6382
▁موسوعه	-6383
▁استطلاع	-6384
▁الاتهام	-6385
▁الاحياء	-6386
▁الاداري	-6387
▁الاطراف	-6388
▁الاوراق	-6389
▁الايراد	-6390
▁الايمان	-6391
▁الايوبي	-6392
▁الباقيه	-6393
▁البيئيه	-6394
▁التحقيق	-6395
▁التقسيم	-6396
▁الجنرال	-6397
▁الحاكمه	-6398
▁الحوادث	-6399
▁الخصائص	-6400
▁الخمسين	-6401
▁الدراما	-6402
▁الرقابه	-6403
▁الزمنيه	-6404
▁السوداء	-6405
▁الطائره	-6406
▁العبادي	-6407
▁الفصائل	-6408
▁المتحدث	-6409
▁المستمر	-6410
▁المصارف	-6411
▁الموحده	-6412
▁الوكاله	-6413
▁اليدويه	-6414
▁ايرلندا	-6415
▁جغرافيا	-6416
▁قانونيه	-6417
▁مستوطنه	-6418
▁معماريه	-6419
▁اقتصاديا	-6420
▁الاختراع	-6421
▁الاكتشاف	-6422
▁الايطالي	-6423
▁التقاليد	-6424
▁السبعيني	-6425
▁الصليبيه	-6426
▁الغذائيه	-6427
▁المساواه	-6428
▁المستمره	-6429
▁المقابله	-6430
▁المقاطعه	-6431
▁اليعاربه	-6432
▁اوركسترا	-6433
▁رانكفورت	-6434
▁التشريعيه	-6435
▁السينمائي	-6436
▁المعلومات	-6437
▁اليفورنيا	-6438
▁الاسبرانتو	-6439
▁الفيدراليه	-6440
-3	-6441
31	-6442
ئذ	-6443
ثم	-6444
ذف	-6445
رص	-6446
مش	-6447
نس	-6448
ئيل	-6449
اجم	-6450
ادق	-6451
اشه	-6452
بما	-6453
ترط	-6454
حاق	-6455
خلل	-6456
رفي	-6457
ريخ	-6458
سلك	-6459
سيد	-6460
سيط	-6461
صرا	-6462
صيه	-6463
فضل	-6464
قيب	-6465
مته	-6466
مدت	-6467
هود	-6468
وسي	-6469
يال	-6470
يكا	-6471
ينغ	-6472
يوط	-6473
▁حه	-6474
▁خش	-6475
▁دل	-6476
▁شج	-6477
▁قض	-6478
▁لي	-6479
▁ود	-6480
▁وك	-6481
-200	-6482
اتهم	-6483
اريس	-6484
اسمه	-6485
اطنه	-6486
الفه	-6487
بعاد	-6488
تهما	-6489
جدده	-6490
خرفه	-6491
دافع	-6492
ربيه	-6493
رقاء	-6494
زيدي	-6495
ضرحه	-6496
ظاهر	-6497
لافا	-6498
لاند	-6499
ليشي	-6500
مثله	-6501
نوبر	-6502
وبرت	-6503
ورمي	-6504
▁(18	-6505
▁185	-6506
▁600	-6507
▁800	-6508
▁ائق	-6509
▁اجب	-6510
▁اضع	-6511
▁انك	-6512
▁اوف	-6513
▁اون	-6514
▁ايد	-6515
▁تاج	-6516
▁تبه	-6517
▁تحل	-6518
▁تخت	-6519
▁تسا	-6520
▁تطل	-6521
▁تفت	-6522
▁توق	-6523
▁توي	-6524
▁جاك	-6525
▁حشد	-6526
▁حقل	-6527
▁خال	-6528
▁دوس	-6529
▁ريت	-6530
▁شيخ	-6531
▁صيغ	-6532
▁ضعي	-6533
▁عزم	-6534
▁غزا	-6535
▁قدت	-6536
▁قصف	-6537
▁مجه	-6538
▁مسب	-6539
▁مغل	-6540
▁ملم	-6541
▁منظ	-6542
▁موط	-6543
▁ناه	-6544
▁ندق	-6545
▁نصب	-6546
▁نفذ	-6547
▁نهب	-6548
▁يحد	-6549
▁يحق	-6550
▁يخت	-6551
▁يخل	-6552
▁يدل	-6553
▁يقل	-6554
▁ينغ	-6555
▁يوه	-6556
بيديا	-6557
داوله	-6558
ليفزي	-6559
▁1500	-6560
▁1939	-6561
▁1972	-6562
▁1982	-6563
▁1987	-6564
▁2500	-6565
▁ابقه	-6566
▁ابنا	-6567
▁اجهت	-6568
▁احسن	-6569
▁احقه	-6570
▁استج	-6571
▁الدا	-6572
▁الرص	-6573
▁الزع	-6574
▁اللو	-6575
▁الهز	-6576
▁اليا	-6577
▁اليم	-6578
▁امار	-6579
▁امور	-6580
▁انتج	-6581
▁اوضح	-6582
▁ايار	-6583
▁تباع	-6584
▁تحصل	-6585
▁تحقق	-6586
▁تحيط	-6587
▁ترام	-6588
▁تسقط	-6589
▁تعلم	-6590
▁تقدي	-6591
▁ثيقا	-6592
▁جبهه	-6593
▁جوار	-6594
▁خسرت	-6595
▁خضعت	-6596
▁خطوه	-6597
▁خوار	-6598
▁دولت	-6599
▁دومه	-6600
▁رشاد	-6601
▁رفضت	-6602
▁رمزا	-6603
▁روما	-6604
▁ريعه	-6605
▁شاطئ	-6606
▁شتاء	-6607
▁شرطه	-6608
▁صادر	-6609
▁صارت	-6610
▁صلوا	-6611
▁صنفت	-6612
▁صوله	-6613
▁طبقه	-6614
▁عائد	-6615
▁عارف	-6616
▁علما	-6617
▁عيدا	-6618
▁غرار	-6619
▁قبول	-6620
▁قتله	-6621
▁قدمه	-6622
▁قدوم	-6623
▁قطعه	-6624
▁قوله	-6625
▁مائه	-6626
▁مشاه	-6627
▁مصري	-6628
▁منطق	-6629
▁منعت	-6630
▁موجه	-6631
▁نادر	-6632
▁نالت	-6633
▁نصوص	-6634
▁هطول	-6635
▁يتصل	-6636
▁يخضع	-6637
▁يروس	-6638
▁يسرا	-6639
▁يقبل	-6640
▁يكتب	-6641
▁يملك	-6642
▁يميز	-6643
▁يناء	-6644
دنبورغ	-6645
▁1994.	-6646
▁2011.	-6647
▁ابراج	-6648
▁اتفيا	-6649
▁اجنبي	-6650
▁احوال	-6651
▁اخترع	-6652
▁اصحاب	-6653
▁اعادت	-6654
▁اعتقد	-6655
▁افتتح	-6656
▁الائت	-6657
▁الاجر	-6658
▁الاخم	-6659
▁الاشر	-6660
▁الاصو	-6661
▁الاوس	-6662
▁الاوق	-6663
▁البكر	-6664
▁الترج	-6665
▁الحرك	-6666
▁الحكم	-6667
▁الحمد	-6668
▁الخري	-6669
▁الخطي	-6670
▁الرسم	-6671
▁الرقم	-6672
▁الرقه	-6673
▁الشرف	-6674
▁العاد	-6675
▁الفري	-6676
▁القلب	-6677
▁القيا	-6678
▁اللحي	-6679
▁المحل	-6680
▁المدي	-6681
▁المنه	-6682
▁المور	-6683
▁الوجه	-6684
▁امراه	-6685
▁انتقد	-6686
▁انجلت	-6687
▁تاكيد	-6688
▁تاليف	-6689
▁تجديد	-6690
▁تزايد	-6691
▁تزداد	-6692
▁تشييد	-6693
▁تفسير	-6694
▁توافر	-6695
▁جريده	-6696
▁جوانب	-6697
▁حيويه	-6698
▁ديوان	-6699
▁رباني	-6700
▁رسائل	-6701
▁روابط	-6702
▁زعماء	-6703
▁شواطئ	-6704
▁صلاله	-6705
▁طالما	-6706
▁عمران	-6707
▁عودته	-6708
▁قادرا	-6709
▁قريبه	-6710
▁مؤقتا	-6711
▁مبنيه	-6712
▁مجاهد	-6713
▁محادث	-6714
▁محترف	-6715
▁مراسل	-6716
▁مشارك	-6717
▁معتقد	-6718
▁منتخب	-6719
▁موزعه	-6720
▁نانيه	-6721
▁نجاحا	-6722
▁نفسها	-6723
▁نماذج	-6724
▁هائله	-6725
▁يتضمن	-6726
▁يسيطر	-6727
▁يقتصر	-6728
▁يلاحظ	-6729
▁يواجه	-6730
▁احتجاج	-6731
▁اداريا	-6732
▁اذاعيه	-6733
▁ازدادت	-6734
▁استعمل	-6735
▁استقرت	-6736
▁اعتقال	-6737
▁افغاني	-6738
▁الاذاع	-6739
▁الانما	-6740
▁البراز	-6741
▁البقاع	-6742
▁التدري	-6743
▁التسوق	-6744
▁الجمال	-6745
▁الجوده	-6746
▁الحكام	-6747
▁الحوار	-6748
▁الخروج	-6749
▁الركاب	-6750
▁الشائع	-6751
▁الشامل	-6752
▁الشعار	-6753
▁الصباح	-6754
▁الطراز	-6755
▁العاشر	-6756
▁الغلاف	-6757
▁الفصحي	-6758
▁القصور	-6759
▁القيود	-6760
▁الكاتب	-6761
▁الكاظم	-6762
▁الكليه	-6763
▁اللغوي	-6764
▁اللقاء	-6765
▁المؤلف	-6766
▁المرضي	-6767
▁المرور	-6768
▁المشهد	-6769
▁الملوك	-6770
▁المناق	-6771
▁المنصب	-6772
▁الموسم	-6773
▁النخيل	-6774
▁النقاب	-6775
▁النهار	-6776
▁الوالي	-6777
▁الوثائ	-6778
▁الوليد	-6779
▁انترنت	-6780
▁انقسمت	-6781
▁قانوني	-6782
▁مبيوتر	-6783
▁مجاوره	-6784
▁مستهلك	-6785
▁منخفضه	-6786
▁منفصله	-6787
▁يوانتك	-6788
▁ارماسيا	-6789
▁ارهابيه	-6790
▁استحواذ	-6791
▁استضافه	-6792
▁استعملت	-6793
▁استهلاك	-6794
▁الابراج	-6795
▁الاسبوع	-6796
▁الالوان	-6797
▁الجاريه	-6798
▁الجمعيه	-6799
▁السكاني	-6800
▁الصادره	-6801
▁الطويله	-6802
▁الطيران	-6803
▁العاديه	-6804
▁العوامل	-6805
▁الفاطمي	-6806
▁الفكريه	-6807
▁القدماء	-6808
▁القريبه	-6809
▁القليله	-6810
▁اللاسلك	-6811
▁المالكي	-6812
▁المحتمل	-6813
▁المعادن	-6814
▁المغولي	-6815
▁المفاوض	-6816
▁الملابس	-6817
▁المناسب	-6818
▁الموسوع	-6819
▁الوسائل	-6820
▁اليرموك	-6821
▁اليهودي	-6822
▁انفورمي	-6823
▁مستخدمي	-6824
▁الافريقي	-6825
▁الاندماج	-6826
▁الانقلاب	-6827
▁البرونزي	-6828
▁البغدادي	-6829
▁التعليمي	-6830
▁الرسوميه	-6831
▁الفيلسوف	-6832
▁المتجدده	-6833
▁المكتوبه	-6834
▁المناذره	-6835
▁المنتشره	-6836
▁الموسوعه	-6837
▁الواقعيه	-6838
▁يكيبيديا	-6839
▁الاستحواذ	-6840
▁الاغريقيه	-6841
▁البرتغالي	-6842
▁الكلاسيكي	-6843
▁الميزانيه	-6844
▁راندنبورغ	-6845
▁الارثوذكسيه	-6846
,2	-6847
5)	-6848
62	-6849
89	-6850
حف	-6851
ذن	-6852
صن	-6853
ظل	-6854
غن	-6855
اتن	-6856
احت	-6857
الع	-6858
انس	-6859
بعت	-6860
ديف	-6861
ربت	-6862
رده	-6863
سور	-6864
شرا	-6865
شفه	-6866
طله	-6867
عات	-6868
فرع	-6869
فوف	-6870
قاش	-6871
لقي	-6872
ليت	-6873
ممه	-6874
نود	-6875
وتن	-6876
وثه	-6877
وثي	-6878
ولم	-6879
يرغ	-6880
▁1،	-6881
▁39	-6882
▁43	-6883
▁68	-6884
▁94	-6885
▁بت	-6886
▁زم	-6887
▁شا	-6888
▁صر	-6889
▁فظ	-6890
▁وز	-6891
ادثه	-6892
ارتو	-6893
اكاه	-6894
بعاث	-6895
بليو	-6896
بيرغ	-6897
ديله	-6898
رابي	-6899
راحه	-6900
روته	-6901
روسي	-6902
ظهور	-6903
قيده	-6904
كوره	-6905
لاحق	-6906
مويه	-6907
ناطه	-6908
واهد	-6909
وتيه	-6910
ويكي	-6911
يلان	-6912
▁(17	-6913
▁163	-6914
▁250	-6915
▁اخو	-6916
▁ادب	-6917
▁اره	-6918
▁ايا	-6919
▁تجد	-6920
▁ترف	-6921
▁تسع	-6922
▁تسي	-6923
▁تلم	-6924
▁ثبت	-6925
▁ثقه	-6926
▁جنا	-6927
▁جوب	-6928
▁جيد	-6929
▁حصن	-6930
▁رات	-6931
▁ربه	-6932
▁رمز	-6933
▁روح	-6934
▁ريع	-6935
▁شام	-6936
▁شتي	-6937
▁شغل	-6938
▁صفح	-6939
▁عبه	-6940
▁عمق	-6941
▁عمي	-6942
▁عنا	-6943
▁عنف	-6944
▁مؤك	-6945
▁متي	-6946
▁مزا	-6947
▁موت	-6948
▁ناس	-6949
▁نتج	-6950
▁نوح	-6951
▁هور	-6952
▁ياق	-6953
▁يخص	-6954
▁يلو	-6955
اديمي	-6956
بانيه	-6957
حوالي	-6958
ريقيه	-6959
ساسنه	-6960
واليد	-6961
▁1935	-6962
▁1950	-6963
▁1962	-6964
▁1963	-6965
▁1969	-6966
▁1976	-6967
▁1984	-6968
▁اباد	-6969
▁ابعد	-6970
▁اجبر	-6971
▁ارتك	-6972
▁اسعا	-6973
▁اضحه	-6974
▁اكمل	-6975
▁الجذ	-6976
▁الشم	-6977
▁الصغ	-6978
▁الضو	-6979
▁الطف	-6980
▁القن	-6981
▁انها	-6982
▁اوسع	-6983
▁تبوا	-6984
▁تخصص	-6985
▁تراج	-6986
▁تفوق	-6987
▁تلوث	-6988
▁تناق	-6989
▁تنفذ	-6990
▁تيره	-6991
▁ثروه	-6992
▁جهاد	-6993
▁حيان	-6994
▁دائم	-6995
▁رابع	-6996
▁رنسي	-6997
▁زادت	-6998
▁زعمت	-6999
▁شائع	-7000
▁شريط	-7001
▁شريف	-7002
▁صحفي	-7003
▁صعيد	-7004
▁صفوف	-7005
▁طبيه	-7006
▁علمي	-7007
▁عينه	-7008
▁غرفه	-7009
▁قادت	-7010
▁قادر	-7011
▁قاسي	-7012
▁قبيل	-7013
▁قسمت	-7014
▁مسمي	-7015
▁مصيف	-7016
▁ملكه	-7017
▁مميز	-7018
▁نهري	-7019
▁نورث	-7020
▁يادت	-7021
▁يترك	-7022
▁يحكم	-7023
▁يرفر	-7024
▁يريد	-7025
▁يسود	-7026
▁يقتل	-7027
▁ينتج	-7028
▁يهتم	-7029
درائيه	-7030
▁2019.	-7031
▁اثريه	-7032
▁اجماع	-7033
▁احزاب	-7034
▁ادعاء	-7035
▁استقل	-7036
▁اشراف	-7037
▁اكسيد	-7038
▁الاضا	-7039
▁الانح	-7040
▁التفا	-7041
▁التقد	-7042
▁التما	-7043
▁التنا	-7044
▁الحشد	-7045
▁الحمل	-7046
▁السنا	-7047
▁السور	-7048
▁الصاب	-7049
▁الصلو	-7050
▁العنك	-7051
▁الغير	-7052
▁الفئه	-7053
▁الفتن	-7054
▁الفرع	-7055
▁الفيد	-7056
▁القطر	-7057
▁الكيل	-7058
▁المبت	-7059
▁المبر	-7060
▁المتو	-7061
▁المجل	-7062
▁المكر	-7063
▁النحت	-7064
▁النصر	-7065
▁النوم	-7066
▁اميرا	-7067
▁انماط	-7068
▁اهالي	-7069
▁اهليه	-7070
▁تتولي	-7071
▁تجارب	-7072
▁تدريس	-7073
▁تزويد	-7074
▁تسيطر	-7075
▁تطورا	-7076
▁تقارب	-7077
▁تمثال	-7078
▁تواصل	-7079
▁جرائم	-7080
▁جوائز	-7081
▁حافظت	-7082
▁خدمات	-7083
▁خلاله	-7084
▁دوليا	-7085
▁دينار	-7086
▁رؤساء	-7087
▁رقابه	-7088
▁روبرت	-7089
▁شامله	-7090
▁شريعه	-7091
▁عاديه	-7092
▁عرقيه	-7093
▁عماره	-7094
▁عمليا	-7095
▁قصيده	-7096
▁قليلا	-7097
▁محليا	-7098
▁مرورا	-7099
▁مسائل	-7100
▁مساله	-7101
▁مسلسل	-7102
▁معناه	-7103
▁مفتوح	-7104
▁مقاعد	-7105
▁مقياس	-7106
▁مليون	-7107
▁منهما	-7108
▁نادره	-7109
▁نموذج	-7110
▁هنالك	-7111
▁يلهلم	-7112
▁ينتمي	-7113
▁ينحدر	-7114
▁احتياج	-7115
▁ارتداء	-7116
▁اساسيا	-7117
▁استسلم	-7118
▁الابار	-7119
▁الاداء	-7120
▁الادبي	-7121
▁الاشهر	-7122
▁الاصغر	-7123
▁الافضل	-7124
▁البارز	-7125
▁البيوس	-7126
▁التحدي	-7127
▁التشكي	-7128
▁التنقل	-7129
▁التهاب	-7130
▁الجماه	-7131
▁الجمعي	-7132
▁الرسول	-7133
▁السبعه	-7134
▁السماء	-7135
▁الصحيح	-7136
▁الضخمه	-7137
▁الظهور	-7138
▁الفروع	-7139
▁القاضي	-7140
▁الكفاء	-7141
▁المادي	-7142
▁المالي	-7143
▁الماني	-7144
▁المبني	-7145
▁المحطه	-7146
▁المخدر	-7147
▁المستح	-7148
▁المطبخ	-7149
▁الملكه	-7150
▁المهني	-7151
▁النسيج	-7152
▁الولاه	-7153
▁اندماج	-7154
▁تتعامل	-7155
▁تجاريا	-7156
▁تستهدف	-7157
▁تقارير	-7158
▁تقديرا	-7159
▁تلمسان	-7160
▁تورفال	-7161
▁جنائيه	-7162
▁ريدريش	-7163
▁صناعيه	-7164
▁عراقيه	-7165
▁غرناطه	-7166
▁مراجعه	-7167
▁معايير	-7168
▁منافسه	-7169
▁100,000	-7170
▁استدعاء	-7171
▁استهداف	-7172
▁الاحكام	-7173
▁الادباء	-7174
▁الادبيه	-7175
▁الارامي	-7176
▁الاسباب	-7177
▁الاسطول	-7178
▁الاطباء	-7179
▁الاقسام	-7180
▁الانباء	-7181
▁الاوديه	-7182
▁البيضاء	-7183
▁التنسيق	-7184
▁التوراه	-7185
▁الجاهلي	-7186
▁الحربيه	-7187
▁الحمايه	-7188
▁الخبراء	-7189
▁الخليجي	-7190
▁الدينار	-7191
▁الرحاله	-7192
▁الزرقاء	-7193
▁السريان	-7194
▁الشراكه	-7195
▁الصالحه	-7196
▁الظاهره	-7197
▁القواعد	-7198
▁اللاحقه	-7199
▁المحمول	-7200
▁المذكور	-7201
▁المرافق	-7202
▁المصنعه	-7203
▁المعتقد	-7204
▁الممارس	-7205
▁المنتدي	-7206
▁الموجود	-7207
▁النازيه	-7208
▁النتيجه	-7209
▁الهزاره	-7210
▁الوسائط	-7211
▁الوظيفه	-7212
▁انتاجيه	-7213
▁انجلترا	-7214
▁اندرويد	-7215
▁اوروبيه	-7216
▁روتوكول	-7217
▁ميداليه	-7218
▁الاعتبار	-7219
▁الانبياء	-7220
▁الانتصار	-7221
▁الايراني	-7222
▁البديهيه	-7223
▁التراثيه	-7224
▁التسعيني	-7225
▁الجامعات	-7226
▁السلطاني	-7227
▁الشيوعيه	-7228
▁العمراني	-7229
▁الغساسنه	-7230
▁المتقدمه	-7231
▁المرتبطه	-7232
▁المستشرق	-7233
▁المصرفيه	-7234
▁المفوضيه	-7235
▁المنزليه	-7236
▁الارهابيه	-7237
▁الافريقيه	-7238
▁الانجيليه	-7239
▁التسعينات	-7240
▁التلفازيه	-7241
▁الدستوريه	-7242
▁الكاثوليك	-7243
▁انفورميكس	-7244
▁ديمقراطيه	-7245
▁الابتدائيه	-7246
▁الاشتراكيه	-7247
▁الامبراطور	-7248
▁البرلمانيه	-7249
▁التلفزيوني	-7250
▁السينمائيه	-7251
▁البروتستانت	-7252
),	-7253
13	-7254
27	-7255
47	-7256
6)	-7257
64	-7258
65	-7259
79	-7260
طح	-7261
طف	-7262
فف	-7263
مق	-7264
نز	-7265
...	-7266
افئ	-7267
اهي	-7268
اوف	-7269
برغ	-7270
جزه	-7271
جلي	-7272
حوذ	-7273
دمج	-7274
دنه	-7275
ذار	-7276
ران	-7277
رنج	-7278
روح	-7279
روز	-7280
روق	-7281
ريغ	-7282
زئه	-7283
شدا	-7284
صاف	-7285
طره	-7286
طيل	-7287
فاي	-7288
فرد	-7289
فوع	-7290
قار	-7291
قيع	-7292
ليس	-7293
وقي	-7294
ولف	-7295
ياز	-7296
ياع	-7297
ينو	-7298
▁42	-7299
▁49	-7300
▁55	-7301
▁57	-7302
▁92	-7303
▁93	-7304
▁ثت	-7305
▁خب	-7306
▁خم	-7307
▁شق	-7308
▁عج	-7309
▁لك	-7310
▁وش	-7311
ئناف	-7312
ائها	-7313
ابور	-7314
ارلز	-7315
اطئه	-7316
افيه	-7317
المع	-7318
اهنه	-7319
باري	-7320
بالغ	-7321
تمله	-7322
رائط	-7323
رتبه	-7324
رحيل	-7325
ركيه	-7326
ساقط	-7327
فتاء	-7328
فيده	-7329
كشاف	-7330
كلفه	-7331
نيفه	-7332
واجد	-7333
وبيا	-7334
وضاع	-7335
يشان	-7336
▁(10	-7337
▁1.2	-7338
▁10.	-7339
▁اجئ	-7340
▁احث	-7341
▁اشر	-7342
▁اصد	-7343
▁اوس	-7344
▁ايت	-7345
▁ايس	-7346
▁تضر	-7347
▁تفا	-7348
▁تفع	-7349
▁تقد	-7350
▁جلس	-7351
▁جهت	-7352
▁حجه	-7353
▁حرم	-7354
▁حيز	-7355
▁خطر	-7356
▁رام	-7357
▁ركن	-7358
▁ضوح	-7359
▁عجل	-7360
▁عقل	-7361
▁غزت	-7362
▁قضا	-7363
▁مبت	-7364
▁مخت	-7365
▁مسن	-7366
▁مكا	-7367
▁ممت	-7368
▁مند	-7369
▁ناش	-7370
▁نتر	-7371
▁نجر	-7372
▁نجم	-7373
▁نعت	-7374
▁نفي	-7375
▁نوا	-7376
▁هبي	-7377
▁يار	-7378
▁يده	-7379
▁يزن	-7380
▁يسك	-7381
▁يهم	-7382
روريه	-7383
صرفيه	-7384
كهولم	-7385
لاسفه	-7386
مدينه	-7387
وانيه	-7388
▁1948	-7389
▁1949	-7390
▁1958	-7391
▁1959	-7392
▁1965	-7393
▁1985	-7394
▁اخرج	-7395
▁ارزه	-7396
▁ارنر	-7397
▁اسوا	-7398
▁اصله	-7399
▁البو	-7400
▁الضي	-7401
▁املا	-7402
▁امنه	-7403
▁انتخ	-7404
▁انقا	-7405
▁تؤكد	-7406
▁تابع	-7407
▁تبنت	-7408
▁تبيع	-7409
▁تحسن	-7410
▁تزيد	-7411
▁تسلي	-7412
▁تشكي	-7413
▁تصرف	-7414
▁تكتب	-7415
▁تنظم	-7416
▁تنقل	-7417
▁توزع	-7418
▁جاسم	-7419
▁جمله	-7420
▁جيشه	-7421
▁حقول	-7422
▁حكما	-7423
▁داله	-7424
▁دفعه	-7425
▁ريست	-7426
▁صعود	-7427
▁ضباط	-7428
▁طعام	-7429
▁طلبه	-7430
▁عاشت	-7431
▁عاني	-7432
▁عقوب	-7433
▁عليا	-7434
▁غازي	-7435
▁مبان	-7436
▁مجمل	-7437
▁محلي	-7438
▁مرات	-7439
▁مستح	-7440
▁مسير	-7441
▁معنا	-7442
▁مقال	-7443
▁مقدم	-7444
▁ملعب	-7445
▁منصه	-7446
▁نزاع	-7447
▁نساء	-7448
▁نقاط	-7449
▁نهضه	-7450
▁نويه	-7451
▁هويه	-7452
▁يتيح	-7453
▁يحيي	-7454
▁يخدم	-7455
▁يرفض	-7456
▁يسوا	-7457
▁يصدر	-7458
▁يصعب	-7459
▁يصنف	-7460
▁يطلب	-7461
▁يعبد	-7462
▁يليه	-7463
▁يمنح	-7464
▁يمنز	-7465
ربيعيه	-7466
▁1920،	-7467
▁1990.	-7468
▁1996.	-7469
▁1998،	-7470
▁اثارت	-7471
▁احليه	-7472
▁اخرين	-7473
▁ادراك	-7474
▁اريما	-7475
▁ازاله	-7476
▁اسسوا	-7477
▁اسقاط	-7478
▁اظهار	-7479
▁افلاط	-7480
▁الازد	-7481
▁الازم	-7482
▁الاكت	-7483
▁البلا	-7484
▁البوذ	-7485
▁البور	-7486
▁التور	-7487
▁الجذر	-7488
▁الجند	-7489
▁الحاج	-7490
▁الخطه	-7491
▁السجن	-7492
▁الصفح	-7493
▁الطاع	-7494
▁الطيب	-7495
▁الظهر	-7496
▁الغار	-7497
▁الفضه	-7498
▁القبض	-7499
▁القصر	-7500
▁القنا	-7501
▁الكرد	-7502
▁الكشف	-7503
▁اللؤل	-7504
▁اللحم	-7505
▁اللفظ	-7506
▁اللوث	-7507
▁الملي	-7508
▁المنح	-7509
▁النحو	-7510
▁الوثي	-7511
▁انفاق	-7512
▁تاييد	-7513
▁تحميل	-7514
▁تدهور	-7515
▁ترميم	-7516
▁تشارك	-7517
▁تعالي	-7518
▁تلفاز	-7519
▁تمارس	-7520
▁تمرير	-7521
▁تنخفض	-7522
▁تنسيق	-7523
▁تنوعت	-7524
▁توليد	-7525
▁ثقافي	-7526
▁جداول	-7527
▁حينما	-7528
▁خوادم	-7529
▁دوقيه	-7530
▁ديفيد	-7531
▁ذاتيه	-7532
▁رابطه	-7533
▁شراكه	-7534
▁شهيره	-7535
▁طاجيك	-7536
▁عماني	-7537
▁قتبان	-7538
▁متنزه	-7539
▁مجالس	-7540
▁مطالب	-7541
▁معامل	-7542
▁معاهد	-7543
▁منتزه	-7544
▁منزله	-7545
▁موجبه	-7546
▁موقعا	-7547
▁نادرا	-7548
▁نظاما	-7549
▁نوويه	-7550
▁هيمنه	-7551
▁يشاهد	-7552
▁يليام	-7553
▁احتمال	-7554
▁استقال	-7555
▁اقاليم	-7556
▁الاراء	-7557
▁الازرق	-7558
▁الاسبق	-7559
▁الاناث	-7560
▁البخور	-7561
▁البيوت	-7562
▁التغير	-7563
▁التوتر	-7564
▁الجهود	-7565
▁الحزمه	-7566
▁الخصبه	-7567
▁الخليه	-7568
▁الزجاج	-7569
▁السامي	-7570
▁السدود	-7571
▁السرعه	-7572
▁الصالح	-7573
▁الصفحه	-7574
▁الصوره	-7575
▁العقار	-7576
▁العهود	-7577
▁الفرصه	-7578
▁القويه	-7579
▁الكلام	-7580
▁اللواء	-7581
▁المبكر	-7582
▁المدرج	-7583
▁المسار	-7584
▁المقري	-7585
▁المكون	-7586
▁المملو	-7587
▁المميز	-7588
▁الناتو	-7589
▁الناصر	-7590
▁النبطي	-7591
▁النقاد	-7592
▁الهامه	-7593
▁الهنود	-7594
▁الواضح	-7595
▁الوزار	-7596
▁الوزير	-7597
▁انفجار	-7598
▁انفصال	-7599
▁تشارلز	-7600
▁جمهوري	-7601
▁رنامجا	-7602
▁متقدمه	-7603
▁متوسطه	-7604
▁مجانيه	-7605
▁محاكمه	-7606
▁مديريه	-7607
▁مسؤولا	-7608
▁مستقبل	-7609
▁مشاهده	-7610
▁مصنوعه	-7611
▁معارضه	-7612
▁مفاهيم	-7613
▁مناقشه	-7614
▁منتجات	-7615
▁نلنديه	-7616
▁اخباريه	-7617
▁اقتصادي	-7618
▁الاتجاه	-7619
▁الاخطاء	-7620
▁الاخلاق	-7621
▁الاذاعي	-7622
▁الارضيه	-7623
▁الازياء	-7624
▁الاطباق	-7625
▁الاقمار	-7626
▁الامامه	-7627
▁الانشاء	-7628
▁الاوبرا	-7629
▁الاوضاع	-7630
▁الباطنه	-7631
▁البداوه	-7632
▁البلقاء	-7633
▁التجربه	-7634
▁التحديد	-7635
▁التراجع	-7636
▁التسعين	-7637
▁التفسير	-7638
▁الثابته	-7639
▁الجريمه	-7640
▁الجوائز	-7641
▁الحجاره	-7642
▁الحديدي	-7643
▁الرصافه	-7644
▁السادسه	-7645
▁السعاده	-7646
▁السعودي	-7647
▁السنافر	-7648
▁الشديده	-7649
▁الشيشان	-7650
▁الصنوبر	-7651
▁الصوتيه	-7652
▁الظواهر	-7653
▁الكثيره	-7654
▁اللغويه	-7655
▁الماديه	-7656
▁المانيه	-7657
▁المبرمج	-7658
▁المحدده	-7659
▁المخصصه	-7660
▁المسجله	-7661
▁المعارف	-7662
▁المعسكر	-7663
▁المقصود	-7664
▁المكونه	-7665
▁النادره	-7666
▁الناشئه	-7667
▁الناميه	-7668
▁النرويج	-7669
▁انتفاضه	-7670
▁ريطانيه	-7671
▁متكامله	-7672
▁يفونيان	-7673
▁اسكندريه	-7674
▁اكاديميه	-7675
▁الائتلاف	-7676
▁الابتكار	-7677
▁الاحتفاظ	-7678
▁الاحتكار	-7679
▁الانتهاء	-7680
▁الانجليز	-7681
▁البهائيه	-7682
▁البوندست	-7683
▁الجليديه	-7684
▁الخمسيني	-7685
▁السحابيه	-7686
▁الفلاسفه	-7687
▁اللاتيني	-7688
▁المتنوعه	-7689
▁المذكوره	-7690
▁المسؤوله	-7691
▁المشهوره	-7692
▁المطلوبه	-7693
▁المعتمده	-7694
▁الاتصالات	-7695
▁الاستهلاك	-7696
▁الاعلاميه	-7697
▁الايطاليه	-7698
▁التربيعيه	-7699
▁الترفيهيه	-7700
▁العباسيين	-7701
▁الفيدرالي	-7702
▁الكنعانيه	-7703
▁دبلوماسيه	-7704
▁الاستراتيجي	-7705
▁الكاثوليكيه	-7706
▁الاستراتيجيه	-7707
,4	-7708
,5	-7709
67	-7710
حب	-7711
حث	-7712
كك	-7713
نر	-7714
يء	-7715
-15	-7716
ابح	-7717
انو	-7718
اهل	-7719
اوي	-7720
ببت	-7721
برع	-7722
بور	-7723
ثره	-7724
جام	-7725
جقه	-7726
جيت	-7727
حان	-7728
دفق	-7729
دوس	-7730
ضير	-7731
طوا	-7732
عمه	-7733
عوا	-7734
عوم	-7735
غره	-7736
فيش	-7737
لقه	-7738
ليك	-7739
مائ	-7740
ميس	-7741
مين	-7742
هما	-7743
وضا	-7744
ومس	-7745
▁(7	-7746
▁(8	-7747
▁),	-7748
▁52	-7749
▁84	-7750
▁طف	-7751
▁عذ	-7752
▁كه	-7753
▁وح	-7754
ؤولي	-7755
ارعه	-7756
اريف	-7757
اسعه	-7758
اصره	-7759
انوي	-7760
بلور	-7761
بيرا	-7762
داقه	-7763
دهره	-7764
رافه	-7765
ركان	-7766
رياء	-7767
زيعه	-7768
صلحه	-7769
فورد	-7770
فوعه	-7771
قطاع	-7772
كنوا	-7773
لامي	-7774
لونه	-7775
ماشي	-7776
مليه	-7777
ميمه	-7778
واصف	-7779
يالي	-7780
▁1.3	-7781
▁115	-7782
▁153	-7783
▁175	-7784
▁189	-7785
▁ؤاد	-7786
▁اءه	-7787
▁اتب	-7788
▁ادر	-7789
▁ادم	-7790
▁ازد	-7791
▁اصو	-7792
▁اكل	-7793
▁اوي	-7794
▁ترو	-7795
▁تكس	-7796
▁توط	-7797
▁جيب	-7798
▁جيل	-7799
▁حاف	-7800
▁حدا	-7801
▁حلي	-7802
▁حمص	-7803
▁حوث	-7804
▁حور	-7805
▁حير	-7806
▁خضع	-7807
▁دعي	-7808
▁دفن	-7809
▁ذاك	-7810
▁رطب	-7811
▁رير	-7812
▁زيد	-7813
▁شنت	-7814
▁صحف	-7815
▁صدي	-7816
▁ظبي	-7817
▁عيش	-7818
▁غدت	-7819
▁غرف	-7820
▁غزه	-7821
▁قصص	-7822
▁مئه	-7823
▁متف	-7824
▁مجا	-7825
▁مخط	-7826
▁مرح	-7827
▁مصن	-7828
▁منص	-7829
▁منق	-7830
▁نقد	-7831
▁نيل	-7832
▁هوس	-7833
▁يبق	-7834
▁يتب	-7835
▁يتش	-7836
▁يرن	-7837
▁يصف	-7838
▁يفل	-7839
▁يكت	-7840
▁يلت	-7841
▁يوف	-7842
انيوم	-7843
حاريه	-7844
روسيه	-7845
طنبول	-7846
كاريه	-7847
كندنا	-7848
لاحظه	-7849
▁1624	-7850
▁1900	-7851
▁1926	-7852
▁1946	-7853
▁1955	-7854
▁1983	-7855
▁اثنت	-7856
▁احرق	-7857
▁اختي	-7858
▁ادرج	-7859
▁اراب	-7860
▁ارسي	-7861
▁اسبو	-7862
▁اكدت	-7863
▁الرؤ	-7864
▁العز	-7865
▁الفئ	-7866
▁الكف	-7867
▁الكو	-7868
▁الني	-7869
▁انفت	-7870
▁اوتو	-7871
▁تجعل	-7872
▁تخلي	-7873
▁تدمر	-7874
▁ترجم	-7875
▁تركي	-7876
▁تريد	-7877
▁تزخر	-7878
▁تسير	-7879
▁تصور	-7880
▁تطلب	-7881
▁تنسب	-7882
▁تنشا	-7883
▁جاءه	-7884
▁جمعت	-7885
▁جهاء	-7886
▁جوقه	-7887
▁جيشا	-7888
▁جيكا	-7889
▁حافه	-7890
▁حسان	-7891
▁حظيت	-7892
▁حليم	-7893
▁حوار	-7894
▁خيار	-7895
▁دوما	-7896
▁ذروت	-7897
▁ذكري	-7898
▁ذهبت	-7899
▁راءه	-7900
▁رانس	-7901
▁رجلا	-7902
▁رغبه	-7903
▁رواد	-7904
▁ريمر	-7905
▁زجاج	-7906
▁زمان	-7907
▁شاهد	-7908
▁شمير	-7909
▁ضربت	-7910
▁طلبت	-7911
▁طورت	-7912
▁عاله	-7913
▁عباس	-7914
▁عدها	-7915
▁عرضا	-7916
▁عصبه	-7917
▁عقار	-7918
▁عنان	-7919
▁غطاء	-7920
▁غياب	-7921
▁قابل	-7922
▁قاتل	-7923
▁قريب	-7924
▁قصور	-7925
▁مذهب	-7926
▁مراد	-7927
▁مرسي	-7928
▁مساء	-7929
▁مسجل	-7930
▁مسلح	-7931
▁مسيح	-7932
▁مشغل	-7933
▁مشكل	-7934
▁مصمم	-7935
▁مملك	-7936
▁ميزه	-7937
▁نائس	-7938
▁ناقش	-7939
▁نموذ	-7940
▁هدفا	-7941
▁هيرد	-7942
▁يتفق	-7943
▁يديو	-7944
▁يريت	-7945
▁يفصل	-7946
▁يفضل	-7947
▁يفوز	-7948
▁يقضي	-7949
▁يلعب	-7950
▁يورك	-7951
▁2012.	-7952
▁2014.	-7953
▁2020.	-7954
▁2021،	-7955
▁2022،	-7956
▁اثنان	-7957
▁ادبيه	-7958
▁استرج	-7959
▁استقط	-7960
▁اشياء	-7961
▁اضطرت	-7962
▁اعصار	-7963
▁اقامت	-7964
▁اكسوم	-7965
▁الابا	-7966
▁الابق	-7967
▁الاخص	-7968
▁الالز	-7969
▁الاور	-7970
▁البرج	-7971
▁البرق	-7972
▁التكو	-7973
▁الثلث	-7974
▁الثلج	-7975
▁الجدل	-7976
▁الجيل	-7977
▁الحين	-7978
▁الخبز	-7979
▁الخطط	-7980
▁الدرس	-7981
▁الدفع	-7982
▁الرسل	-7983
▁السكر	-7984
▁السلم	-7985
▁الصدر	-7986
▁الصين	-7987
▁الضعف	-7988
▁الطوب	-7989
▁العبد	-7990
▁العدو	-7991
▁الفتي	-7992
▁الفجر	-7993
▁الفرا	-7994
▁الفصل	-7995
▁الفقر	-7996
▁الفير	-7997
▁القمح	-7998
▁المان	-7999
▁المرس	-8000
▁المشر	-8001
▁النجف	-8002
▁الهاد	-8003
▁الوعي	-8004
▁امثله	-8005
▁امداد	-8006
▁اميان	-8007
▁انتخب	-8008
▁انديه	-8009
▁انهما	-8010
▁اهميت	-8011
▁اوضاع	-8012
▁ايقاع	-8013
▁ايقاف	-8014
▁ايمان	-8015
▁تحاول	-8016
▁تخفيف	-8017
▁ترجمت	-8018
▁ترويج	-8019
▁تساعد	-8020
▁تسببت	-8021
▁تضاعف	-8022
▁تعادل	-8023
▁تقويم	-8024
▁تلبيه	-8025
▁تمتعت	-8026
▁توركو	-8027
▁توفيق	-8028
▁توليه	-8029
▁ثابته	-8030
▁جبريل	-8031
▁جمادي	-8032
▁جنسيه	-8033
▁جيران	-8034
▁حقاني	-8035
▁خساره	-8036
▁دوستم	-8037
▁ديانه	-8038
▁ذاتها	-8039
▁رؤيته	-8040
▁ربلاء	-8041
▁رمضان	-8042
▁صلاحي	-8043
▁ضروره	-8044
▁طوائف	-8045
▁عدنان	-8046
▁عظيمه	-8047
▁عملاء	-8048
▁قالوا	-8049
▁قتلوا	-8050
▁مؤلفه	-8051
▁متميز	-8052
▁مجاني	-8053
▁محميه	-8054
▁مرافق	-8055
▁مربعه	-8056
▁مزارع	-8057
▁مساهم	-8058
▁مستقب	-8059
▁مسندم	-8060
▁مشتقه	-8061
▁مطوري	-8062
▁معترف	-8063
▁مغلقه	-8064
▁مفاعل	-8065
▁مقاتل	-8066
▁مقعدا	-8067
▁ممارس	-8068
▁منسوب	-8069
▁مواصل	-8070
▁مواقف	-8071
▁نجران	-8072
▁نيابه	-8073
▁نينوي	-8074
▁هواتف	-8075
▁يتركز	-8076
▁يتوسط	-8077
▁يطروا	-8078
▁يمكنك	-8079
▁احتفظت	-8080
▁احصائي	-8081
▁اختيرت	-8082
▁اراضيه	-8083
▁اسلامي	-8084
▁اكتسبت	-8085
▁الادله	-8086
▁الاستف	-8087
▁الاطار	-8088
▁الاقدم	-8089
▁الاونه	-8090
▁البريد	-8091
▁التباد	-8092
▁التتار	-8093
▁التركي	-8094
▁التعرف	-8095
▁التوقع	-8096
▁الثلوج	-8097
▁الجيزه	-8098
▁الحارث	-8099
▁الحبشي	-8100
▁الحجاج	-8101
▁الحداد	-8102
▁الحسين	-8103
▁الحقول	-8104
▁الحمام	-8105
▁الحيره	-8106
▁الخطوه	-8107
▁الخمسه	-8108
▁الدائم	-8109
▁الداخل	-8110
▁الدجاج	-8111
▁الدروز	-8112
▁الراشد	-8113
▁الرفاه	-8114
▁الزائر	-8115
▁السويس	-8116
▁الشارع	-8117
▁الشاطئ	-8118
▁الشامي	-8119
▁الشرعي	-8120
▁الشوري	-8121
▁الصخور	-8122
▁الصعيد	-8123
▁الطعام	-8124
▁العتاد	-8125
▁العداء	-8126
▁العشاء	-8127
▁الغوطه	-8128
▁القبله	-8129
▁القريب	-8130
▁القريه	-8131
▁القوقا	-8132
▁الكحول	-8133
▁الكولي	-8134
▁اللؤلؤ	-8135
▁اللاعب	-8136
▁اللبان	-8137
▁اللفظه	-8138
▁المبلغ	-8139
▁المدرب	-8140
▁المستق	-8141
▁المسلح	-8142
▁المشاه	-8143
▁المضاد	-8144
▁المطرب	-8145
▁المطلب	-8146
▁المعلق	-8147
▁المفكر	-8148
▁المقال	-8149
▁المنتم	-8150
▁الموقف	-8151
▁النظري	-8152
▁النقاش	-8153
▁النقود	-8154
▁الهجري	-8155
▁الهطول	-8156
▁الهيكل	-8157
▁الواجه	-8158
▁انخفضت	-8159
▁انسحبت	-8160
▁تاثيرا	-8161
▁تستحوذ	-8162
▁تطويره	-8163
▁تهديدا	-8164
▁ثقافيا	-8165
▁حرياته	-8166
▁رشلونه	-8167
▁متطوره	-8168
▁مدينتي	-8169
▁مسؤوله	-8170
▁مسؤولي	-8171
▁مساحته	-8172
▁مطالبه	-8173
▁مغادره	-8174
▁منتشره	-8175
▁يستقبل	-8176
▁اثيوبيا	-8177
▁استعادت	-8178
▁استفتاء	-8179
▁استيعاب	-8180
▁اسطنبول	-8181
▁الاثنان	-8182
▁الاحصاء	-8183
▁الاطاحه	-8184
▁الاطلاع	-8185
▁الاعياد	-8186
▁الالياف	-8187
▁الامداد	-8188
▁الاملاح	-8189
▁البالغه	-8190
▁البوذيه	-8191
▁التاكيد	-8192
▁التركيب	-8193
▁التقدير	-8194
▁الجماعي	-8195
▁الجولان	-8196
▁الحدائق	-8197
▁الخوادم	-8198
▁الذهبيه	-8199
▁الرئاسه	-8200
▁الرساله	-8201
▁الروابط	-8202
▁الزياده	-8203
▁الساحلي	-8204
▁السبئيه	-8205
▁السباحه	-8206
▁الستيني	-8207
▁الشيعيه	-8208
▁الصينيه	-8209
▁العلامه	-8210
▁العماله	-8211
▁الفعليه	-8212
▁الفنادق	-8213
▁القابله	-8214
▁المالكه	-8215
▁المبادئ	-8216
▁المتاحه	-8217
▁المحترف	-8218
▁المذاهب	-8219
▁المراجع	-8220
▁المزارع	-8221
▁المصالح	-8222
▁المطلوب	-8223
▁المعقول	-8224
▁المعيشه	-8225
▁المقاتل	-8226
▁المنوره	-8227
▁المواقف	-8228
▁الميدان	-8229
▁الناتجه	-8230
▁النموذج	-8231
▁الهندوس	-8232
▁الواجهه	-8233
▁الوزاره	-8234
▁توكهولم	-8235
▁حكمتيار	-8236
▁متزايده	-8237
▁يتوانيا	-8238
▁اتدرائيه	-8239
▁الاحصائي	-8240
▁الارتفاع	-8241
▁الاعتداء	-8242
▁الاعتراف	-8243
▁الاعلامي	-8244
▁الالتزام	-8245
▁الاميركي	-8246
▁البرازيل	-8247
▁البرمجيه	-8248
▁الجامعيه	-8249
▁الحضاريه	-8250
▁السلاجقه	-8251
▁السماويه	-8252
▁الكتروني	-8253
▁اللوثريه	-8254
▁المبادره	-8255
▁المجالات	-8256
▁المجانيه	-8257
▁المصدريه	-8258
▁المطالبه	-8259
▁المعايير	-8260
▁المفاهيم	-8261
▁المفروضه	-8262
▁المكتبيه	-8263
▁المناسبه	-8264
▁المناهضه	-8265
▁النباهنه	-8266
▁اليونسكو	-8267
▁تورفالدس	-8268
▁استراتيجي	-8269
▁الاخباريه	-8270
▁الارثوذكس	-8271
▁الاستعمال	-8272
▁الاعلانيه	-8273
▁الاكاديمي	-8274
▁البرمجيات	-8275
▁البيروتيه	-8276
▁البيولوجي	-8277
▁التجريبيه	-8278
▁التوراتيه	-8279
▁السلطانيه	-8280
▁المجموعات	-8281
▁المستوطنه	-8282
▁الاكاديميه	-8283
▁الثمانينات	-8284
,9	-8285
.4	-8286
1)	-8287
2)	-8288
48	-8289
68	-8290
69	-8291
:-	-8292
ئب	-8293
بؤ	-8294
رس	-8295
ضب	-8296
-17	-8297
-20	-8298
اتا	-8299
ازف	-8300
ازي	-8301
اشي	-8302
اطر	-8303
انم	-8304
اهو	-8305
باش	-8306
بدل	-8307
تلر	-8308
ثلي	-8309
ثيق	-8310
حال	-8311
خام	-8312
خله	-8313
درج	-8314
ذنه	-8315
راس	-8316
ربا	-8317
رمه	-8318
سات	-8319
سهل	-8320
سيل	-8321
شاد	-8322
شان	-8323
صام	-8324
ضيح	-8325
طبق	-8326
فاذ	-8327
فيز	-8328
قطع	-8329
كلف	-8330
كوف	-8331
كيز	-8332
لزم	-8333
مله	-8334
نيد	-8335
هله	-8336
وتو	-8337
ورس	-8338
ونا	-8339
وهر	-8340
ويا	-8341
يرو	-8342
يله	-8343
▁(9	-8344
▁34	-8345
▁48	-8346
▁58	-8347
▁71	-8348
▁73	-8349
▁77	-8350
▁83	-8351
▁85	-8352
▁98	-8353
▁بق	-8354
▁ثر	-8355
▁دب	-8356
▁رث	-8357
▁سر	-8358
▁شت	-8359
▁صق	-8360
▁طا	-8361
▁غذ	-8362
▁قذ	-8363
▁قه	-8364
▁كب	-8365
▁كس	-8366
▁نن	-8367
▁هب	-8368
▁يئ	-8369
.000	-8370
000)	-8371
0000	-8372
ابيب	-8373
اتيح	-8374
ادرت	-8375
اضعه	-8376
انيت	-8377
بيعه	-8378
تبره	-8379
تسمي	-8380
جهيز	-8381
رائح	-8382
رائق	-8383
راجه	-8384
ستمز	-8385
سندر	-8386
ضييق	-8387
طلاع	-8388
فيحه	-8389
قاقه	-8390
كرره	-8391
لاقي	-8392
ليان	-8393
ليدي	-8394
ليوس	-8395
نافس	-8396
نتوس	-8397
وارئ	-8398
واصل	-8399
وانه	-8400
وليس	-8401
يكيه	-8402
ينها	-8403
▁(15	-8404
▁1.4	-8405
▁105	-8406
▁450	-8407
▁750	-8408
▁ابج	-8409
▁احظ	-8410
▁امد	-8411
▁اوت	-8412
▁اوج	-8413
▁تار	-8414
▁تبا	-8415
▁تجب	-8416
▁تطه	-8417
▁تهم	-8418
▁ثها	-8419
▁جار	-8420
▁جرش	-8421
▁حبت	-8422
▁حصر	-8423
▁حقي	-8424
▁حيد	-8425
▁خلع	-8426
▁خير	-8427
▁درب	-8428
▁دوا	-8429
▁راب	-8430
▁راح	-8431
▁رصد	-8432
▁رضا	-8433
▁رقي	-8434
▁رود	-8435
▁روم	-8436
▁زعم	-8437
▁شحن	-8438
▁شرع	-8439
▁شلل	-8440
▁شمر	-8441
▁ضده	-8442
▁عثه	-8443
▁عرش	-8444
▁عمه	-8445
▁قتا	-8446
▁قرق	-8447
▁قلت	-8448
▁قمر	-8449
▁قمع	-8450
▁قند	-8451
▁قوف	-8452
▁قول	-8453
▁ماح	-8454
▁ماخ	-8455
▁مبي	-8456
▁متب	-8457
▁مجل	-8458
▁محب	-8459
▁مخز	-8460
▁مدح	-8461
▁مفا	-8462
▁ميث	-8463
▁نتي	-8464
▁نيس	-8465
▁هجر	-8466
▁يبت	-8467
▁يرك	-8468
▁يضا	-8469
▁يكو	-8470
0.000	-8471
انتوس	-8472
بيتور	-8473
تياله	-8474
شداشه	-8475
صائيه	-8476
ميديا	-8477
واريخ	-8478
▁1200	-8479
▁1930	-8480
▁1951	-8481
▁1957	-8482
▁1974	-8483
▁6000	-8484
▁ابتد	-8485
▁اتسم	-8486
▁اتصل	-8487
▁اثبت	-8488
▁اثني	-8489
▁اخبر	-8490
▁ارمن	-8491
▁اسقط	-8492
▁اشرف	-8493
▁اضحت	-8494
▁اظهر	-8495
▁اعرب	-8496
▁اقنا	-8497
▁الجل	-8498
▁الخس	-8499
▁الرد	-8500
▁السا	-8501
▁الغي	-8502
▁امتد	-8503
▁امضي	-8504
▁انتظ	-8505
▁اهما	-8506
▁اودي	-8507
▁ايلي	-8508
▁تؤثر	-8509
▁تبدو	-8510
▁تبرز	-8511
▁تبعا	-8512
▁تحال	-8513
▁تحرص	-8514
▁تخطي	-8515
▁تروي	-8516
▁تزوج	-8517
▁تعقد	-8518
▁تغني	-8519
▁تفصل	-8520
▁تكثر	-8521
▁تلال	-8522
▁تمرد	-8523
▁تمنع	-8524
▁تهمه	-8525
▁ثقاف	-8526
▁ثلثي	-8527
▁جدول	-8528
▁جمعه	-8529
▁جنسي	-8530
▁حارت	-8531
▁خبره	-8532
▁خرجت	-8533
▁خزان	-8534
▁خطاب	-8535
▁خوفا	-8536
▁دامت	-8537
▁داوا	-8538
▁دعمه	-8539
▁ذكره	-8540
▁ذكور	-8541
▁رهان	-8542
▁روعه	-8543
▁شامل	-8544
▁شانه	-8545
▁شريك	-8546
▁شعبي	-8547
▁شكلا	-8548
▁شهاد	-8549
▁شيعه	-8550
▁صيدا	-8551
▁ضربه	-8552
▁ضعفت	-8553
▁ضغوط	-8554
▁طراز	-8555
▁طيني	-8556
▁عطيه	-8557
▁عظيم	-8558
▁غروب	-8559
▁غيرت	-8560
▁قريش	-8561
▁ماكر	-8562
▁مبدا	-8563
▁مختل	-8564
▁مخلف	-8565
▁مدحت	-8566
▁مراف	-8567
▁مشرو	-8568
▁مطور	-8569
▁منهج	-8570
▁موضع	-8571
▁ميتس	-8572
▁ناشر	-8573
▁ناصر	-8574
▁ندره	-8575
▁نزول	-8576
▁نشاه	-8577
▁نشبت	-8578
▁نشره	-8579
▁نشوب	-8580
▁نعان	-8581
▁نقوش	-8582
▁هتلر	-8583
▁يتخذ	-8584
▁يتنا	-8585
▁يجذب	-8586
▁يذهب	-8587
▁يراس	-8588
▁يرفع	-8589
▁يركز	-8590
▁يسجل	-8591
▁يطبق	-8592
▁يعكس	-8593
▁يمنع	-8594
▁يميل	-8595
▁ينظم	-8596
▁ينفذ	-8597
▁يونس	-8598
ونيسيا	-8599
▁1940.	-8600
▁1940،	-8601
▁1945،	-8602
▁1986،	-8603
▁1988،	-8604
▁1991.	-8605
▁1991،	-8606
▁1993،	-8607
▁1999.	-8608
▁2016.	-8609
▁اتهام	-8610
▁اجانب	-8611
▁اجتمع	-8612
▁ارسيه	-8613
▁اسهام	-8614
▁اضافت	-8615
▁اضعاف	-8616
▁اعجاب	-8617
▁الاتي	-8618
▁الاثر	-8619
▁الارب	-8620
▁الافي	-8621
▁الانط	-8622
▁الايج	-8623
▁الباش	-8624
▁البدء	-8625
▁البسا	-8626
▁البعد	-8627
▁التلف	-8628
▁التمه	-8629
▁الجري	-8630
▁الجنه	-8631
▁الحائ	-8632
▁الخان	-8633
▁الدار	-8634
▁الدفن	-8635
▁الساع	-8636
▁السلي	-8637
▁السني	-8638
▁الشرا	-8639
▁الصال	-8640
▁الضوء	-8641
▁العاص	-8642
▁العطل	-8643
▁العيش	-8644
▁الغرض	-8645
▁الفتر	-8646
▁الفشل	-8647
▁القيم	-8648
▁الكوا	-8649
▁اللغت	-8650
▁المتش	-8651
▁المده	-8652
▁النسب	-8653
▁النيه	-8654
▁الورق	-8655
▁الوزن	-8656
▁الوفي	-8657
▁امراض	-8658
▁امكان	-8659
▁انشائ	-8660
▁اواسط	-8661
▁اوبرا	-8662
▁تارتو	-8663
▁تتحدث	-8664
▁تتشكل	-8665
▁تتنوع	-8666
▁تحافظ	-8667
▁تحتفظ	-8668
▁تحصيل	-8669
▁ترامب	-8670
▁تركوا	-8671
▁تستمر	-8672
▁تسميت	-8673
▁تسيير	-8674
▁تصدير	-8675
▁تعاقب	-8676
▁تغيرت	-8677
▁تفتيش	-8678
▁تفعيل	-8679
▁تمتاز	-8680
▁تمييز	-8681
▁تهيئه	-8682
▁تواجه	-8683
▁توقفت	-8684
▁توقيت	-8685
▁جبليه	-8686
▁جميله	-8687
▁حاسمه	-8688
▁حوران	-8689
▁دائمه	-8690
▁داخله	-8691
▁دبليو	-8692
▁ديدان	-8693
▁رائده	-8694
▁رفضوا	-8695
▁زمنيه	-8696
▁شخصيا	-8697
▁شعراء	-8698
▁شقيقه	-8699
▁صالحه	-8700
▁صعوبه	-8701
▁عامله	-8702
▁عنصرا	-8703
▁عواصم	-8704
▁عوديه	-8705
▁قدمته	-8706
▁قدموا	-8707
▁متاحه	-8708
▁محايد	-8709
▁مزاعم	-8710
▁مستعم	-8711
▁مصلحه	-8712
▁مطبعه	-8713
▁مظاهر	-8714
▁مقسمه	-8715
▁مميزه	-8716
▁منخفض	-8717
▁منفصل	-8718
▁مهاره	-8719
▁موقعه	-8720
▁نائبا	-8721
▁نبوخذ	-8722
▁نزلوا	-8723
▁هاجرت	-8724
▁هاجمت	-8725
▁هجوما	-8726
▁هندسه	-8727
▁يتوفر	-8728
▁يرتفع	-8729
▁يستمر	-8730
▁يستند	-8731
▁يشتمل	-8732
▁يعاني	-8733
▁يعتنق	-8734
▁يوميه	-8735
▁يوهان	-8736
▁اختصاص	-8737
▁اداريه	-8738
▁استبدل	-8739
▁اشتراك	-8740
▁اعتراف	-8741
▁اقامته	-8742
▁الاجره	-8743
▁الادار	-8744
▁الارضي	-8745
▁البيئي	-8746
▁التامل	-8747
▁التجار	-8748
▁التحول	-8749
▁التخلص	-8750
▁التخلي	-8751
▁التعلم	-8752
▁التلال	-8753
▁التنبؤ	-8754
▁الثابت	-8755
▁الجدول	-8756
▁الجدير	-8757
▁الجميع	-8758
▁الجندل	-8759
▁الحبوب	-8760
▁الحلول	-8761
▁الحوثي	-8762
▁الخطيب	-8763
▁الخيمه	-8764
▁الدعوه	-8765
▁الدعوي	-8766
▁الدمار	-8767
▁الدوره	-8768
▁الراحل	-8769
▁الرايخ	-8770
▁السريه	-8771
▁الصعبه	-8772
▁الصلبه	-8773
▁الصليب	-8774
▁الضباط	-8775
▁العرقي	-8776
▁العلوي	-8777
▁الفاره	-8778
▁الفراغ	-8779
▁القادم	-8780
▁القاره	-8781
▁القيصر	-8782
▁الكندي	-8783
▁اللذان	-8784
▁اللعبه	-8785
▁المبار	-8786
▁المبيع	-8787
▁المثقف	-8788
▁المثلث	-8789
▁المحدث	-8790
▁المحور	-8791
▁المرشح	-8792
▁المساح	-8793
▁المقات	-8794
▁الملعب	-8795
▁النسبي	-8796
▁النقاط	-8797
▁النقطه	-8798
▁النووي	-8799
▁الوادي	-8800
▁الواسع	-8801
▁الويكي	-8802
▁اليسري	-8803
▁امتلاك	-8804
▁انابيب	-8805
▁انطلقت	-8806
▁تدهورت	-8807
▁تراجعت	-8808
▁تراخيص	-8809
▁تصميمه	-8810
▁توزيعه	-8811
▁داخليا	-8812
▁رسالته	-8813
▁قياسيه	-8814
▁ماهوله	-8815
▁متزايد	-8816
▁محفوظه	-8817
▁مدفوعه	-8818
▁مستشار	-8819
▁مستوطن	-8820
▁مشابهه	-8821
▁معتدله	-8822
▁مهاجمه	-8823
▁نهائيا	-8824
▁هولندا	-8825
▁يبيتور	-8826
▁يتماشي	-8827
▁يكونوا	-8828
▁يهوديه	-8829
روسيستمز	-8830
كندنافيه	-8831
▁اختياره	-8832
▁استجابه	-8833
▁استرجاع	-8834
▁استيراد	-8835
▁اغتياله	-8836
▁افريقيه	-8837
▁اكستاني	-8838
▁الابنيه	-8839
▁الاحجار	-8840
▁الاخرين	-8841
▁الارسال	-8842
▁الاشراف	-8843
▁الانصار	-8844
▁الاهمال	-8845
▁البديهي	-8846
▁البسيطه	-8847
▁البوكرك	-8848
▁التجزئه	-8849
▁التجنيد	-8850
▁التشريع	-8851
▁التصدير	-8852
▁التصنيع	-8853
▁التضييق	-8854
▁التعويض	-8855
▁التمثيل	-8856
▁التنقيب	-8857
▁التوابل	-8858
▁الجداول	-8859
▁الجرائم	-8860
▁الحديقه	-8861
▁الحسيني	-8862
▁الحقائق	-8863
▁الخاضعه	-8864
▁الدكتور	-8865
▁الذاتيه	-8866
▁الرسوبي	-8867
▁الريفيه	-8868
▁الزياره	-8869
▁السبعين	-8870
▁السلبيه	-8871
▁الشاميه	-8872
▁الشرعيه	-8873
▁الشعريه	-8874
▁الشهاده	-8875
▁الصخريه	-8876
▁الصوفيه	-8877
▁الضروره	-8878
▁الضروري	-8879
▁العدديه	-8880
▁العمريه	-8881
▁العواصف	-8882
▁الغازيه	-8883
▁الغريبه	-8884
▁القانون	-8885
▁القطبيه	-8886
▁الكسندر	-8887
▁المبنيه	-8888
▁المتغير	-8889
▁المتمثل	-8890
▁المجوهر	-8891
▁المساهم	-8892
▁المستمع	-8893
▁المسلسل	-8894
▁المشروب	-8895
▁المصفوف	-8896
▁المقاهي	-8897
▁المكرمه	-8898
▁الملوحه	-8899
▁المنسوج	-8900
▁المهدده	-8901
▁النماذج	-8902
▁النوافذ	-8903
▁الهياكل	-8904
▁الوارده	-8905
▁الوثنيه	-8906
▁الوثيقه	-8907
▁الوديان	-8908
▁حمورابي	-8909
▁علاقاته	-8910
▁مسؤوليه	-8911
▁هامبورغ	-8912
▁الاتحادي	-8913
▁الاحتجاج	-8914
▁الاخباري	-8915
▁الاسباني	-8916
▁الاستهلا	-8917
▁الاعتقاد	-8918
▁الانساني	-8919
▁البيارته	-8920
▁البيانات	-8921
▁البيروتي	-8922
▁التكاليف	-8923
▁التلفازي	-8924
▁التليفزي	-8925
▁الجمهوري	-8926
▁الدراسيه	-8927
▁الفضائيه	-8928
▁الفيزياء	-8929
▁الكيمياء	-8930
▁اللحياني	-8931
▁المتزايد	-8932
▁المتوقعه	-8933
▁المدعومه	-8934
▁المراقبه	-8935
▁المعادله	-8936
▁المعاهده	-8937
▁المعيشيه	-8938
▁المملوكه	-8939
▁المملوكي	-8940
▁المنطقيه	-8941
▁المواليه	-8942
▁النباتيه	-8943
▁النهائيه	-8944
▁الابتدائي	-8945
▁الاحتياطي	-8946
▁الاردنيين	-8947
▁الاستطلاع	-8948
▁الاستفاده	-8949
▁الجرمانيه	-8950
▁الجغرافيا	-8951
▁الساسانيه	-8952
▁الفدراليه	-8953
▁الكترونيه	-8954
▁المتداوله	-8955
▁المندائيه	-8956
▁الهندوسيه	-8957
▁اندونيسيا	-8958
▁ميدياويكي	-8959
▁الانتقاليه	-8960
▁البرتغاليه	-8961
▁البروتوكول	-8962
▁الدبلوماسي	-8963
▁ميكروسيستمز	-8964
▁البروتستانتيه	-8965
,1	-8966
21	-8967
59	-8968
ثف	-8969
ثق	-8970
حط	-8971
دز	-8972
زج	-8973
سس	-8974
شم	-8975
صم	-8976
غت	-8977
قم	-8978
400	-8979
ابد	-8980
اثه	-8981
ارن	-8982
اهه	-8983
بده	-8984
ثلا	-8985
جاز	-8986
جال	-8987
حسب	-8988
خير	-8989
دوء	-8990
ديك	-8991
ديي	-8992
ذلك	-8993
رود	-8994
زاز	-8995
زيا	-8996
سبب	-8997
سين	-8998
شال	-8999
شكل	-9000
صرف	-9001
طاه	-9002
طقت	-9003
عاش	-9004
عال	-9005
عله	-9006
عيا	-9007
قان	-9008
قيد	-9009
قيف	-9010
كاس	-9011
كبه	-9012
كسو	-9013
لاغ	-9014
مبي	-9015
مرا	-9016
معه	-9017
موع	-9018
ناد	-9019
نوا	-9020
وبك	-9021
ورز	-9022
ونخ	-9023
ونز	-9024
ونن	-9025
ويج	-9026
ياح	-9027
يكس	-9028
ينز	-9029
ييس	-9030
▁47	-9031
▁61	-9032
▁62	-9033
▁67	-9034
▁81	-9035
▁بو	-9036
▁حش	-9037
▁حط	-9038
▁خت	-9039
▁رغ	-9040
▁زخ	-9041
▁شح	-9042
▁شم	-9043
▁عك	-9044
▁فك	-9045
▁لب	-9046
▁هز	-9047
▁هش	-9048
▁يظ	-9049
,500	-9050
،000	-9051
ئيله	-9052
ائيل	-9053
اثره	-9054
ارمه	-9055
اريت	-9056
اريو	-9057
اشيه	-9058
اضله	-9059
اقبه	-9060
الان	-9061
امره	-9062
اندو	-9063
اورج	-9064
ايام	-9065
بالي	-9066
ترول	-9067
تمعه	-9068
خيره	-9069
دمجت	-9070
راكب	-9071
رخان	-9072
رهان	-9073
روقه	-9074
رويه	-9075
شستر	-9076
صليه	-9077
ضمنه	-9078
طرنج	-9079
قيله	-9080
قيمه	-9081
لكان	-9082
لوجه	-9083
ماري	-9084
مرار	-9085
مركز	-9086
موجه	-9087
موري	-9088
موقه	-9089
هدفت	-9090
هرام	-9091
وارث	-9092
واري	-9093
وايه	-9094
وبان	-9095
وديو	-9096
وراء	-9097
يائي	-9098
يطان	-9099
▁110	-9100
▁160	-9101
▁162	-9102
▁172	-9103
▁188	-9104
▁350	-9105
▁5.5	-9106
▁احب	-9107
▁ادئ	-9108
▁ارث	-9109
▁ارز	-9110
▁اسي	-9111
▁اطل	-9112
▁ايب	-9113
▁تبد	-9114
▁تحص	-9115
▁تصح	-9116
▁تصف	-9117
▁تعز	-9118
▁تلف	-9119
▁تلو	-9120
▁تمك	-9121
▁تيك	-9122
▁ثائ	-9123
▁جرا	-9124
▁جسم	-9125
▁جمه	-9126
▁جول	-9127
▁حاد	-9128
▁حمي	-9129
▁خور	-9130
▁داف	-9131
▁دعو	-9132
▁دفي	-9133
▁دوت	-9134
▁ذره	-9135
▁رخص	-9136
▁رضي	-9137
▁رها	-9138
▁روف	-9139
▁ريم	-9140
▁شائ	-9141
▁شاب	-9142
▁شار	-9143
▁شجع	-9144
▁شرا	-9145
▁شرف	-9146
▁شلت	-9147
▁ضبط	-9148
▁ضرو	-9149
▁ضوء	-9150
▁ضيق	-9151
▁طري	-9152
▁طفل	-9153
▁طمو	-9154
▁طني	-9155
▁عائ	-9156
▁عدي	-9157
▁عكا	-9158
▁غسل	-9159
▁قيس	-9160
▁مائ	-9161
▁متس	-9162
▁مسح	-9163
▁مسل	-9164
▁معي	-9165
▁نبه	-9166
▁نزح	-9167
▁هاب	-9168
▁هاد	-9169
▁هوت	-9170
▁هود	-9171
▁يبي	-9172
▁يتج	-9173
▁يدم	-9174
▁يدي	-9175
▁يرد	-9176
▁يطل	-9177
▁يفا	-9178
▁يكس	-9179
برالي	-9180
بلورر	-9181
بيليه	-9182
تلاند	-9183
راليا	-9184
ريبيه	-9185
ساميه	-9186
سبورغ	-9187
ستوري	-9188
صادره	-9189
ويليه	-9190
▁1800	-9191
▁1917	-9192
▁1947	-9193
▁1952	-9194
▁1977	-9195
▁7000	-9196
▁ابار	-9197
▁ابنت	-9198
▁اجرا	-9199
▁اجمل	-9200
▁ادهم	-9201
▁ادوم	-9202
▁اذاع	-9203
▁اراض	-9204
▁ارثه	-9205
▁اريت	-9206
▁اضحا	-9207
▁اعبي	-9208
▁اعجب	-9209
▁اعدم	-9210
▁اعطت	-9211
▁افضت	-9212
▁اقيم	-9213
▁التت	-9214
▁الزخ	-9215
▁السخ	-9216
▁الشت	-9217
▁العص	-9218
▁العط	-9219
▁الوع	-9220
▁تاخذ	-9221
▁تاخر	-9222
▁تامل	-9223
▁تتصل	-9224
▁تجار	-9225
▁تدور	-9226
▁ترفض	-9227
▁تركت	-9228
▁تركه	-9229
▁تسجل	-9230
▁تسلم	-9231
▁تسوق	-9232
▁تشرف	-9233
▁تصنع	-9234
▁تعهد	-9235
▁تعيد	-9236
▁تفيد	-9237
▁تميم	-9238
▁تنحي	-9239
▁تنشر	-9240
▁تورط	-9241
▁جابر	-9242
▁جذبت	-9243
▁جزيء	-9244
▁جلده	-9245
▁جناح	-9246
▁جيتس	-9247
▁حثيه	-9248
▁حماس	-9249
▁حيات	-9250
▁حيوي	-9251
▁خاصا	-9252
▁خريف	-9253
▁خصبه	-9254
▁دقيق	-9255
▁دولا	-9256
▁دونم	-9257
▁ديار	-9258
▁ديان	-9259
▁ديوف	-9260
▁ذروه	-9261
▁رفقه	-9262
▁ركوب	-9263
▁ركوك	-9264
▁روكس	-9265
▁ريدم	-9266
▁ريما	-9267
▁شؤون	-9268
▁شبيه	-9269
▁شجاع	-9270
▁شعبه	-9271
▁صائل	-9272
▁صانع	-9273
▁صحرا	-9274
▁صديق	-9275
▁صممت	-9276
▁صيفا	-9277
▁طبيب	-9278
▁طلبا	-9279
▁طومس	-9280
▁ظاهر	-9281
▁عارض	-9282
▁عانت	-9283
▁عتاد	-9284
▁عربا	-9285
▁عربه	-9286
▁علمه	-9287
▁عهدا	-9288
▁عوضا	-9289
▁قاره	-9290
▁قباب	-9291
▁قبله	-9292
▁قدما	-9293
▁قراء	-9294
▁قرون	-9295
▁قوات	-9296
▁قويا	-9297
▁ماذا	-9298
▁مانه	-9299
▁مبره	-9300
▁مثلث	-9301
▁محسن	-9302
▁مخصص	-9303
▁مدني	-9304
▁مرضي	-9305
▁مرفا	-9306
▁مزود	-9307
▁مشتق	-9308
▁مصير	-9309
▁معرف	-9310
▁معلم	-9311
▁معها	-9312
▁معهم	-9313
▁مقعد	-9314
▁ملام	-9315
▁ملكي	-9316
▁مهار	-9317
▁نائه	-9318
▁نادق	-9319
▁نتاج	-9320
▁نخله	-9321
▁نذكر	-9322
▁نزوح	-9323
▁نسبت	-9324
▁نفيل	-9325
▁هارف	-9326
▁هوكي	-9327
▁هولا	-9328
▁يالي	-9329
▁يجبر	-9330
▁يخرج	-9331
▁يدعو	-9332
▁يسكن	-9333
▁يسهل	-9334
▁يشعر	-9335
▁يضمن	-9336
▁يعلن	-9337
▁يفكر	-9338
▁يقرا	-9339
▁يقلل	-9340
▁يكمل	-9341
▁ينشر	-9342
▁1941،	-9343
▁1948،	-9344
▁1958.	-9345
▁1967،	-9346
▁1976،	-9347
▁2015.	-9348
▁ابتكر	-9349
▁ابعاد	-9350
▁ابنيه	-9351
▁اجبرت	-9352
▁اجيال	-9353
▁اخضاع	-9354
▁ادراج	-9355
▁اردني	-9356
▁ارفيس	-9357
▁اركان	-9358
▁استيف	-9359
▁اسطول	-9360
▁اسماك	-9361
▁اسوار	-9362
▁اسيما	-9363
▁اطباق	-9364
▁اعتقل	-9365
▁اعفاء	-9366
▁اعيدت	-9367
▁افترا	-9368
▁اكمال	-9369
▁الابر	-9370
▁الاحد	-9371
▁الاري	-9372
▁الاسد	-9373
▁الاصط	-9374
▁الباص	-9375
▁البرب	-9376
▁البوس	-9377
▁التنس	-9378
▁التون	-9379
▁الثقه	-9380
▁الجرا	-9381
▁الجسد	-9382
▁الجمل	-9383
▁الجنا	-9384
▁الخنا	-9385
▁الزوج	-9386
▁الزور	-9387
▁السام	-9388
▁السجل	-9389
▁السيف	-9390
▁السيم	-9391
▁الشاه	-9392
▁الشاي	-9393
▁الشحن	-9394
▁الصعب	-9395
▁الصلح	-9396
▁العبر	-9397
▁العجم	-9398
▁العمه	-9399
▁الغزل	-9400
▁الفاع	-9401
▁الفقه	-9402
▁الفين	-9403
▁القحط	-9404
▁القطن	-9405
▁القمع	-9406
▁القيس	-9407
▁الكام	-9408
▁الكري	-9409
▁الكود	-9410
▁اللعب	-9411
▁الماك	-9412
▁المتت	-9413
▁المخط	-9414
▁المرء	-9415
▁المرف	-9416
▁المزد	-9417
▁المضط	-9418
▁المضي	-9419
▁المنص	-9420
▁المين	-9421
▁النفق	-9422
▁النمر	-9423
▁الوان	-9424
▁الورا	-9425
▁الوفد	-9426
▁اليور	-9427
▁اماما	-9428
▁امبرت	-9429
▁امتار	-9430
▁انصار	-9431
▁اهمها	-9432
▁اهموا	-9433
▁اوراق	-9434
▁تتاثر	-9435
▁تتحول	-9436
▁تتخلل	-9437
▁تتعرض	-9438
▁تتوزع	-9439
▁تثبيت	-9440
▁تجميد	-9441
▁تركيز	-9442
▁تركيه	-9443
▁تستطع	-9444
▁تشترك	-9445
▁تشتمل	-9446
▁تصوير	-9447
▁تكساس	-9448
▁تلقوا	-9449
▁تمثله	-9450
▁تناسب	-9451
▁تنامي	-9452
▁تنتهي	-9453
▁تنوعه	-9454
▁تهجير	-9455
▁تهديد	-9456
▁توالي	-9457
▁توثيق	-9458
▁توظيف	-9459
▁ثماني	-9460
▁جزئيه	-9461
▁جنوبه	-9462
▁حصوله	-9463
▁حكموا	-9464
▁حنيفه	-9465
▁حوادث	-9466
▁خطابا	-9467
▁خطيره	-9468
▁خلافه	-9469
▁خلكان	-9470
▁دعاوي	-9471
▁دوريه	-9472
▁ديالي	-9473
▁ذهبيه	-9474
▁رواتب	-9475
▁زراعي	-9476
▁شائعه	-9477
▁شاسعه	-9478
▁طرخان	-9479
▁عاشوا	-9480
▁عربيا	-9481
▁عضويت	-9482
▁عقوبه	-9483
▁علياء	-9484
▁قريبا	-9485
▁قيمته	-9486
▁مؤكده	-9487
▁ماخوذ	-9488
▁مادبا	-9489
▁ماركا	-9490
▁مايكل	-9491
▁مبارك	-9492
▁مبالغ	-9493
▁مبرمج	-9494
▁محاضر	-9495
▁مروان	-9496
▁مزايا	-9497
▁مسارح	-9498
▁مسبقا	-9499
▁مسجله	-9500
▁مشهور	-9501
▁مشيرا	-9502
▁مصريه	-9503
▁معاني	-9504
▁معكوس	-9505
▁مفيده	-9506
▁مقبره	-9507
▁مقتله	-9508
▁مكانت	-9509
▁مكونه	-9510
▁ملاعب	-9511
▁ممثله	-9512
▁مناجم	-9513
▁مناهج	-9514
▁مندوب	-9515
▁مهمته	-9516
▁مياهه	-9517
▁نائها	-9518
▁ناجحه	-9519
▁نترال	-9520
▁نجاحه	-9521
▁نوافذ	-9522
▁هيمنت	-9523
▁يتعرض	-9524
▁يتوزع	-9525
▁يتوقع	-9526
▁يجادل	-9527
▁يحتفظ	-9528
▁يسمون	-9529
▁يقاتل	-9530
▁يمنيه	-9531
▁ينتهي	-9532
▁يهودي	-9533
▁ابلاند	-9534
▁احتكار	-9535
▁ارتبطت	-9536
▁استفاد	-9537
▁اطلقوا	-9538
▁اعتبرت	-9539
▁اعدادا	-9540
▁اقتحام	-9541
▁الائمه	-9542
▁الاخره	-9543
▁الاشعه	-9544
▁الافتت	-9545
▁الامان	-9546
▁الامني	-9547
▁الاميه	-9548
▁البخار	-9549
▁البكال	-9550
▁البلاط	-9551
▁التاسي	-9552
▁التبخر	-9553
▁التبرع	-9554
▁التحقق	-9555
▁التراب	-9556
▁الترام	-9557
▁التقاط	-9558
▁التوصل	-9559
▁التوفي	-9560
▁الجزائ	-9561
▁الجزيه	-9562
▁الجيري	-9563
▁الحبشه	-9564
▁الحربي	-9565
▁الحضور	-9566
▁الحفري	-9567
▁الحيوي	-9568
▁الخروف	-9569
▁الخطيه	-9570
▁الدجال	-9571
▁الدراج	-9572
▁الديمو	-9573
▁الرائد	-9574
▁الرواي	-9575
▁الزيتي	-9576
▁السائد	-9577
▁السجود	-9578
▁السياق	-9579
▁الشديد	-9580
▁الشريط	-9581
▁الصادر	-9582
▁الصمام	-9583
▁الصيني	-9584
▁الطائف	-9585
▁الظاهر	-9586
▁العددي	-9587
▁العموم	-9588
▁الغطاء	-9589
▁الفخمه	-9590
▁الفريد	-9591
▁الفعلي	-9592
▁الفنون	-9593
▁الفونس	-9594
▁القارئ	-9595
▁القاطن	-9596
▁القباب	-9597
▁القسمه	-9598
▁القطار	-9599
▁الكاري	-9600
▁اللاحق	-9601
▁اللازم	-9602
▁اللباس	-9603
▁اللحوم	-9604
▁الليثي	-9605
▁الليره	-9606
▁المثلي	-9607
▁المثني	-9608
▁المختص	-9609
▁المدخل	-9610
▁المرجح	-9611
▁المسطح	-9612
▁المشكل	-9613
▁المطله	-9614
▁الملحق	-9615
▁الممتد	-9616
▁المنبع	-9617
▁المنفذ	-9618
▁المنفي	-9619
▁المنهج	-9620
▁المهار	-9621
▁المهجر	-9622
▁المولد	-9623
▁النزوح	-9624
▁النقدي	-9625
▁الواجب	-9626
▁الوارد	-9627
▁الوسيط	-9628
▁الوقوف	-9629
▁الولاء	-9630
▁اندمجت	-9631
▁انطلاق	-9632
▁انفسهم	-9633
▁تاباته	-9634
▁تجاوزت	-9635
▁تشكيله	-9636
▁تعليمه	-9637
▁تنفيذي	-9638
▁ثانويه	-9639
▁جغرافي	-9640
▁جنوبيه	-9641
▁رسوميه	-9642
▁زراعيه	-9643
▁ضروريا	-9644
▁عائلته	-9645
▁عمليات	-9646
▁مجتمعه	-9647
▁مجموعت	-9648
▁مرسوما	-9649
▁مسيرته	-9650
▁معادله	-9651
▁مقاليد	-9652
▁مليوني	-9653
▁مناهضه	-9654
▁ميليشي	-9655
▁هندسيه	-9656
▁يستضيف	-9657
▁يفونيا	-9658
▁اتحاديه	-9659
▁اختلافا	-9660
▁ارتفاعا	-9661
▁استطاعت	-9662
▁استهدفت	-9663
▁اشبيليه	-9664
▁اعتمادا	-9665
▁الابعاد	-9666
▁الاحباش	-9667
▁الاحواز	-9668
▁الادخال	-9669
▁الارباح	-9670
▁الاركان	-9671
▁الاسلوب	-9672
▁الاسوار	-9673
▁الاضرار	-9674
▁الاضرحه	-9675
▁الاعوام	-9676
▁الاغراض	-9677
▁الاقامه	-9678
▁الامازي	-9679
▁الانماط	-9680
▁الاهالي	-9681
▁الاواني	-9682
▁الاوساط	-9683
▁البائده	-9684
▁البترول	-9685
▁البرهان	-9686
▁التاليف	-9687
▁التاهيل	-9688
▁التجارب	-9689
▁التحريض	-9690
▁الترجمه	-9691
▁التسويق	-9692
▁التغذيه	-9693
▁التغطيه	-9694
▁التكلفه	-9695
▁التوازن	-9696
▁الحضاري	-9697
▁الخاصيه	-9698
▁الخدمات	-9699
▁الخريطه	-9700
▁الخلفيه	-9701
▁الخوارج	-9702
▁الدائره	-9703
▁الرائده	-9704
▁الرابطه	-9705
▁الرسائل	-9706
▁الزوراء	-9707
▁الزيتون	-9708
▁السابعه	-9709
▁الساحقه	-9710
▁السلاله	-9711
▁السوقيه	-9712
▁الشطرنج	-9713
▁الصابئه	-9714
▁العاشره	-9715
▁العاميه	-9716
▁الغزالي	-9717
▁الفاضله	-9718
▁الفعالي	-9719
▁الفلكيه	-9720
▁الفلوجه	-9721
▁الكريمه	-9722
▁الكفاءه	-9723
▁الكلدان	-9724
▁المتخصص	-9725
▁المتطوع	-9726
▁المحايد	-9727
▁المدمره	-9728
▁المراعي	-9729
▁المرسوم	-9730
▁المستقل	-9731
▁المصلحه	-9732
▁المضمنه	-9733
▁المعابر	-9734
▁المعتدل	-9735
▁المعترف	-9736
▁المغلقه	-9737
▁المناصب	-9738
▁المنخفض	-9739
▁المورثه	-9740
▁النبويه	-9741
▁النظافه	-9742
▁النظيفه	-9743
▁النعمان	-9744
▁اليزيدي	-9745
▁امريكيا	-9746
▁تشريعيه	-9747
▁جغرافيه	-9748
▁عشوائيه	-9749
▁مانشستر	-9750
▁مانهاتن	-9751
▁متتاليه	-9752
▁متصرفيه	-9753
▁مستخدمه	-9754
▁موسيقيه	-9755
▁يوفنتوس	-9756
▁استبداله	-9757
▁استخدموا	-9758
▁استراليا	-9759
▁اسكتلندا	-9760
▁اكسبلورر	-9761
▁الاخميني	-9762
▁الاستماع	-9763
▁الانقراض	-9764
▁البدائيه	-9765
▁البولندي	-9766
▁التجريبي	-9767
▁التشكيلي	-9768
▁التصاميم	-9769
▁التضاريس	-9770
▁الجماعيه	-9771
▁الجنائيه	-9772
▁الحدوديه	-9773
▁الحمداني	-9774
▁الدشداشه	-9775
▁الدفاعيه	-9776
▁الساساني	-9777
▁السلافيه	-9778
▁السلوقيه	-9779
▁العملاقه	-9780
▁الفلسفيه	-9781
▁المؤمنين	-9782
▁المالكيه	-9783
▁المتظاهر	-9784
▁المتمثله	-9785
▁المتوفره	-9786
▁المحاصيل	-9787
▁المحاكمه	-9788
▁المدنيين	-9789
▁المستثمر	-9790
▁المقريزي	-9791
▁المكتسبه	-9792
▁المندائي	-9793
▁المهاجره	-9794
▁الموسميه	-9795
▁الهندسيه	-9796
▁ايمانويل	-9797
▁الاستمرار	-9798
▁الاستنتاج	-9799
▁الاوزبكيه	-9800
▁البولنديه	-9801
▁التلفزيون	-9802
▁الحيوانات	-9803
▁الحيوانيه	-9804
▁السبعينات	-9805
▁الستينيات	-9806
▁العمرانيه	-9807
▁الكلدانيه	-9808
▁الكهربائي	-9809
▁اللاسلكيه	-9810
▁المستعربه	-9811
▁امبراطوري	-9812
▁طاجيكستان	-9813
▁البوندستاج	-9814
▁التسعينيات	-9815
▁السوفياتيه	-9816
▁المستخدمين	-9817
▁المستنصريه	-9818
▁اليورانيوم	-9819
.9	-9820
32	-9821
66	-9822
78	-9823
93	-9824
]]	-9825
خا	-9826
دئ	-9827
دع	-9828
قن	-9829
▁؟	-9830
احا	-9831
ادم	-9832
اصد	-9833
اعت	-9834
اعز	-9835
افر	-9836
اكد	-9837
اكي	-9838
الن	-9839
امو	-9840
ترع	-9841
تيح	-9842
تيس	-9843
ثار	-9844
حار	-9845
حيث	-9846
حيح	-9847
ديا	-9848
ريس	-9849
ساب	-9850
سار	-9851
ستا	-9852
سني	-9853
سيك	-9854
شيف	-9855
ضاه	-9856
طنط	-9857
طيح	-9858
طيف	-9859
عده	-9860
غام	-9861
غرق	-9862
غلا	-9863
غوب	-9864
فاد	-9865
فقت	-9866
فيق	-9867
قوب	-9868
كاء	-9869
كيف	-9870
كيم	-9871
لاج	-9872
ماق	-9873
منذ	-9874
موا	-9875
موه	-9876
ميق	-9877
وقه	-9878
وهو	-9879
وهي	-9880
وين	-9881
يتد	-9882
يدز	-9883
يده	-9884
يرك	-9885
يشي	-9886
يمن	-9887
يمي	-9888
▁(4	-9889
▁2،	-9890
▁51	-9891
▁64	-9892
▁66	-9893
▁بر	-9894
▁بك	-9895
▁حو	-9896
▁رر	-9897
▁زك	-9898
▁سب	-9899
▁صغ	-9900
▁عا	-9901
▁فد	-9902
▁نغ	-9903
▁وت	-9904
▁وغ	-9905
اتشي	-9906
اجرت	-9907
ازله	-9908
اطير	-9909
اعدت	-9910
الار	-9911
المن	-9912
الوا	-9913
انظر	-9914
بعوث	-9915
ترام	-9916
دلسي	-9917
ذبحه	-9918
رارا	-9919
راقب	-9920
روبه	-9921
ريره	-9922
زميه	-9923
صيصا	-9924
ضائي	-9925
فالا	-9926
فضله	-9927
كاني	-9928
كتار	-9929
كسوس	-9930
ليكس	-9931
لينا	-9932
ماعي	-9933
مالا	-9934
ناقص	-9935
نجاب	-9936
نزير	-9937
نسبه	-9938
وائد	-9939
وائم	-9940
وابق	-9941
واتم	-9942
وارب	-9943
واره	-9944
وايا	-9945
وحاه	-9946
ودور	-9947
ورفا	-9948
ولوا	-9949
يافه	-9950
يرات	-9951
▁135	-9952
▁174	-9953
▁179	-9954
▁183	-9955
▁3.5	-9956
▁360	-9957
▁405	-9958
▁650	-9959
▁7.5	-9960
▁8.6	-9961
▁850	-9962
▁اءت	-9963
▁اتم	-9964
▁اخي	-9965
▁ارخ	-9966
▁ازم	-9967
▁اصر	-9968
▁افك	-9969
▁اوغ	-9970
▁تضع	-9971
▁تفر	-9972
▁تقف	-9973
▁تنس	-9974
▁تنش	-9975
▁تهد	-9976
▁توك	-9977
▁توم	-9978
▁ثار	-9979
▁جرح	-9980
▁جوا	-9981
▁جيو	-9982
▁حاب	-9983
▁حجب	-9984
▁حذف	-9985
▁حظي	-9986
▁حفر	-9987
▁خطو	-9988
▁ديع	-9989
▁ذاع	-9990
▁ربس	-9991
▁رده	-9992
▁رزق	-9993
▁رعا	-9994
▁رقص	-9995
▁ركب	-9996
▁ركل	-9997
▁روب	-9998
▁ريس	-9999
▁زرع	-10000
▁صان	-10001
▁صلب	-10002
▁صهر	-10003
▁صيت	-10004
▁طوب	-10005
▁عوض	-10006
▁غار	-10007
▁غلا	-10008
▁غود	-10009
▁قاص	-10010
▁قاض	-10011
▁قتي	-10012
▁قشت	-10013
▁قلق	-10014
▁متج	-10015
▁مجز	-10016
▁محي	-10017
▁مدا	-10018
▁مدت	-10019
▁مكن	-10020
▁موث	-10021
▁موه	-10022
▁ناؤ	-10023
▁نسل	-10024
▁نما	-10025
▁نوك	-10026
▁هان	-10027
▁هبه	-10028
▁هدي	-10029
▁هلت	-10030
▁هله	-10031
▁يتف	-10032
▁يدع	-10033
▁يظن	-10034
▁يلز	-10035
▁يلق	-10036
,000.	-10037
ارفور	-10038
اهريه	-10039
بهاني	-10040
تيكيه	-10041
سيسكو	-10042
شاريه	-10043
ضيريه	-10044
فاوته	-10045
لاميذ	-10046
ليليه	-10047
مائيه	-10048
واحيه	-10049
واضعه	-10050
وبالت	-10051
يروان	-10052
▁1516	-10053
▁1831	-10054
▁1921	-10055
▁1922	-10056
▁1923	-10057
▁1956	-10058
▁1986	-10059
▁4000	-10060
▁ائحه	-10061
▁ابلغ	-10062
▁ابيه	-10063
▁اتاح	-10064
▁اتوس	-10065
▁اجرت	-10066
▁اجمع	-10067
▁اخوه	-10068
▁ادته	-10069
▁ادعت	-10070
▁ادعي	-10071
▁اربد	-10072
▁ارضا	-10073
▁اشتب	-10074
▁اصاب	-10075
▁اعطا	-10076
▁اقبل	-10077
▁الخر	-10078
▁الدت	-10079
▁الكن	-10080
▁الين	-10081
▁اميل	-10082
▁انسي	-10083
▁انظر	-10084
▁انور	-10085
▁انيه	-10086
▁ايكس	-10087
▁ايما	-10088
▁تؤمن	-10089
▁تائب	-10090
▁تاره	-10091
▁تاوي	-10092
▁تباد	-10093
▁تبرع	-10094
▁تتسم	-10095
▁تتيح	-10096
▁تجدر	-10097
▁تجذب	-10098
▁تدعو	-10099
▁تريت	-10100
▁تسهل	-10101
▁تشار	-10102
▁تشبه	-10103
▁تشجع	-10104
▁تشغل	-10105
▁تعكس	-10106
▁تفاع	-10107
▁تقبل	-10108
▁تقرر	-10109
▁تكمل	-10110
▁تنمو	-10111
▁توسط	-10112
▁توضح	-10113
▁توقع	-10114
▁تيرا	-10115
▁جاده	-10116
▁جبري	-10117
▁جرعه	-10118
▁جزئي	-10119
▁جفاف	-10120
▁جمعي	-10121
▁جميل	-10122
▁جوله	-10123
▁جولي	-10124
▁جونز	-10125
▁حاره	-10126
▁حاصر	-10127
▁حاصل	-10128
▁حالت	-10129
▁حامل	-10130
▁حساء	-10131
▁حليف	-10132
▁حوله	-10133
▁خادم	-10134
▁خشبه	-10135
▁خيال	-10136
▁داره	-10137
▁داني	-10138
▁دراج	-10139
▁دروس	-10140
▁دعمت	-10141
▁دويت	-10142
▁ديلا	-10143
▁ذاتي	-10144
▁رؤوس	-10145
▁رايه	-10146
▁ربطت	-10147
▁ردود	-10148
▁رساي	-10149
▁رفعه	-10150
▁رقصه	-10151
▁رقعه	-10152
▁رقما	-10153
▁ركله	-10154
▁رمال	-10155
▁رمزي	-10156
▁روسي	-10157
▁ريدا	-10158
▁ريعا	-10159
▁زنده	-10160
▁زواج	-10161
▁زوال	-10162
▁زوجه	-10163
▁زيار	-10164
▁زيره	-10165
▁شاعر	-10166
▁شلوا	-10167
▁شوري	-10168
▁صحيه	-10169
▁صمام	-10170
▁صورا	-10171
▁صيغه	-10172
▁طابق	-10173
▁طيئه	-10174
▁طيار	-10175
▁عبار	-10176
▁عبري	-10177
▁عبور	-10178
▁عداد	-10179
▁عضها	-10180
▁عطله	-10181
▁عظام	-10182
▁عليك	-10183
▁عمون	-10184
▁عنها	-10185
▁غذاء	-10186
▁قاري	-10187
▁قلعت	-10188
▁قهاء	-10189
▁قياس	-10190
▁قيره	-10191
▁قيصر	-10192
▁مؤاب	-10193
▁ماكس	-10194
▁مثبط	-10195
▁مثلت	-10196
▁مجيء	-10197
▁محور	-10198
▁مدخل	-10199
▁مذيع	-10200
▁مرشح	-10201
▁مساو	-10202
▁مصرف	-10203
▁مظهر	-10204
▁معجم	-10205
▁مفرد	-10206
▁مقار	-10207
▁مقره	-10208
▁مكبر	-10209
▁ملحن	-10210
▁ممار	-10211
▁ميكا	-10212
▁نانه	-10213
▁نخبه	-10214
▁نزار	-10215
▁نزيل	-10216
▁نشوء	-10217
▁نصري	-10218
▁نفذت	-10219
▁نقول	-10220
▁نيته	-10221
▁هائل	-10222
▁هاتف	-10223
▁هاجم	-10224
▁هجرت	-10225
▁هندو	-10226
▁هيثم	-10227
▁يؤيد	-10228
▁يبرز	-10229
▁يترا	-10230
▁يحضر	-10231
▁يحظي	-10232
▁يخبر	-10233
▁يدفع	-10234
▁يرجح	-10235
▁يرسل	-10236
▁يروي	-10237
▁يزعم	-10238
▁يزور	-10239
▁يسبب	-10240
▁يسعي	-10241
▁يسير	-10242
▁يشهد	-10243
▁يصنع	-10244
▁يضان	-10245
▁يعزي	-10246
▁يفوق	-10247
▁يكاد	-10248
▁يلقي	-10249
▁يليب	-10250
▁ينزل	-10251
▁ينسب	-10252
▁ينقل	-10253
▁ينها	-10254
▁يهدد	-10255
▁يوصف	-10256
ربيجان	-10257
ستانتي	-10258
كواندو	-10259
هيونيه	-10260
وبنديه	-10261
▁(1996	-10262
▁10000	-10263
▁15000	-10264
▁1918.	-10265
▁1918،	-10266
▁1968.	-10267
▁1980،	-10268
▁1988.	-10269
▁1997.	-10270
▁1997،	-10271
▁2000.	-10272
▁2004.	-10273
▁2021.	-10274
▁3,000	-10275
▁8,000	-10276
▁اتبعت	-10277
▁اتسمت	-10278
▁اتمام	-10279
▁اجرته	-10280
▁احادي	-10281
▁احتوت	-10282
▁احجار	-10283
▁احيان	-10284
▁اخطاء	-10285
▁ادانه	-10286
▁ادولف	-10287
▁ارباع	-10288
▁ارسلت	-10289
▁اسحاق	-10290
▁اسقطت	-10291
▁اسماه	-10292
▁اشتري	-10293
▁اصطدم	-10294
▁اصليه	-10295
▁اصوات	-10296
▁اضافي	-10297
▁اعدام	-10298
▁اعضائ	-10299
▁اعماق	-10300
▁اعمده	-10301
▁افادت	-10302
▁اقرار	-10303
▁اقناع	-10304
▁اكتسب	-10305
▁الاثن	-10306
▁الاقط	-10307
▁الايك	-10308
▁الايل	-10309
▁الباز	-10310
▁البيض	-10311
▁التير	-10312
▁التيم	-10313
▁الجائ	-10314
▁الجدد	-10315
▁الجذب	-10316
▁الجسر	-10317
▁الجيد	-10318
▁الحاق	-10319
▁الحشر	-10320
▁الحلق	-10321
▁الخرز	-10322
▁الخلا	-10323
▁الخيل	-10324
▁الروك	-10325
▁الساخ	-10326
▁السمك	-10327
▁الشاب	-10328
▁الشاف	-10329
▁الشان	-10330
▁الصلب	-10331
▁الصنع	-10332
▁الطرح	-10333
▁العذب	-10334
▁العيد	-10335
▁الغزن	-10336
▁الفضي	-10337
▁القبر	-10338
▁القدر	-10339
▁القرص	-10340
▁القصه	-10341
▁القمه	-10342
▁الكاذ	-10343
▁الكرخ	-10344
▁اللوح	-10345
▁المتف	-10346
▁المجد	-10347
▁المجه	-10348
▁المخز	-10349
▁المخل	-10350
▁المرض	-10351
▁المشي	-10352
▁المفا	-10353
▁الملت	-10354
▁النقش	-10355
▁الهام	-10356
▁الهول	-10357
▁الياس	-10358
▁امتلك	-10359
▁امنيه	-10360
▁انتجت	-10361
▁انتزع	-10362
▁انذار	-10363
▁انطلق	-10364
▁انفقت	-10365
▁اهوار	-10366
▁اوامر	-10367
▁اوليه	-10368
▁ايفان	-10369
▁تاشير	-10370
▁تجهيز	-10371
▁تحدثت	-10372
▁تركيب	-10373
▁تسريح	-10374
▁تشريع	-10375
▁تقاسم	-10376
▁تقالي	-10377
▁تقدمت	-10378
▁تقييد	-10379
▁تكررت	-10380
▁تكريم	-10381
▁تمثلت	-10382
▁تناقص	-10383
▁توضيح	-10384
▁توماس	-10385
▁تيميه	-10386
▁ثالثه	-10387
▁جانبا	-10388
▁جدران	-10389
▁جنديا	-10390
▁جنكيز	-10391
▁حاضرا	-10392
▁حاضره	-10393
▁حضريه	-10394
▁حقائق	-10395
▁حكومي	-10396
▁حينئذ	-10397
▁خصيصا	-10398
▁خفيفه	-10399
▁خلفيه	-10400
▁داخلي	-10401
▁دخلوا	-10402
▁دراست	-10403
▁دولته	-10404
▁ذروته	-10405
▁رمزيه	-10406
▁رواجا	-10407
▁زكريا	-10408
▁شائعا	-10409
▁شاملا	-10410
▁شهدته	-10411
▁صارمه	-10412
▁صحيحه	-10413
▁صداقه	-10414
▁صديقه	-10415
▁صرامه	-10416
▁صيانه	-10417
▁ضرائب	-10418
▁ضعيفه	-10419
▁طبيعي	-10420
▁عادوا	-10421
▁عامين	-10422
▁عميقه	-10423
▁عنايه	-10424
▁غادرت	-10425
▁قائما	-10426
▁قدرات	-10427
▁قرارا	-10428
▁قراره	-10429
▁قندوز	-10430
▁قوميه	-10431
▁مائيه	-10432
▁مباري	-10433
▁مبكره	-10434
▁متصله	-10435
▁متطلب	-10436
▁متينه	-10437
▁مثالا	-10438
▁مجاري	-10439
▁محتمل	-10440
▁مخاوف	-10441
▁مذاهب	-10442
▁مذبحه	-10443
▁مراقب	-10444
▁مرتبط	-10445
▁مرسوم	-10446
▁مسرحي	-10447
▁مصدرا	-10448
▁مطاعم	-10449
▁معلنه	-10450
▁معيار	-10451
▁مقابر	-10452
▁مقاله	-10453
▁مكتوب	-10454
▁مماثل	-10455
▁منتظم	-10456
▁منشاه	-10457
▁موريت	-10458
▁ميشال	-10459
▁نائبه	-10460
▁نارفا	-10461
▁نبهان	-10462
▁نزحوا	-10463
▁نشطاء	-10464
▁نوكيا	-10465
▁هكتار	-10466
▁هياكل	-10467
▁ياحيه	-10468
▁ياقوت	-10469
▁يتحمل	-10470
▁يتصرف	-10471
▁يطالب	-10472
▁يطرته	-10473
▁يعقوب	-10474
▁يفترض	-10475
▁ينتخب	-10476
▁يوافق	-10477
المانيه	-10478
مانستان	-10479
▁30,000	-10480
▁ابتكار	-10481
▁ابنائه	-10482
▁اتباعه	-10483
▁اتخذوا	-10484
▁اثنتان	-10485
▁اجمالا	-10486
▁ارتكاب	-10487
▁اشتملت	-10488
▁اعترفت	-10489
▁اعتناق	-10490
▁اعلنوا	-10491
▁افلامه	-10492
▁الاثري	-10493
▁الاجور	-10494
▁الاحرف	-10495
▁الاحمد	-10496
▁الاستي	-10497
▁الاطلس	-10498
▁الالهه	-10499
▁الايدز	-10500
▁البايت	-10501
▁البدوي	-10502
▁التروي	-10503
▁التوقف	-10504
▁الثديي	-10505
▁الجبري	-10506
▁الجذور	-10507
▁الجزيئ	-10508
▁الحارس	-10509
▁الحلقه	-10510
▁الحموي	-10511
▁الحميد	-10512
▁الحياد	-10513
▁الخريف	-10514
▁الخيام	-10515
▁الخيوط	-10516
▁الرسام	-10517
▁الرطبه	-10518
▁الرغبه	-10519
▁الزعيم	-10520
▁الزمني	-10521
▁السطحي	-10522
▁السفير	-10523
▁السنين	-10524
▁السياس	-10525
▁السيده	-10526
▁السيمف	-10527
▁الشاشه	-10528
▁الشفره	-10529
▁الطبيب	-10530
▁العشري	-10531
▁العنكب	-10532
▁الفائز	-10533
▁الفاعل	-10534
▁الفضيه	-10535
▁الفكري	-10536
▁الفلاح	-10537
▁الفيفا	-10538
▁القادر	-10539
▁القسري	-10540
▁القياس	-10541
▁الكتله	-10542
▁اللحظه	-10543
▁الماعز	-10544
▁المترو	-10545
▁المحدد	-10546
▁المحلل	-10547
▁المخيم	-10548
▁المرار	-10549
▁المربع	-10550
▁المزود	-10551
▁المسجل	-10552
▁المسمي	-10553
▁المصمم	-10554
▁المغني	-10555
▁الملاي	-10556
▁الموحد	-10557
▁المورد	-10558
▁النفطي	-10559
▁الهادئ	-10560
▁الهواه	-10561
▁اليومي	-10562
▁انبعاث	-10563
▁انحلال	-10564
▁انقرضت	-10565
▁انقطاع	-10566
▁انهارت	-10567
▁اوبريت	-10568
▁اوروبي	-10569
▁تتشابه	-10570
▁تتفاوت	-10571
▁تتناول	-10572
▁تدريبا	-10573
▁تصاميم	-10574
▁تعاليم	-10575
▁تعديله	-10576
▁حاولوا	-10577
▁حدوديه	-10578
▁حسابيه	-10579
▁حضاريه	-10580
▁حكومته	-10581
▁خارجها	-10582
▁خصوصيه	-10583
▁دارفور	-10584
▁دفاعيه	-10585
▁زيارته	-10586
▁طائفيه	-10587
▁قاتلوا	-10588
▁قشتاله	-10589
▁قياسيا	-10590
▁مارشال	-10591
▁مباشرا	-10592
▁متاخره	-10593
▁متتالي	-10594
▁متزامن	-10595
▁متعلقه	-10596
▁محاكاه	-10597
▁مزدهره	-10598
▁مسابقه	-10599
▁مستطيل	-10600
▁مستمرا	-10601
▁مسلمين	-10602
▁مشروعا	-10603
▁مشهوره	-10604
▁معاديه	-10605
▁معقوده	-10606
▁مقاييس	-10607
▁مقداره	-10608
▁مواصله	-10609
▁نظريته	-10610
▁هولاكو	-10611
▁يتعامل	-10612
▁يتمركز	-10613
▁يتناول	-10614
▁200,000	-10615
▁اختلطوا	-10616
▁اريتريا	-10617
▁استبدلت	-10618
▁استسلمت	-10619
▁استكشاف	-10620
▁استنتاج	-10621
▁استوطنت	-10622
▁استيلاء	-10623
▁اعلاميه	-10624
▁الابقاء	-10625
▁الاخراج	-10626
▁الادومي	-10627
▁الارشاد	-10628
▁الاستاذ	-10629
▁الاسكان	-10630
▁الاضراب	-10631
▁الاعراق	-10632
▁الاعشاب	-10633
▁الاعيان	-10634
▁الاغنام	-10635
▁الافلاط	-10636
▁الالبوم	-10637
▁الانجيل	-10638
▁الانديه	-10639
▁الانكلي	-10640
▁الاهرام	-10641
▁الايقاع	-10642
▁البحرين	-10643
▁البخاري	-10644
▁البدويه	-10645
▁البورصه	-10646
▁التاسعه	-10647
▁التاييد	-10648
▁التبادل	-10649
▁التدقيق	-10650
▁الترحيل	-10651
▁التعادل	-10652
▁التفاضل	-10653
▁التقريب	-10654
▁التكبير	-10655
▁التنظيف	-10656
▁التوفيق	-10657
▁التوقيع	-10658
▁الثقيله	-10659
▁الثلاثي	-10660
▁الثنائي	-10661
▁الجدران	-10662
▁الحادثه	-10663
▁الحسابي	-10664
▁الحواري	-10665
▁الخابور	-10666
▁الخرائط	-10667
▁الخفيفه	-10668
▁الخنزير	-10669
▁الخواتم	-10670
▁الدائري	-10671
▁الرئيسه	-10672
▁الراقيه	-10673
▁الرمادي	-10674
▁الزعماء	-10675
▁الساكنه	-10676
▁السرطان	-10677
▁السعيده	-10678
▁السلفيه	-10679
▁السلوقي	-10680
▁الشتويه	-10681
▁الشركات	-10682
▁الشواهد	-10683
▁الصحاري	-10684
▁الصداره	-10685
▁الصفصاف	-10686
▁الصفيحه	-10687
▁الضوئيه	-10688
▁الطائفه	-10689
▁العاربه	-10690
▁العباده	-10691
▁العبدلي	-10692
▁العداله	-10693
▁العريقه	-10694
▁العكسيه	-10695
▁العنوان	-10696
▁العواصم	-10697
▁الغابات	-10698
▁الفونسو	-10699
▁القرصنه	-10700
▁القوقاز	-10701
▁القياسي	-10702
▁الكواكب	-10703
▁اللوحيه	-10704
▁الماكول	-10705
▁المامون	-10706
▁المترجم	-10707
▁المتعدد	-10708
▁المتعلم	-10709
▁المتوكل	-10710
▁المجاري	-10711
▁المجاعه	-10712
▁المجرده	-10713
▁المحادث	-10714
▁المخالف	-10715
▁المدرجه	-10716
▁المسابق	-10717
▁المسارح	-10718
▁المطالب	-10719
▁المعامل	-10720
▁المعتاد	-10721
▁المعتمد	-10722
▁المعجزه	-10723
▁المفاعل	-10724
▁المفترض	-10725
▁المفهوم	-10726
▁الممتلك	-10727
▁المنافس	-10728
▁المناهج	-10729
▁المنتجه	-10730
▁المنحدر	-10731
▁الموجهه	-10732
▁الميناء	-10733
▁النبطيه	-10734
▁النظامي	-10735
▁النفسيه	-10736
▁النهرين	-10737
▁النواحي	-10738
▁النيابي	-10739
▁الهيدرو	-10740
▁الواحده	-10741
▁انتشروا	-10742
▁انسانيه	-10743
▁انضمامه	-10744
▁اهتمامه	-10745
▁تعليميه	-10746
▁تقليديه	-10747
▁خوارزمي	-10748
▁رومانيه	-10749
▁عمرانيه	-10750
▁مستدامه	-10751
▁هارفارد	-10752
▁هربائيه	-10753
▁هوسبيرا	-10754
▁يتمكنوا	-10755
▁يدراليه	-10756
▁اذربيجان	-10757
▁اربعمائه	-10758
▁استخداما	-10759
▁استعماله	-10760
▁الارمنيه	-10761
▁الارهابي	-10762
▁الاشتباك	-10763
▁الافارقه	-10764
▁الاقتراح	-10765
▁الالتحاق	-10766
▁الامازيغ	-10767
▁الاندلسي	-10768
▁الانقسام	-10769
▁البوكيرك	-10770
▁التخصصيه	-10771
▁التركمان	-10772
▁التماثيل	-10773
▁التيموري	-10774
▁الجاهليه	-10775
▁الحميريه	-10776
▁الصحراوي	-10777
▁الضروريه	-10778
▁العمارنه	-10779
▁العموميه	-10780
▁الفروسيه	-10781
▁الفعاليه	-10782
▁القياسيه	-10783
▁الكاظميه	-10784
▁الكيلاني	-10785
▁الليثيوم	-10786
▁المباشره	-10787
▁المحدوده	-10788
▁المحليين	-10789
▁المدرسيه	-10790
▁المرتفعه	-10791
▁المعينيه	-10792
▁المكتشفه	-10793
▁الممارسه	-10794
▁المناخيه	-10795
▁المناقشه	-10796
▁المنخفضه	-10797
▁الموارنه	-10798
▁النبهاني	-10799
▁النيابيه	-10800
▁الوثائقي	-10801
▁الوظيفيه	-10802
▁الاجماليه	-10803
▁الاسبانيه	-10804
▁الاستئناف	-10805
▁الاستعانه	-10806
▁الاستقبال	-10807
▁الامريكان	-10808
▁التحويليه	-10809
▁التشكيليه	-10810
▁الحاسوبيه	-10811
▁الطاجيكيه	-10812
▁الليبرالي	-10813
▁المسماريه	-10814
▁المسيحيين	-10815
▁الوثائقيه	-10816
▁الامريكيين	-10817
▁الجماهيريه	-10818
▁الخمسينيات	-10819
▁الرومانسيه	-10820
▁السبعينيات	-10821
▁السليمانيه	-10822
▁الكهربائيه	-10823
▁المستقبليه	-10824
▁تركمانستان	-10825
▁الاستهلاكيه	-10826
▁الامبراطوري	-10827
▁التايكواندو	-10828
▁التكنولوجيه	-10829
▁الاسكندنافيه	-10830
-0	-10831
-2	-10832
.)	-10833
22	-10834
34	-10835
55	-10836
بك	-10837
تق	-10838
حص	-10839
خي	-10840
زح	-10841
زك	-10842
صح	-10843
فز	-10844
مح	-10845
نغ	-10846
وص	-10847
يح	-10848
3.7	-10849
7.3	-10850
7.5	-10851
9).	-10852
ؤال	-10853
ئاب	-10854
اتق	-10855
اتم	-10856
احب	-10857
اطب	-10858
اطع	-10859
اغه	-10860
اكس	-10861
امت	-10862
امح	-10863
انا	-10864
انق	-10865
ايف	-10866
باد	-10867
باغ	-10868
باي	-10869
برو	-10870
بعا	-10871
بيا	-10872
تمت	-10873
تهد	-10874
ثاغ	-10875
ثان	-10876
ثرو	-10877
ثعم	-10878
جدا	-10879
جده	-10880
جمع	-10881
جيم	-10882
خخه	-10883
خرج	-10884
دان	-10885
ددت	-10886
دوا	-10887
دين	-10888
ذيب	-10889
راص	-10890
راي	-10891
رتي	-10892
رجي	-10893
رحت	-10894
رسم	-10895
ركي	-10896
ريز	-10897
زلغ	-10898
زما	-10899
زوج	-10900
ستو	-10901
سكا	-10902
سنط	-10903
سوس	-10904
سيخ	-10905
سيف	-10906
شعر	-10907
شوف	-10908
شيا	-10909
شيح	-10910
صري	-10911
صلي	-10912
طوم	-10913
عاع	-10914
عته	-10915
عدد	-10916
قبه	-10917
قطب	-10918
ققت	-10919
قوا	-10920
قون	-10921
قيت	-10922
كرا	-10923
لخص	-10924
لقت	-10925
لوف	-10926
ماد	-10927
متر	-10928
مدد	-10929
مند	-10930
ناش	-10931
نال	-10932
نقت	-10933
نيش	-10934
هان	-10935
هبه	-10936
هده	-10937
وحت	-10938
ودع	-10939
ورن	-10940
وست	-10941
وقا	-10942
وكا	-10943
وكس	-10944
ولث	-10945
ولد	-10946
ونم	-10947
ياط	-10948
يري	-10949
ينا	-10950
▁):	-10951
▁3,	-10952
▁44	-10953
▁53	-10954
▁72	-10955
▁78	-10956
▁79	-10957
▁87	-10958
▁88	-10959
▁97	-10960
▁[[	-10961
▁بد	-10962
▁جث	-10963
▁حذ	-10964
▁دف	-10965
▁ذل	-10966
▁زر	-10967
▁سك	-10968
▁صخ	-10969
▁طت	-10970
▁طق	-10971
▁لس	-10972
▁لع	-10973
▁وج	-10974
,700	-10975
ئقيه	-10976
ائفه	-10977
ائيا	-10978
ابعت	-10979
ابير	-10980
اخمه	-10981
ادته	-10982
ادلف	-10983
اديق	-10984
اصله	-10985
البث	-10986
امجه	-10987
اوله	-10988
بشكل	-10989
بيان	-10990
بيري	-10991
تيكا	-10992
ثريه	-10993
ثناء	-10994
حادي	-10995
حاري	-10996
خبوط	-10997
داني	-10998
دلال	-10999
دوبي	-11000
دوود	-11001
رائد	-11002
رويش	-11003
ريحه	-11004
ريفه	-11005
ريين	-11006
زرعه	-11007
زهره	-11008
ساوي	-11009
ستيه	-11010
سكره	-11011
سيسه	-11012
سيمه	-11013
شيته	-11014
شيري	-11015
صوبه	-11016
صوفه	-11017
صيان	-11018
طوري	-11019
عزيه	-11020
عمار	-11021
عودي	-11022
عيدي	-11023
غرقت	-11024
غلاد	-11025
فافه	-11026
فسيه	-11027
فيله	-11028
قافه	-11029
قايا	-11030
قايه	-11031
كانت	-11032
كتاب	-11033
لائه	-11034
لازل	-11035
لكيه	-11036
متها	-11037
معظم	-11038
نازع	-11039
نايا	-11040
هيار	-11041
وائح	-11042
واحف	-11043
واله	-11044
وبتر	-11045
وزيه	-11046
وسطي	-11047
وشيه	-11048
ويات	-11049
يبان	-11050
يتان	-11051
يفيه	-11052
يقيا	-11053
يكله	-11054
يللي	-11055
يمنه	-11056
▁(0.	-11057
▁(11	-11058
▁(50	-11059
▁(75	-11060
▁1,2	-11061
▁108	-11062
▁121	-11063
▁132	-11064
▁134	-11065
▁145	-11066
▁151	-11067
▁155	-11068
▁156	-11069
▁170	-11070
▁184	-11071
▁2.3	-11072
▁30.	-11073
▁31.	-11074
▁330	-11075
▁34.	-11076
▁539	-11077
▁625	-11078
▁8.5	-11079
▁81.	-11080
▁ئيه	-11081
▁اتح	-11082
▁اخن	-11083
▁ادا	-11084
▁ادس	-11085
▁اذي	-11086
▁ارم	-11087
▁ازي	-11088
▁اشد	-11089
▁اضي	-11090
▁اعل	-11091
▁اقا	-11092
▁اكن	-11093
▁امب	-11094
▁امح	-11095
▁انو	-11096
▁اها	-11097
▁اوه	-11098
▁ايث	-11099
▁ايل	-11100
▁تحه	-11101
▁تدو	-11102
▁تذب	-11103
▁تظل	-11104
▁تعب	-11105
▁تعه	-11106
▁تلح	-11107
▁تله	-11108
▁تمه	-11109
▁تهب	-11110
▁توت	-11111
▁تول	-11112
▁ثاف	-11113
▁ثوب	-11114
▁جوي	-11115
▁حبي	-11116
▁حثي	-11117
▁حجز	-11118
▁حرر	-11119
▁حرص	-11120
▁حرق	-11121
▁حقا	-11122
▁خاط	-11123
▁خبز	-11124
▁خشب	-11125
▁خمه	-11126
▁داغ	-11127
▁دلت	-11128
▁دوغ	-11129
▁دوم	-11130
▁راغ	-11131
▁راه	-11132
▁ربح	-11133
▁رجب	-11134
▁رجي	-11135
▁ردو	-11136
▁رشد	-11137
▁رغب	-11138
▁رقت	-11139
▁رهم	-11140
▁روج	-11141
▁رين	-11142
▁زنج	-11143
▁شجر	-11144
▁شغف	-11145
▁شوخ	-11146
▁صغر	-11147
▁صمه	-11148
▁ضاع	-11149
▁ضخم	-11150
▁ضلع	-11151
▁طاب	-11152
▁طاع	-11153
▁طلي	-11154
▁ظفت	-11155
▁عجز	-11156
▁عرا	-11157
▁عزز	-11158
▁عزي	-11159
▁علق	-11160
▁عما	-11161
▁عمت	-11162
▁غته	-11163
▁غوا	-11164
▁غوت	-11165
▁قات	-11166
▁قار	-11167
▁قطن	-11168
▁قمم	-11169
▁قنا	-11170
▁قوا	-11171
▁ماع	-11172
▁مخل	-11173
▁مذح	-11174
▁مرء	-11175
▁مزي	-11176
▁مشر	-11177
▁مصب	-11178
▁مضت	-11179
▁مضط	-11180
▁معج	-11181
▁معز	-11182
▁مقب	-11183
▁مقص	-11184
▁مكث	-11185
▁مكو	-11186
▁ممد	-11187
▁موز	-11188
▁موق	-11189
▁نتع	-11190
▁نري	-11191
▁نسج	-11192
▁نصت	-11193
▁نصي	-11194
▁نقي	-11195
▁نمر	-11196
▁هدد	-11197
▁همد	-11198
▁هيد	-11199
▁يبل	-11200
▁يتق	-11201
▁يحب	-11202
▁يخش	-11203
▁يسن	-11204
▁يشك	-11205
▁يصر	-11206
▁يكر	-11207
▁ينح	-11208
▁يوث	-11209
▁يوس	-11210
0،000	-11211
اريوس	-11212
الحره	-11213
ختلطه	-11214
درتال	-11215
رافيه	-11216
رسميا	-11217
ريتيه	-11218
ساويه	-11219
غوبتا	-11220
فافيه	-11221
قطريه	-11222
كنتوش	-11223
لائري	-11224
لاحيه	-11225
ماثله	-11226
واجده	-11227
وردان	-11228
ويبده	-11229
▁(190	-11230
▁1300	-11231
▁1892	-11232
▁1914	-11233
▁1916	-11234
▁1927	-11235
▁1929	-11236
▁1933	-11237
▁1934	-11238
▁1938	-11239
▁1943	-11240
▁1978	-11241
▁8000	-11242
▁8800	-11243
▁ائقه	-11244
▁اتيا	-11245
▁اجاب	-11246
▁ارزا	-11247
▁ارضه	-11248
▁ارقي	-11249
▁ازال	-11250
▁اسرت	-11251
▁اسري	-11252
▁اسعد	-11253
▁اسفل	-11254
▁اسلم	-11255
▁اشعل	-11256
▁اشعه	-11257
▁اشله	-11258
▁اعبا	-11259
▁اعلم	-11260
▁اعمق	-11261
▁افاد	-11262
▁افيا	-11263
▁اقرت	-11264
▁اقعه	-11265
▁اقنع	-11266
▁التذ	-11267
▁الثر	-11268
▁الحش	-11269
▁الدب	-11270
▁الدن	-11271
▁الرز	-11272
▁الرع	-11273
▁الزن	-11274
▁الصع	-11275
▁الصق	-11276
▁الظل	-11277
▁العي	-11278
▁الفل	-11279
▁الكس	-11280
▁الهر	-11281
▁الهض	-11282
▁الهه	-11283
▁الود	-11284
▁امال	-11285
▁امثل	-11286
▁امني	-11287
▁انغل	-11288
▁اوست	-11289
▁اوصي	-11290
▁اولو	-11291
▁اياد	-11292
▁ايوب	-11293
▁تابا	-11294
▁تارك	-11295
▁تبعت	-11296
▁تترك	-11297
▁تتفق	-11298
▁تثبت	-11299
▁تثير	-11300
▁تحظي	-11301
▁تردد	-11302
▁تزود	-11303
▁تسلق	-11304
▁تطبق	-11305
▁تطهر	-11306
▁تعلق	-11307
▁تعلن	-11308
▁تفقد	-11309
▁تفكك	-11310
▁تقطن	-11311
▁تقلي	-11312
▁تقود	-11313
▁تقيم	-11314
▁تكفي	-11315
▁تكمن	-11316
▁تلمي	-11317
▁تمول	-11318
▁تميل	-11319
▁تنزل	-11320
▁تهتم	-11321
▁توصي	-11322
▁تيني	-11323
▁ثمود	-11324
▁جبيل	-11325
▁جواد	-11326
▁جواز	-11327
▁جوهر	-11328
▁حاده	-11329
▁حجره	-11330
▁حجما	-11331
▁حربا	-11332
▁حظرت	-11333
▁حفيد	-11334
▁حماه	-11335
▁حميد	-11336
▁خامس	-11337
▁خانه	-11338
▁ختام	-11339
▁خثعم	-11340
▁خلفت	-11341
▁خواص	-11342
▁خيوط	-11343
▁دايت	-11344
▁دباب	-11345
▁دخله	-11346
▁دعوا	-11347
▁دفيغ	-11348
▁دوام	-11349
▁ديله	-11350
▁ديني	-11351
▁ديهي	-11352
▁ذكاء	-11353
▁ذهاب	-11354
▁راند	-11355
▁رايت	-11356
▁ركزت	-11357
▁رمان	-11358
▁زاده	-11359
▁زقاق	-11360
▁زمني	-11361
▁زهره	-11362
▁زيرا	-11363
▁شفره	-11364
▁شكله	-11365
▁شلال	-11366
▁شهري	-11367
▁شهود	-11368
▁شهير	-11369
▁صبري	-11370
▁صحيا	-11371
▁صدقي	-11372
▁صنعت	-11373
▁صوتا	-11374
▁صوتت	-11375
▁ضائع	-11376
▁ضعيف	-11377
▁طالت	-11378
▁طردت	-11379
▁طوطه	-11380
▁طيبه	-11381
▁عاتق	-11382
▁عادل	-11383
▁عازف	-11384
▁عبرت	-11385
▁عبيد	-11386
▁عشري	-11387
▁عطاء	-11388
▁عقده	-11389
▁عموم	-11390
▁غاره	-11391
▁غزوه	-11392
▁غودل	-11393
▁قادم	-11394
▁قاضي	-11395
▁قاله	-11396
▁قاوم	-11397
▁قبرص	-11398
▁قبور	-11399
▁قدان	-11400
▁قسما	-11401
▁قسنط	-11402
▁قضوا	-11403
▁قطعت	-11404
▁قلاع	-11405
▁قوام	-11406
▁قومه	-11407
▁قيمت	-11408
▁مؤكد	-11409
▁مادي	-11410
▁ماري	-11411
▁ماست	-11412
▁ماله	-11413
▁متجر	-11414
▁متوا	-11415
▁محبي	-11416
▁محرر	-11417
▁محله	-11418
▁مدرج	-11419
▁مراع	-11420
▁مراه	-11421
▁مشفي	-11422
▁مصاد	-11423
▁معرو	-11424
▁معقد	-11425
▁معلن	-11426
▁مقدس	-11427
▁مقطع	-11428
▁منحو	-11429
▁منهم	-11430
▁مهنه	-11431
▁موته	-11432
▁موسك	-11433
▁ميلا	-11434
▁ناقل	-11435
▁نداء	-11436
▁نسبي	-11437
▁نصير	-11438
▁نظره	-11439
▁نظمت	-11440
▁نظير	-11441
▁نقدا	-11442
▁نوفل	-11443
▁هادي	-11444
▁هاوس	-11445
▁هدنه	-11446
▁هزمت	-11447
▁هشام	-11448
▁هلال	-11449
▁هويت	-11450
▁ياهو	-11451
▁يبعد	-11452
▁يتسع	-11453
▁يتسم	-11454
▁يتضح	-11455
▁يثاغ	-11456
▁يثبت	-11457
▁يجلس	-11458
▁يحيط	-11459
▁يخطط	-11460
▁يديه	-11461
▁يرتد	-11462
▁يرمز	-11463
▁يريم	-11464
▁يسمع	-11465
▁يشجع	-11466
▁يضاف	-11467
▁يضيف	-11468
▁يطرح	-11469
▁يعبر	-11470
▁يعرب	-11471
▁يعمد	-11472
▁يغاس	-11473
▁يفتح	-11474
▁يفعل	-11475
▁يقرر	-11476
▁يقطع	-11477
▁يلقب	-11478
▁يلمه	-11479
▁ينبع	-11480
▁يومي	-11481
80,000	-11482
اخستان	-11483
ادلفيا	-11484
العراق	-11485
فاضليه	-11486
ومنولث	-11487
ونيسكو	-11488
يراتزي	-11489
▁1948.	-11490
▁1949،	-11491
▁1955،	-11492
▁1956،	-11493
▁1957.	-11494
▁1958،	-11495
▁1966،	-11496
▁1979.	-11497
▁1979،	-11498
▁1980.	-11499
▁1982،	-11500
▁1989.	-11501
▁1992،	-11502
▁ابراز	-11503
▁ابرام	-11504
▁ابرمت	-11505
▁ابقاء	-11506
▁اتاحه	-11507
▁اثبات	-11508
▁اثبتت	-11509
▁اثنتي	-11510
▁اجنحه	-11511
▁اداري	-11512
▁ادخلت	-11513
▁ادركت	-11514
▁ارابي	-11515
▁اراده	-11516
▁اربيل	-11517
▁ارلوس	-11518
▁ارواح	-11519
▁ارينن	-11520
▁استلم	-11521
▁استيا	-11522
▁اشتغل	-11523
▁اشتقت	-11524
▁اشعار	-11525
▁اشوري	-11526
▁اصابت	-11527
▁اصابع	-11528
▁اصناف	-11529
▁اضرحه	-11530
▁اطباء	-11531
▁اعالي	-11532
▁اعلاه	-11533
▁اعليه	-11534
▁اقاله	-11535
▁اقتصر	-11536
▁اقطار	-11537
▁اكرمه	-11538
▁اكملت	-11539
▁الابل	-11540
▁الاخذ	-11541
▁الادي	-11542
▁الاسس	-11543
▁الافت	-11544
▁الافر	-11545
▁الاقد	-11546
▁الباه	-11547
▁البرو	-11548
▁البلي	-11549
▁البند	-11550
▁التقت	-11551
▁التوح	-11552
▁الثغر	-11553
▁الحدس	-11554
▁الحرس	-11555
▁الحفر	-11556
▁الحقب	-11557
▁الحلم	-11558
▁الحمر	-11559
▁الحوي	-11560
▁الخزف	-11561
▁الخير	-11562
▁الخيط	-11563
▁الدته	-11564
▁الديو	-11565
▁الذئب	-11566
▁الربض	-11567
▁الرخص	-11568
▁الزحف	-11569
▁السته	-11570
▁السطح	-11571
▁الشوف	-11572
▁الصدد	-11573
▁الطبع	-11574
▁الطلق	-11575
▁الطوط	-11576
▁العائ	-11577
▁العضو	-11578
▁العكس	-11579
▁العمي	-11580
▁الغيت	-11581
▁الفحم	-11582
▁الفرص	-11583
▁الفسي	-11584
▁الفيا	-11585
▁القاء	-11586
▁القرا	-11587
▁القرم	-11588
▁القصص	-11589
▁القصف	-11590
▁القلق	-11591
▁القمم	-11592
▁الكال	-11593
▁اللام	-11594
▁الماه	-11595
▁المدف	-11596
▁المنظ	-11597
▁النبط	-11598
▁النقص	-11599
▁الهات	-11600
▁الهجر	-11601
▁امتلا	-11602
▁انباء	-11603
▁انبوب	-11604
▁اندلس	-11605
▁انشطت	-11606
▁انفاذ	-11607
▁انقاذ	-11608
▁انقاض	-11609
▁اوزلغ	-11610
▁اوساط	-11611
▁اوقفت	-11612
▁ايزال	-11613
▁ايمار	-11614
▁تابته	-11615
▁تابعا	-11616
▁تابعت	-11617
▁تالفت	-11618
▁تانلي	-11619
▁تبرعت	-11620
▁تتحرك	-11621
▁تتعدد	-11622
▁تتلقي	-11623
▁تجاهل	-11624
▁تجريب	-11625
▁تحتيه	-11626
▁تحفيز	-11627
▁تخترق	-11628
▁ترفيه	-11629
▁تركزت	-11630
▁تساقط	-11631
▁تسليح	-11632
▁تشرشل	-11633
▁تصدرت	-11634
▁تصويت	-11635
▁تطالب	-11636
▁تعددت	-11637
▁تعريب	-11638
▁تعميق	-11639
▁تعيين	-11640
▁تغطيت	-11641
▁تفتقر	-11642
▁تفريغ	-11643
▁تقتصر	-11644
▁تقدما	-11645
▁تكامل	-11646
▁تنافس	-11647
▁تنطبق	-11648
▁تهامه	-11649
▁تهيمن	-11650
▁توسعه	-11651
▁ثروته	-11652
▁جانبي	-11653
▁جسيمه	-11654
▁جعلوا	-11655
▁جيوشه	-11656
▁حدوته	-11657
▁حصلوا	-11658
▁حفلات	-11659
▁حلفاء	-11660
▁حمايت	-11661
▁حملته	-11662
▁حيازه	-11663
▁خارطه	-11664
▁خاليه	-11665
▁خضراء	-11666
▁خلدون	-11667
▁خيريه	-11668
▁دخوله	-11669
▁درايه	-11670
▁درويش	-11671
▁دلائل	-11672
▁دمروا	-11673
▁ديهيه	-11674
▁ذوبان	-11675
▁رباعي	-11676
▁روكسل	-11677
▁زاويه	-11678
▁زعامه	-11679
▁زواجه	-11680
▁زيارت	-11681
▁شاهدا	-11682
▁شخبوط	-11683
▁شواهد	-11684
▁شيراك	-11685
▁شيعيه	-11686
▁صاحبه	-11687
▁صحافه	-11688
▁صغيرا	-11689
▁صقليه	-11690
▁صورته	-11691
▁ضئيله	-11692
▁ضحايا	-11693
▁ضروري	-11694
▁طائرت	-11695
▁طبيعت	-11696
▁طورته	-11697
▁عالما	-11698
▁عاملا	-11699
▁عبدال	-11700
▁عجائب	-11701
▁عريقه	-11702
▁علاقت	-11703
▁عملائ	-11704
▁عملوا	-11705
▁قادمه	-11706
▁قاموس	-11707
▁قدرته	-11708
▁قسمين	-11709
▁قنوات	-11710
▁قيدار	-11711
▁مؤقته	-11712
▁ماركت	-11713
▁ماركو	-11714
▁ماعدا	-11715
▁متاجر	-11716
▁متاهه	-11717
▁متخصص	-11718
▁متطرف	-11719
▁متفرج	-11720
▁متقدم	-11721
▁مثلما	-11722
▁مجزره	-11723
▁محتوا	-11724
▁محددا	-11725
▁محمدا	-11726
▁محمله	-11727
▁مدائن	-11728
▁مداخل	-11729
▁مدافع	-11730
▁مدببه	-11731
▁مدحاء	-11732
▁مدلول	-11733
▁مدنها	-11734
▁مديرا	-11735
▁مذابح	-11736
▁مركزي	-11737
▁مسافر	-11738
▁مسلمه	-11739
▁مسيره	-11740
▁مصانع	-11741
▁مصممه	-11742
▁مصنعا	-11743
▁معظمه	-11744
▁معلما	-11745
▁مفرده	-11746
▁مقتني	-11747
▁مقربه	-11748
▁ملامح	-11749
▁ملتقي	-11750
▁ملحمه	-11751
▁ممثلي	-11752
▁ممكنه	-11753
▁منافس	-11754
▁منزلا	-11755
▁منشور	-11756
▁منطقت	-11757
▁مهاجر	-11758
▁مهندس	-11759
▁مواسم	-11760
▁ميسان	-11761
▁ميونخ	-11762
▁نابلي	-11763
▁ناهيك	-11764
▁نشاته	-11765
▁نشاطا	-11766
▁نغلاد	-11767
▁نقولا	-11768
▁هلمند	-11769
▁يتحول	-11770
▁يتخلل	-11771
▁يتغير	-11772
▁يتمثل	-11773
▁يتوقف	-11774
▁يختار	-11775
▁يخترق	-11776
▁يرافق	-11777
▁يرتاد	-11778
▁يستطع	-11779
▁يستقر	-11780
▁يستقل	-11781
▁يشترط	-11782
▁يشترك	-11783
▁يمتاز	-11784
▁يمكنه	-11785
▁ينتقل	-11786
الصادره	-11787
المعروف	-11788
رائيليه	-11789
ماعيليه	-11790
واسيويه	-11791
▁10,000	-11792
▁40,000	-11793
▁اباتشي	-11794
▁ابجديه	-11795
▁اتينيه	-11796
▁احترام	-11797
▁احدهما	-11798
▁احيانا	-11799
▁اختارت	-11800
▁اردنيه	-11801
▁ارهابي	-11802
▁استاذن	-11803
▁استشهد	-11804
▁استضاف	-11805
▁استلام	-11806
▁استمال	-11807
▁استولت	-11808
▁اسطوره	-11809
▁اسلافه	-11810
▁اصابته	-11811
▁اصداره	-11812
▁اصيبعه	-11813
▁اضطهاد	-11814
▁اطلاقه	-11815
▁اعتداء	-11816
▁اعتراض	-11817
▁اعتنقت	-11818
▁اعمالا	-11819
▁افتراض	-11820
▁اقترحت	-11821
▁اقتصرت	-11822
▁اقليمي	-11823
▁اكتشفت	-11824
▁اكتمال	-11825
▁الاستس	-11826
▁الانقا	-11827
▁البارد	-11828
▁البرقع	-11829
▁البسات	-11830
▁البطول	-11831
▁البلوط	-11832
▁البوني	-11833
▁التحدث	-11834
▁الترشح	-11835
▁التشهد	-11836
▁التصحر	-11837
▁التطرف	-11838
▁التقاء	-11839
▁التكعي	-11840
▁التماس	-11841
▁التنفس	-11842
▁الجدوي	-11843
▁الجراح	-11844
▁الجزئي	-11845
▁الجسور	-11846
▁الحائز	-11847
▁الحاصل	-11848
▁الحبيب	-11849
▁الحرام	-11850
▁الحريق	-11851
▁الحضري	-11852
▁الحمضي	-11853
▁الحنفي	-11854
▁الخالي	-11855
▁الخبره	-11856
▁الخريج	-11857
▁الخضوع	-11858
▁الخيار	-11859
▁الدوال	-11860
▁الذكاء	-11861
▁الراقص	-11862
▁الرصاص	-11863
▁الركعه	-11864
▁الركود	-11865
▁الرمزي	-11866
▁الزبير	-11867
▁الزوار	-11868
▁السائح	-11869
▁السائل	-11870
▁السباق	-11871
▁السفلي	-11872
▁السلال	-11873
▁السلوك	-11874
▁السهره	-11875
▁السواح	-11876
▁السوبر	-11877
▁الشراء	-11878
▁الشعري	-11879
▁الشهره	-11880
▁الصديق	-11881
▁الصعود	-11882
▁الصغار	-11883
▁الصغري	-11884
▁الصفوف	-11885
▁الصوان	-11886
▁الضغوط	-11887
▁الضوئي	-11888
▁الضيقه	-11889
▁الطابق	-11890
▁الطفره	-11891
▁الطلاق	-11892
▁الطويل	-11893
▁العشره	-11894
▁العمائ	-11895
▁الغرفه	-11896
▁الغزاه	-11897
▁الغوري	-11898
▁الفائت	-11899
▁الفائق	-11900
▁الفاتح	-11901
▁الفتيه	-11902
▁الفرار	-11903
▁الفرثي	-11904
▁الفوتو	-11905
▁الفوسف	-11906
▁القاعه	-11907
▁القبلي	-11908
▁القضاه	-11909
▁القليس	-11910
▁القياد	-11911
▁الكبار	-11912
▁الكشاف	-11913
▁الكهوف	-11914
▁الكيان	-11915
▁المؤثر	-11916
▁المتجه	-11917
▁المجرد	-11918
▁المجله	-11919
▁المحلف	-11920
▁المخزن	-11921
▁المخلص	-11922
▁المذيع	-11923
▁المراف	-11924
▁المزيج	-11925
▁المقرب	-11926
▁الملائ	-11927
▁المندب	-11928
▁المنذر	-11929
▁المنعم	-11930
▁المنوع	-11931
▁المهره	-11932
▁الموال	-11933
▁الموضع	-11934
▁الموطن	-11935
▁الناشط	-11936
▁النديم	-11937
▁النظير	-11938
▁النهوض	-11939
▁الهائل	-11940
▁الوجبه	-11941
▁الوكال	-11942
▁اليسون	-11943
▁انتصرت	-11944
▁انتظام	-11945
▁انعدام	-11946
▁انقسام	-11947
▁انواعا	-11948
▁اهميته	-11949
▁اوفكوم	-11950
▁تاسيسه	-11951
▁تتشارك	-11952
▁تستقبل	-11953
▁تستقطب	-11954
▁تستورد	-11955
▁تصويره	-11956
▁تقاليد	-11957
▁تنظيمه	-11958
▁جانبيه	-11959
▁حاسوبا	-11960
▁حاشيته	-11961
▁دانيال	-11962
▁دراسيه	-11963
▁رنامجه	-11964
▁روايته	-11965
▁روكلين	-11966
▁ريدريك	-11967
▁ريدوود	-11968
▁زجاجيه	-11969
▁زنجبار	-11970
▁شاركوا	-11971
▁عاصمته	-11972
▁عثماني	-11973
▁علاقات	-11974
▁عمليتي	-11975
▁عموميه	-11976
▁غيرهما	-11977
▁قابليه	-11978
▁قتاليه	-11979
▁متحدثي	-11980
▁متكرره	-11981
▁متمثله	-11982
▁متميزا	-11983
▁محتمله	-11984
▁مروريه	-11985
▁مستحضر	-11986
▁مستعمر	-11987
▁مستقره	-11988
▁مستقلا	-11989
▁مستلزم	-11990
▁مسلمون	-11991
▁معتبره	-11992
▁مقدمته	-11993
▁مكانته	-11994
▁ملاحظه	-11995
▁ملاحقه	-11996
▁ملحوظا	-11997
▁منتظمه	-11998
▁منطقيه	-11999
▁مهاجره	-12000
▁مواكبه	-12001
▁مواليد	-12002
▁ميدالي	-12003
▁ميكاني	-12004
▁نباتيه	-12005
▁نموذجا	-12006
▁هاجروا	-12007
▁هيدروج	-12008
▁هيلبرت	-12009
▁يتساقط	-12010
▁يتناسب	-12011
▁يتواجد	-12012
▁يليامز	-12013
▁ينيقيا	-12014
▁اجتماعا	-12015
▁اختصارا	-12016
▁اختلفوا	-12017
▁استاجرت	-12018
▁استحداث	-12019
▁استشاره	-12020
▁استعداد	-12021
▁استغرقت	-12022
▁استمروا	-12023
▁استوديو	-12024
▁استيفاء	-12025
▁استيلان	-12026
▁افتتاحه	-12027
▁اقليميا	-12028
▁اكتشافه	-12029
▁الاباضي	-12030
▁الابحار	-12031
▁الاثناء	-12032
▁الاجماع	-12033
▁الادعاء	-12034
▁الارواح	-12035
▁الاسمنت	-12036
▁الاسيوي	-12037
▁الاصنام	-12038
▁الاطعمه	-12039
▁الاعجاز	-12040
▁الاقطار	-12041
▁الاقليه	-12042
▁الاكديه	-12043
▁الامواج	-12044
▁البحاره	-12045
▁البساطه	-12046
▁البقايا	-12047
▁البنجاب	-12048
▁التجريد	-12049
▁التجميع	-12050
▁التدريس	-12051
▁التربيه	-12052
▁الترجيح	-12053
▁التسلسل	-12054
▁التسليم	-12055
▁التطعيم	-12056
▁التعاقد	-12057
▁التقارب	-12058
▁التمييز	-12059
▁التنازل	-12060
▁الثانوي	-12061
▁الثماني	-12062
▁الجائزه	-12063
▁الجريده	-12064
▁الجلندي	-12065
▁الجليدي	-12066
▁الجنائي	-12067
▁الجوانب	-12068
▁الحدسيه	-12069
▁الحراري	-12070
▁الخاطئه	-12071
▁الخرطوم	-12072
▁الخزانه	-12073
▁الخسائر	-12074
▁الخشبيه	-12075
▁الخناجر	-12076
▁الدائمه	-12077
▁الرئاسي	-12078
▁الرطوبه	-12079
▁الرمزيه	-12080
▁الرمليه	-12081
▁الروائي	-12082
▁الزاويه	-12083
▁الزخرفه	-12084
▁الزيديه	-12085
▁الستريك	-12086
▁السحايا	-12087
▁السطحيه	-12088
▁السفاره	-12089
▁السفينه	-12090
▁السلامه	-12091
▁السياده	-12092
▁الشارقه	-12093
▁الشهابي	-12094
▁الشواطئ	-12095
▁الصحابه	-12096
▁الصحابي	-12097
▁الطائفي	-12098
▁الطباعه	-12099
▁الطفوله	-12100
▁العدوان	-12101
▁الغزنوي	-12102
▁الفاتحه	-12103
▁الفرنجه	-12104
▁الفريده	-12105
▁الفلسفي	-12106
▁الفنيقي	-12107
▁الفيروس	-12108
▁الفينيه	-12109
▁القاريه	-12110
▁القصيده	-12111
▁القوارب	-12112
▁القيامه	-12113
▁المؤابي	-12114
▁الماشيه	-12115
▁المتاخر	-12116
▁المتصال	-12117
▁المتصفح	-12118
▁المتطرف	-12119
▁المتمرد	-12120
▁المتميز	-12121
▁المثليه	-12122
▁المثيره	-12123
▁المجمعه	-12124
▁المختصر	-12125
▁المختصه	-12126
▁المخطوط	-12127
▁المدفوع	-12128
▁المدمجه	-12129
▁المدوره	-12130
▁المرناه	-12131
▁المرويه	-12132
▁المزدوج	-12133
▁المزعوم	-12134
▁المساله	-12135
▁المسماه	-12136
▁المصانع	-12137
▁المصدره	-12138
▁المصممه	-12139
▁المطبقه	-12140
▁المطبوع	-12141
▁المطريه	-12142
▁المعروض	-12143
▁المعمار	-12144
▁المقترح	-12145
▁المقدسي	-12146
▁الملحقه	-12147
▁المنازع	-12148
▁المناعه	-12149
▁المنتزه	-12150
▁المهاره	-12151
▁الميديا	-12152
▁النائيه	-12153
▁النباتي	-12154
▁النسبيه	-12155
▁النقاله	-12156
▁الهائله	-12157
▁الوقايه	-12158
▁اليابسه	-12159
▁اليساري	-12160
▁انتقلوا	-12161
▁انتهاكا	-12162
▁تعديلها	-12163
▁تلقائيا	-12164
▁تمثيليه	-12165
▁تنافسيه	-12166
▁ثلاثيني	-12167
▁دستوريه	-12168
▁قسنطينه	-12169
▁ماكنتوش	-12170
▁متفاوته	-12171
▁مشاهدته	-12172
▁ميلاديه	-12173
▁يكيليكس	-12174
▁ينمائيه	-12175
▁اسبرانتو	-12176
▁استقالته	-12177
▁الابتعاد	-12178
▁الاحترام	-12179
▁الاحتياج	-12180
▁الاحتيال	-12181
▁الاختبار	-12182
▁الارتحال	-12183
▁الاستديو	-12184
▁الاصليين	-12185
▁الاصوليه	-12186
▁الاضافيه	-12187
▁الاقتراع	-12188
▁الاكسجين	-12189
▁الالزامي	-12190
▁الامارات	-12191
▁الامتداد	-12192
▁الامهريه	-12193
▁الامويين	-12194
▁الانبعاث	-12195
▁الانتماء	-12196
▁الانخفاض	-12197
▁الانفصال	-12198
▁الانهيار	-12199
▁الاوربيه	-12200
▁الاوزبكي	-12201
▁البلديات	-12202
▁الترابيه	-12203
▁التركيبه	-12204
▁التشريعي	-12205
▁التنمويه	-12206
▁الجزائري	-12207
▁الجلائري	-12208
▁الجماليه	-12209
▁الجمركيه	-12210
▁الحراريه	-12211
▁الحياتيه	-12212
▁الخليجيه	-12213
▁الرفاهيه	-12214
▁السقطريه	-12215
▁السيارات	-12216
▁الشرائيه	-12217
▁الشموليه	-12218
▁العشريني	-12219
▁العلاجيه	-12220
▁العنكبوت	-12221
▁القتاليه	-12222
▁الكاميرا	-12223
▁الكحوليه	-12224
▁الكنعاني	-12225
▁الكوبالت	-12226
▁الكوليرا	-12227
▁اللاسلكي	-12228
▁اللويبده	-12229
▁المتحركه	-12230
▁المترتبه	-12231
▁المتطرفه	-12232
▁المتطوره	-12233
▁المحاكاه	-12234
▁المختلطه	-12235
▁المرموقه	-12236
▁المساهمه	-12237
▁المستعمر	-12238
▁المسعودي	-12239
▁المعاديه	-12240
▁المفاتيح	-12241
▁المقدوني	-12242
▁الميتافي	-12243
▁الميكروب	-12244
▁النظاميه	-12245
▁الوهابيه	-12246
▁انتقاليه	-12247
▁دبلوماسي	-12248
▁رانسيسكو	-12249
▁مستقبليه	-12250
▁يلادلفيا	-12251
▁الابداعيه	-12252
▁الاستدلال	-12253
▁الاستعداد	-12254
▁الاشوريين	-12255
▁الانجليزي	-12256
▁الانشائيه	-12257
▁الايجابيه	-12258
▁البلطيقيه	-12259
▁التحضيريه	-12260
▁التطبيقات	-12261
▁التنظيميه	-12262
▁التيموريه	-12263
▁الحميريين	-12264
▁الدورانيه	-12265
▁السودانيه	-12266
▁السيناريو	-12267
▁الصليبيين	-12268
▁الصهيونيه	-12269
▁العلائقيه	-12270
▁الكومنولث	-12271
▁الكوميديا	-12272
▁المتلاحقه	-12273
▁المقاتلين	-12274
▁الميداليه	-12275
▁الميلاديه	-12276
▁ديوفانتوس	-12277
▁طوبولوجيا	-12278
▁ماتيراتزي	-12279
▁موريتانيا	-12280
▁الاستوائيه	-12281
▁الانتحاريه	-12282
▁الاوركسترا	-12283
▁البكالوريا	-12284
▁الخوارزميه	-12285
▁ايديولوجيه	-12286
▁الاسرائيليه	-12287
▁الاسماعيليه	-12288
)؛	-12289
,6	-12290
-4	-12291
-5	-12292
.0	-12293
23	-12294
28	-12295
63	-12296
81	-12297
94	-12298
تف	-12299
حض	-12300
خت	-12301
دق	-12302
زز	-12303
سو	-12304
شن	-12305
طس	-12306
كز	-12307
لع	-12308
مؤ	-12309
مئ	-12310
نب	-12311
,33	-12312
,95	-12313
-16	-12314
-18	-12315
300	-12316
5.1	-12317
50)	-12318
6.8	-12319
700	-12320
8.8	-12321
9.5	-12322
اتر	-12323
اتو	-12324
اجه	-12325
اسك	-12326
اطه	-12327
اكو	-12328
الخ	-12329
الش	-12330
ايش	-12331
بات	-12332
بلت	-12333
بوس	-12334
بيح	-12335
بيط	-12336
ترز	-12337
تهك	-12338
جئه	-12339
جدي	-12340
جين	-12341
حله	-12342
خان	-12343
خرط	-12344
دال	-12345
درخ	-12346
دعي	-12347
دهر	-12348
دهم	-12349
ذاب	-12350
رتب	-12351
رحه	-12352
رسه	-12353
رضا	-12354
رضه	-12355
رقل	-12356
ركت	-12357
رنه	-12358
رني	-12359
زاع	-12360
زرع	-12361
زلت	-12362
زيت	-12363
زيق	-12364
زيل	-12365
زيم	-12366
سال	-12367
ستق	-12368
سقل	-12369
شاه	-12370
شتا	-12371
شحه	-12372
شده	-12373
صدر	-12374
صده	-12375
صفت	-12376
صلا	-12377
صوب	-12378
صوم	-12379
ضار	-12380
ضال	-12381
ضره	-12382
طاف	-12383
طحه	-12384
طمت	-12385
ظمت	-12386
عقد	-12387
غرس	-12388
غلت	-12389
فرت	-12390
فضا	-12391
قات	-12392
قبت	-12393
قدت	-12394
قطه	-12395
كتو	-12396
كرر	-12397
كست	-12398
كنغ	-12399
احي	-12400
بنت	-12401
ضمح	-12402
عدت	-12403
لات	-12404
لبس	-12405
لته	-12406
لغه	-12407
لهي	-12408
ليح	-12409
ماز	-12410
ماش	-12411
مصر	-12412
موض	-12413
ناب	-12414
ندق	-12415
نفس	-12416
نوف	-12417
نيت	-12418
هاك	-12419
هبي	-12420
هدت	-12421
وئه	-12422
واش	-12423
وجي	-12424
وضح	-12425
وعد	-12426
وفن	-12427
ولس	-12428
ومت	-12429
وود	-12430
ياك	-12431
يدي	-12432
يزه	-12433
يعي	-12434
يلي	-12435
ينت	-12436
يين	-12437
▁,2	-12438
▁54	-12439
▁56	-12440
▁59	-12441
▁74	-12442
▁7،	-12443
▁82	-12444
▁86	-12445
▁89	-12446
▁ثب	-12447
▁دق	-12448
▁دك	-12449
▁سع	-12450
▁سم	-12451
▁شئ	-12452
▁ضغ	-12453
▁طء	-12454
▁طع	-12455
▁عط	-12456
▁عف	-12457
▁غل	-12458
▁غي	-12459
▁فت	-12460
▁فح	-12461
▁نؤ	-12462
▁يي	-12463
ابات	-12464
ابقت	-12465
اتين	-12466
اثرت	-12467
اجست	-12468
اجله	-12469
احبه	-12470
احله	-12471
احنه	-12472
اريج	-12473
اريح	-12474
ازول	-12475
اصير	-12476
اصيه	-12477
اعدا	-12478
اقبت	-12479
اكثر	-12480
الاص	-12481
البر	-12482
اللغ	-12483
المت	-12484
المح	-12485
المه	-12486
امته	-12487
امضه	-12488
انده	-12489
انوا	-12490
انيم	-12491
اوير	-12492
ايتد	-12493
بئيه	-12494
بلاد	-12495
بوعه	-12496
بولت	-12497
بيده	-12498
بيدي	-12499
بيوت	-12500
حاما	-12501
حمام	-12502
حوبه	-12503
داثه	-12504
دامر	-12505
دامي	-12506
دمجه	-12507
دهما	-12508
ذاكر	-12509
راده	-12510
ربين	-12511
رجمه	-12512
رضوا	-12513
رواح	-12514
روبي	-12515
روحه	-12516
ريبي	-12517
ريخت	-12518
ريرا	-12519
زيلا	-12520
ستات	-12521
ستاق	-12522
ستال	-12523
ستوس	-12524
سيان	-12525
سيره	-12526
سيله	-12527
سيوم	-12528
صاده	-12529
صورا	-12530
صوله	-12531
صومه	-12532
ظريه	-12533
ظيما	-12534
عاده	-12535
عمله	-12536
غانه	-12537
غهام	-12538
فاقه	-12539
فاله	-12540
فتين	-12541
فران	-12542
فساء	-12543
فعول	-12544
فيلد	-12545
قبلي	-12546
قدما	-12547
قطعه	-12548
كاما	-12549
كاوي	-12550
كتات	-12551
لاحي	-12552
لاست	-12553
لاعب	-12554
لياس	-12555
ليدس	-12556
مائي	-12557
ماكس	-12558
مجلس	-12559
موعه	-12560
ميته	-12561
ميرا	-12562
ناما	-12563
نتاغ	-12564
نسخه	-12565
نياء	-12566
هلكه	-12567
وائج	-12568
وابه	-12569
واكه	-12570
وبيل	-12571
وتره	-12572
وتلي	-12573
وحده	-12574
وسيا	-12575
وكان	-12576
ونتو	-12577
وياء	-12578
ويتش	-12579
ويته	-12580
ويتي	-12581
ويهي	-12582
يراث	-12583
يكان	-12584
يمار	-12585
▁(12	-12586
▁(13	-12587
▁(32	-12588
▁-19	-12589
▁1,6	-12590
▁1.9	-12591
▁101	-12592
▁106	-12593
▁107	-12594
▁10،	-12595
▁112	-12596
▁118	-12597
▁124	-12598
▁130	-12599
▁133	-12600
▁16.	-12601
▁177	-12602
▁181	-12603
▁2.7	-12604
▁240	-12605
▁29.	-12606
▁3.1	-12607
▁3.6	-12608
▁4.7	-12609
▁41.	-12610
▁5.2	-12611
▁571	-12612
▁6.2	-12613
▁6.5	-12614
▁7.2	-12615
▁776	-12616
▁803	-12617
▁89.	-12618
▁900	-12619
▁950	-12620
▁ائت	-12621
▁ائد	-12622
▁ائط	-12623
▁ابع	-12624
▁اتا	-12625
▁اتز	-12626
▁اجز	-12627
▁احا	-12628
▁احر	-12629
▁اسل	-12630
▁اضر	-12631
▁افي	-12632
▁ايع	-12633
▁ايك	-12634
▁تات	-12635
▁تاد	-12636
▁تتب	-12637
▁تدا	-12638
▁ترع	-12639
▁تسم	-12640
▁تصب	-12641
▁تكت	-12642
▁تير	-12643
▁ثرو	-12644
▁ثقت	-12645
▁ثمت	-12646
▁ثمن	-12647
▁ثيف	-12648
▁ثيق	-12649
▁جاد	-12650
▁جاز	-12651
▁جاف	-12652
▁جلا	-12653
▁جلي	-12654
▁جهد	-12655
▁جين	-12656
▁جيه	-12657
▁حاز	-12658
▁حثا	-12659
▁حذر	-12660
▁حرس	-12661
▁حظه	-12662
▁حقن	-12663
▁حلل	-12664
▁حمض	-12665
▁حوم	-12666
▁حيه	-12667
▁خاف	-12668
▁خلا	-12669
▁دعت	-12670
▁دنا	-12671
▁دود	-12672
▁ديت	-12673
▁رتب	-12674
▁رتش	-12675
▁رحب	-12676
▁رست	-12677
▁رعت	-12678
▁رعي	-12679
▁رفد	-12680
▁ركز	-12681
▁ركه	-12682
▁رلد	-12683
▁زحف	-12684
▁زعي	-12685
▁زيت	-12686
▁شرو	-12687
▁شقق	-12688
▁شمع	-12689
▁شيف	-12690
▁شيك	-12691
▁شين	-12692
▁صاد	-12693
▁صاغ	-12694
▁صال	-12695
▁صفق	-12696
▁صوب	-12697
▁ضيف	-12698
▁طبع	-12699
▁طرس	-12700
▁طيء	-12701
▁طيف	-12702
▁عدل	-12703
▁عشت	-12704
▁عوا	-12705
▁عيه	-12706
▁غاي	-12707
▁غنا	-12708
▁غور	-12709
▁غين	-12710
▁غيه	-12711
▁قبت	-12712
▁قبض	-12713
▁قطه	-12714
▁قلم	-12715
▁ماس	-12716
▁متش	-12717
▁متق	-12718
▁مسئ	-12719
▁مسط	-12720
▁مشي	-12721
▁مصد	-12722
▁مضا	-12723
▁مطر	-12724
▁منب	-12725
▁منك	-12726
▁موض	-12727
▁ميا	-12728
▁ميج	-12729
▁ميخ	-12730
▁ميم	-12731
▁ناخ	-12732
▁ناز	-12733
▁ناص	-12734
▁ناط	-12735
▁نال	-12736
▁نجا	-12737
▁نجل	-12738
▁نزع	-12739
▁نشط	-12740
▁نعي	-12741
▁نقش	-12742
▁نكه	-12743
▁نلن	-12744
▁نهج	-12745
▁هره	-12746
▁هلا	-12747
▁همي	-12748
▁هيا	-12749
▁هيم	-12750
▁ياج	-12751
▁ياف	-12752
▁يال	-12753
▁يام	-12754
▁يتا	-12755
▁يته	-12756
▁يجي	-12757
▁يرل	-12758
▁يزا	-12759
▁يزي	-12760
▁يسب	-12761
▁يطا	-12762
▁يلا	-12763
▁يلف	-12764
▁يلك	-12765
▁ينس	-12766
▁ينف	-12767
▁يور	-12768
اذبيه	-12769
اعديه	-12770
الجبر	-12771
انجلي	-12772
انيري	-12773
بالغه	-12774
بالفن	-12775
تموند	-12776
جانسه	-12777
داقيه	-12778
راكسه	-12779
رنسيه	-12780
زامنه	-12781
سانتو	-12782
سترول	-12783
صاليه	-12784
طرلاب	-12785
غاواط	-12786
فاليه	-12787
قاقير	-12788
كرونه	-12789
ماليق	-12790
مانيا	-12791
وافره	-12792
وافقا	-12793
وافير	-12794
وبايل	-12795
وديوه	-12796
وفيتش	-12797
ويقيه	-12798
يرغيز	-12799
يوبيه	-12800
▁(124	-12801
▁1154	-12802
▁1250	-12803
▁1664	-12804
▁1806	-12805
▁1860	-12806
▁1868	-12807
▁1871	-12808
▁1895	-12809
▁1919	-12810
▁1931	-12811
▁1937	-12812
▁1953	-12813
▁1954	-12814
▁اباء	-12815
▁ابدي	-12816
▁ابيل	-12817
▁اثرا	-12818
▁اثري	-12819
▁اجره	-12820
▁احاط	-12821
▁احتج	-12822
▁احيت	-12823
▁اخاه	-12824
▁اخره	-12825
▁اخضع	-12826
▁ادبي	-12827
▁ادلي	-12828
▁ارجع	-12829
▁ارخص	-12830
▁ارسو	-12831
▁اريا	-12832
▁اسار	-12833
▁استئ	-12834
▁اسسه	-12835
▁اسفه	-12836
▁اسهل	-12837
▁اشتق	-12838
▁اشوع	-12839
▁اصفر	-12840
▁اصلت	-12841
▁اطيح	-12842
▁اعده	-12843
▁اعقب	-12844
▁اغلي	-12845
▁اغنر	-12846
▁افحت	-12847
▁افيد	-12848
▁اقوا	-12849
▁اكله	-12850
▁البذ	-12851
▁البق	-12852
▁الحز	-12853
▁الحظ	-12854
▁الدف	-12855
▁الدو	-12856
▁الزر	-12857
▁السد	-12858
▁السق	-12859
▁الشح	-12860
▁الشق	-12861
▁الصل	-12862
▁العج	-12863
▁الغت	-12864
▁الفط	-12865
▁القه	-12866
▁اللت	-12867
▁الهم	-12868
▁امته	-12869
▁امرت	-12870
▁امين	-12871
▁انتق	-12872
▁انثي	-12873
▁انجز	-12874
▁اندث	-12875
▁انهت	-12876
▁انيب	-12877
▁اهدا	-12878
▁اهور	-12879
▁اوجد	-12880
▁اوقف	-12881
▁اوكل	-12882
▁اوله	-12883
▁ايبر	-12884
▁ايبي	-12885
▁تابت	-12886
▁تالف	-12887
▁تبحث	-12888
▁تبدي	-12889
▁تتجه	-12890
▁تحكي	-12891
▁تختص	-12892
▁تخفض	-12893
▁تخلت	-12894
▁تذهب	-12895
▁ترات	-12896
▁تربع	-12897
▁ترشح	-12898
▁ترعي	-12899
▁ترقي	-12900
▁تشيع	-12901
▁تطبي	-12902
▁تطرف	-12903
▁تعطل	-12904
▁تعقب	-12905
▁تفشي	-12906
▁تفعل	-12907
▁تكشف	-12908
▁تلبي	-12909
▁تنفي	-12910
▁تنهي	-12911
▁تيبه	-12912
▁ثارت	-12913
▁ثروت	-12914
▁ثمار	-12915
▁جافه	-12916
▁جاكس	-12917
▁جراء	-12918
▁جرين	-12919
▁جلبت	-12920
▁جليد	-12921
▁جماه	-12922
▁جناء	-12923
▁جونس	-12924
▁حائط	-12925
▁حادث	-12926
▁حارا	-12927
▁حاسب	-12928
▁حاكم	-12929
▁حجاب	-12930
▁حداد	-12931
▁حزام	-12932
▁حساس	-12933
▁حمزه	-12934
▁حولت	-12935
▁حيده	-12936
▁خلصت	-12937
▁خيبر	-12938
▁خيبه	-12939
▁دابق	-12940
▁دارت	-12941
▁دخان	-12942
▁دعوت	-12943
▁دمار	-12944
▁دويه	-12945
▁رؤيت	-12946
▁رائع	-12947
▁رائه	-12948
▁رابط	-12949
▁راجع	-12950
▁راحه	-12951
▁راسل	-12952
▁رايح	-12953
▁ربطه	-12954
▁رحبت	-12955
▁رحمه	-12956
▁رحيل	-12957
▁رديه	-12958
▁رطان	-12959
▁رفيع	-12960
▁روائ	-12961
▁روده	-12962
▁روست	-12963
▁رياح	-12964
▁ريرا	-12965
▁ريفن	-12966
▁ريمن	-12967
▁زائر	-12968
▁زمام	-12969
▁زميل	-12970
▁زنكي	-12971
▁زيزو	-12972
▁شاكر	-12973
▁شبوه	-12974
▁شجره	-12975
▁شقيق	-12976
▁شهرت	-12977
▁شيعي	-12978
▁شيوخ	-12979
▁شيوع	-12980
▁صارم	-12981
▁صحبه	-12982
▁صرحت	-12983
▁صعبه	-12984
▁صعوب	-12985
▁ضئيل	-12986
▁طاته	-12987
▁طاني	-12988
▁طاهر	-12989
▁طبقت	-12990
▁طيور	-12991
▁عثور	-12992
▁عدوي	-12993
▁عرفه	-12994
▁عرقي	-12995
▁عصاب	-12996
▁عصره	-12997
▁عفان	-12998
▁عقبه	-12999
▁عماد	-13000
▁عمدا	-13001
▁عناو	-13002
▁عنهم	-13003
▁عهود	-13004
▁عيدي	-13005
▁عينت	-13006
▁غسان	-13007
▁قارئ	-13008
▁قاما	-13009
▁قانو	-13010
▁قبلت	-13011
▁قتها	-13012
▁قصرا	-13013
▁قصفت	-13014
▁قصوي	-13015
▁مؤهل	-13016
▁ماته	-13017
▁مارت	-13018
▁مبرم	-13019
▁متفر	-13020
▁متفو	-13021
▁متوج	-13022
▁متور	-13023
▁مثله	-13024
▁مجري	-13025
▁مجلد	-13026
▁محاص	-13027
▁محرم	-13028
▁محقق	-13029
▁محمي	-13030
▁مدته	-13031
▁مذحج	-13032
▁مرجع	-13033
▁مرشد	-13034
▁مشجع	-13035
▁مصاف	-13036
▁مصعب	-13037
▁مطرح	-13038
▁مظفر	-13039
▁معيل	-13040
▁مفرط	-13041
▁مفيد	-13042
▁مقرر	-13043
▁مقوم	-13044
▁مكرب	-13045
▁منجز	-13046
▁منفذ	-13047
▁مهدي	-13048
▁مهني	-13049
▁مواز	-13050
▁مياد	-13051
▁ميته	-13052
▁نبيل	-13053
▁نتجت	-13054
▁نجوم	-13055
▁نراد	-13056
▁نزوي	-13057
▁نسيج	-13058
▁نسيم	-13059
▁نشطت	-13060
▁نصره	-13061
▁نعاه	-13062
▁نعمه	-13063
▁نفطي	-13064
▁نقلا	-13065
▁نقله	-13066
▁نكسه	-13067
▁نهرا	-13068
▁نهوض	-13069
▁نووي	-13070
▁هاشم	-13071
▁هدفه	-13072
▁هذان	-13073
▁هماي	-13074
▁يؤذن	-13075
▁ياحي	-13076
▁ياري	-13077
▁ياكل	-13078
▁يامر	-13079
▁يبحث	-13080
▁يبري	-13081
▁يبوس	-13082
▁يتحد	-13083
▁يتلق	-13084
▁يثرب	-13085
▁يحرص	-13086
▁يحمي	-13087
▁يدار	-13088
▁يدرك	-13089
▁يراد	-13090
▁يرته	-13091
▁يرجن	-13092
▁يزود	-13093
▁يستا	-13094
▁يسري	-13095
▁يسوع	-13096
▁يصفه	-13097
▁يصلب	-13098
▁يصلي	-13099
▁يضاء	-13100
▁يضرب	-13101
▁يطلع	-13102
▁يعان	-13103
▁يعقد	-13104
▁يعين	-13105
▁يغلب	-13106
▁يفسر	-13107
▁يفقد	-13108
▁يكشف	-13109
▁يكفل	-13110
▁يكفي	-13111
▁يلجا	-13112
▁يلدز	-13113
▁يلزم	-13114
▁يلما	-13115
▁يمني	-13116
▁ينشا	-13117
▁ينضم	-13118
▁ينمو	-13119
▁يهما	-13120
▁يوثق	-13121
▁يوحي	-13122
▁يوضح	-13123
▁ييرو	-13124
اجستير	-13125
الدونم	-13126
باكارد	-13127
سالوني	-13128
سقلاني	-13129
كتوراه	-13130
ماعيلي	-13131
واحيها	-13132
يبيريه	-13133
▁1878،	-13134
▁1917.	-13135
▁1917،	-13136
▁1919،	-13137
▁1921.	-13138
▁1921،	-13139
▁1923.	-13140
▁1934.	-13141
▁1936.	-13142
▁1939.	-13143
▁1944،	-13144
▁1945.	-13145
▁1953.	-13146
▁1957،	-13147
▁1962،	-13148
▁1969،	-13149
▁1970،	-13150
▁1971،	-13151
▁1972،	-13152
▁1985.	-13153
▁1986.	-13154
▁1992.	-13155
▁2002.	-13156
▁2022.	-13157
▁ابجون	-13158
▁ابداع	-13159
▁ابنته	-13160
▁اتفقت	-13161
▁اثولي	-13162
▁اجابت	-13163
▁اجازه	-13164
▁اجبار	-13165
▁احفاد	-13166
▁احواض	-13167
▁اخرون	-13168
▁اخطار	-13169
▁اخلاق	-13170
▁اخماد	-13171
▁اخوته	-13172
▁ادباء	-13173
▁ادرجت	-13174
▁ارتحل	-13175
▁ارتكب	-13176
▁ارديف	-13177
▁ارسله	-13178
▁ارياب	-13179
▁ازياء	-13180
▁استبع	-13181
▁استنت	-13182
▁اسماؤ	-13183
▁اسمائ	-13184
▁اسناد	-13185
▁اسنان	-13186
▁اشترط	-13187
▁اشترك	-13188
▁اشرطه	-13189
▁اصوله	-13190
▁اضلاع	-13191
▁اعتني	-13192
▁اعطاه	-13193
▁اعقبت	-13194
▁اعيان	-13195
▁اغاثه	-13196
▁اغلقت	-13197
▁اقدام	-13198
▁اقضيه	-13199
▁اقواس	-13200
▁اكتمل	-13201
▁الاذن	-13202
▁الاسب	-13203
▁الاطر	-13204
▁الاكل	-13205
▁الالم	-13206
▁الامل	-13207
▁الاوك	-13208
▁الايه	-13209
▁البان	-13210
▁البرا	-13211
▁البرد	-13212
▁البسط	-13213
▁البصل	-13214
▁البيك	-13215
▁التاج	-13216
▁التحي	-13217
▁التخز	-13218
▁التدم	-13219
▁الترب	-13220
▁الترح	-13221
▁التفر	-13222
▁التكت	-13223
▁التلح	-13224
▁التوت	-13225
▁الجاد	-13226
▁الجاف	-13227
▁الجبس	-13228
▁الجبن	-13229
▁الجعف	-13230
▁الجور	-13231
▁الجوف	-13232
▁الحرا	-13233
▁الحرص	-13234
▁الحسي	-13235
▁الحصر	-13236
▁الحصن	-13237
▁الحصه	-13238
▁الحله	-13239
▁الحمي	-13240
▁الحوا	-13241
▁الحور	-13242
▁الحيد	-13243
▁الخطر	-13244
▁الخطو	-13245
▁الخلق	-13246
▁الدهر	-13247
▁الدوا	-13248
▁الرده	-13249
▁الرعي	-13250
▁الرمز	-13251
▁الرمل	-13252
▁الزام	-13253
▁السبت	-13254
▁السحب	-13255
▁السمه	-13256
▁السوس	-13257
▁الشاط	-13258
▁الشمو	-13259
▁الصفه	-13260
▁الصيت	-13261
▁الضال	-13262
▁الضخم	-13263
▁الضعي	-13264
▁الضلع	-13265
▁العتي	-13266
▁العجز	-13267
▁العدن	-13268
▁العرق	-13269
▁العزف	-13270
▁العصف	-13271
▁العفو	-13272
▁العله	-13273
▁العنا	-13274
▁العنب	-13275
▁العين	-13276
▁الغضب	-13277
▁الفاش	-13278
▁الفان	-13279
▁الفاو	-13280
▁الفطر	-13281
▁الفهر	-13282
▁الفيه	-13283
▁القفر	-13284
▁القوس	-13285
▁الكثي	-13286
▁الكرو	-13287
▁اللاه	-13288
▁اللبس	-13289
▁الليم	-13290
▁المؤد	-13291
▁الماس	-13292
▁المتك	-13293
▁المجر	-13294
▁المرق	-13295
▁المضم	-13296
▁المعن	-13297
▁المفق	-13298
▁المهم	-13299
▁الموز	-13300
▁الموف	-13301
▁النتر	-13302
▁النطق	-13303
▁الهرب	-13304
▁الواح	-13305
▁الورد	-13306
▁الوصف	-13307
▁انتصر	-13308
▁انجبت	-13309
▁انشاؤ	-13310
▁انصرف	-13311
▁انطلا	-13312
▁انعكس	-13313
▁ايساف	-13314
▁ايصال	-13315
▁ايلان	-13316
▁تاجيل	-13317
▁تبريد	-13318
▁تتحمل	-13319
▁تتطور	-13320
▁تتوقف	-13321
▁تتويج	-13322
▁تجارت	-13323
▁تجتمع	-13324
▁تجعله	-13325
▁تحريك	-13326
▁تحسنت	-13327
▁تحصين	-13328
▁تحضير	-13329
▁تحققت	-13330
▁تخريب	-13331
▁تخزين	-13332
▁تدافع	-13333
▁تدعيم	-13334
▁ترحيل	-13335
▁تريلي	-13336
▁تزامن	-13337
▁تزدهر	-13338
▁تستغل	-13339
▁تسربت	-13340
▁تشرين	-13341
▁تشستر	-13342
▁تشهده	-13343
▁تصاعد	-13344
▁تصحيح	-13345
▁تضررت	-13346
▁تطبيع	-13347
▁تعاطي	-13348
▁تعتقد	-13349
▁تعطيل	-13350
▁تعميم	-13351
▁تعهدت	-13352
▁تفاوض	-13353
▁تفكير	-13354
▁تقابل	-13355
▁تقاطع	-13356
▁تقترب	-13357
▁تقدمه	-13358
▁تقويض	-13359
▁تقويه	-13360
▁تكونت	-13361
▁تنازل	-13362
▁تناقش	-13363
▁تنتظر	-13364
▁تنتقل	-13365
▁تنحدر	-13366
▁تندمج	-13367
▁تنوعا	-13368
▁توافد	-13369
▁توفيت	-13370
▁تيماء	-13371
▁ثقافت	-13372
▁جامعي	-13373
▁جدوله	-13374
▁جريمه	-13375
▁جهازا	-13376
▁جهوده	-13377
▁جوليا	-13378
▁حادثه	-13379
▁حاكمه	-13380
▁حاميه	-13381
▁حجاره	-13382
▁حجريه	-13383
▁حدسيه	-13384
▁حدوده	-13385
▁حرائق	-13386
▁حساسه	-13387
▁حصارا	-13388
▁حوسبه	-13389
▁حيلان	-13390
▁حيويا	-13391
▁خانيه	-13392
▁خبراء	-13393
▁خرجوا	-13394
▁خريجي	-13395
▁خشبيه	-13396
▁خصخصه	-13397
▁خصومه	-13398
▁خلافا	-13399
▁دانيل	-13400
▁دبابه	-13401
▁دقائق	-13402
▁ديفيس	-13403
▁ذاتيا	-13404
▁ذكروا	-13405
▁رئيسه	-13406
▁راسيه	-13407
▁رامجه	-13408
▁راهما	-13409
▁ربيعه	-13410
▁ردريش	-13411
▁رغانه	-13412
▁رفيعه	-13413
▁رقاقه	-13414
▁رقميه	-13415
▁ركعات	-13416
▁رونكس	-13417
▁ريدان	-13418
▁ريدرخ	-13419
▁ريلان	-13420
▁زالوا	-13421
▁زميله	-13422
▁زوارق	-13423
▁زوايا	-13424
▁شاهده	-13425
▁شديدا	-13426
▁شريطه	-13427
▁شعبيا	-13428
▁صحفيه	-13429
▁صخريه	-13430
▁صراحه	-13431
▁ضربوا	-13432
▁ضفافه	-13433
▁ضيافه	-13434
▁طالبا	-13435
▁طالبت	-13436
▁طباعه	-13437
▁طموحه	-13438
▁طوارئ	-13439
▁طوروس	-13440
▁طينيه	-13441
▁ظائفه	-13442
▁عارضت	-13443
▁عباءه	-13444
▁عشريه	-13445
▁عضهما	-13446
▁عليهم	-13447
▁عماله	-13448
▁عنيفه	-13449
▁غرامه	-13450
▁غزيره	-13451
▁قائدا	-13452
▁قاصدا	-13453
▁قاطعا	-13454
▁قباله	-13455
▁قباني	-13456
▁مؤرخا	-13457
▁مؤرخو	-13458
▁مؤسسي	-13459
▁مؤكدا	-13460
▁مؤهله	-13461
▁مئذنه	-13462
▁مائتي	-13463
▁ماديا	-13464
▁ماراد	-13465
▁ماريا	-13466
▁مالبث	-13467
▁مالمي	-13468
▁ماليا	-13469
▁مبعوث	-13470
▁مبورغ	-13471
▁مبيعا	-13472
▁متطور	-13473
▁متغير	-13474
▁متنوع	-13475
▁مثيره	-13476
▁مجرده	-13477
▁محاكم	-13478
▁مدروس	-13479
▁مدفوع	-13480
▁مدينت	-13481
▁مرارا	-13482
▁مرتين	-13483
▁مركزه	-13484
▁مستور	-13485
▁مسرحا	-13486
▁مسلحه	-13487
▁مسيرت	-13488
▁مشاور	-13489
▁مشروب	-13490
▁مصنوع	-13491
▁مطربه	-13492
▁معابد	-13493
▁معرضا	-13494
▁معقده	-13495
▁معلمه	-13496
▁معهما	-13497
▁مغترب	-13498
▁مقدسه	-13499
▁مقررا	-13500
▁مقصدا	-13501
▁مكاسب	-13502
▁ملابس	-13503
▁ملاحظ	-13504
▁ملاذا	-13505
▁ملوحه	-13506
▁مليئه	-13507
▁ممنوع	-13508
▁مناقش	-13509
▁منتجع	-13510
▁منتجه	-13511
▁منتدي	-13512
▁منصبا	-13513
▁منظور	-13514
▁منقطع	-13515
▁مهنيه	-13516
▁موظفو	-13517
▁ناديه	-13518
▁ناشئه	-13519
▁نافذه	-13520
▁ناقله	-13521
▁نشاطه	-13522
▁نظيره	-13523
▁نفوذه	-13524
▁نقديه	-13525
▁نقصان	-13526
▁نلندي	-13527
▁نوعان	-13528
▁نوعيا	-13529
▁نيوتن	-13530
▁هزموا	-13531
▁هلسنغ	-13532
▁هوائي	-13533
▁هوايه	-13534
▁هوتاك	-13535
▁هوليت	-13536
▁هيرود	-13537
▁ياغرا	-13538
▁يتدفق	-13539
▁يتطور	-13540
▁يتلقي	-13541
▁يجوال	-13542
▁يحاكي	-13543
▁يحتفل	-13544
▁يحتمل	-13545
▁يريكا	-13546
▁يزنطه	-13547
▁يساوي	-13548
▁يستدل	-13549
▁يسميه	-13550
▁يعارض	-13551
▁يعتزل	-13552
▁يغادر	-13553
▁يقترب	-13554
▁يقترح	-13555
▁يقصده	-13556
▁ينحسر	-13557
▁ينخفض	-13558
الاصدار	-13559
المدينه	-13560
المرتبه	-13561
طنطينيه	-13562
ليكوبتر	-13563
▁,2000)	-13564
▁1999)،	-13565
▁25,000	-13566
▁50,000	-13567
▁70,000	-13568
▁ابرزها	-13569
▁ابناؤه	-13570
▁اتفاقا	-13571
▁اتورفا	-13572
▁اجبروا	-13573
▁احتواء	-13574
▁احكاما	-13575
▁اخلاقي	-13576
▁ادخلوا	-13577
▁ارتكبت	-13578
▁استدعي	-13579
▁استغرق	-13580
▁استقلت	-13581
▁استياء	-13582
▁اصطدمت	-13583
▁اضرارا	-13584
▁اطرافه	-13585
▁اعترضت	-13586
▁اعتصام	-13587
▁اعداده	-13588
▁اعضائه	-13589
▁اعلانه	-13590
▁افاريا	-13591
▁افكاره	-13592
▁اقليدس	-13593
▁اكملها	-13594
▁الابرز	-13595
▁الاثني	-13596
▁الاخوه	-13597
▁الاذان	-13598
▁الارجح	-13599
▁الارجو	-13600
▁الازدي	-13601
▁الاسكت	-13602
▁الاضاف	-13603
▁الاغلب	-13604
▁الاقرب	-13605
▁الاكدي	-13606
▁الامثل	-13607
▁الامنه	-13608
▁الاوسع	-13609
▁الايدي	-13610
▁البابا	-13611
▁الباشا	-13612
▁الباقي	-13613
▁البران	-13614
▁البربر	-13615
▁البطاق	-13616
▁البعيد	-13617
▁البلده	-13618
▁البليخ	-13619
▁البنفس	-13620
▁البهار	-13621
▁البورص	-13622
▁التحرك	-13623
▁التحكم	-13624
▁التسعه	-13625
▁التشيك	-13626
▁التصرف	-13627
▁التناف	-13628
▁التنحي	-13629
▁التوسط	-13630
▁الثلجي	-13631
▁الثوار	-13632
▁الجزار	-13633
▁الجلاء	-13634
▁الجنائ	-13635
▁الجهات	-13636
▁الجيده	-13637
▁الحرفي	-13638
▁الحسيه	-13639
▁الحمار	-13640
▁الخزان	-13641
▁الخضرو	-13642
▁الخلوي	-13643
▁الخليل	-13644
▁الخيول	-13645
▁الدافئ	-13646
▁الذروه	-13647
▁الرؤيه	-13648
▁الراحه	-13649
▁الرجوع	-13650
▁الرحله	-13651
▁الرحيم	-13652
▁الرخام	-13653
▁الرخصه	-13654
▁الرعيه	-13655
▁الرقصه	-13656
▁الرملي	-13657
▁الروحي	-13658
▁الزيار	-13659
▁السؤال	-13660
▁السبيل	-13661
▁السحاب	-13662
▁السطوح	-13663
▁السعيد	-13664
▁السفار	-13665
▁السكني	-13666
▁السلبي	-13667
▁السلمي	-13668
▁السنيه	-13669
▁السيئه	-13670
▁السيره	-13671
▁الشراه	-13672
▁الشوبك	-13673
▁الصافي	-13674
▁الصحوه	-13675
▁الصداع	-13676
▁الصروح	-13677
▁الصوفي	-13678
▁الضريح	-13679
▁الطبول	-13680
▁الطفله	-13681
▁الظالم	-13682
▁الظلام	-13683
▁العائد	-13684
▁العبور	-13685
▁العروس	-13686
▁العريق	-13687
▁العزاء	-13688
▁العزله	-13689
▁العطاء	-13690
▁العقلي	-13691
▁العقوب	-13692
▁العمده	-13693
▁العميل	-13694
▁الفرقه	-13695
▁الفصول	-13696
▁الفناء	-13697
▁الفورد	-13698
▁القاري	-13699
▁القدوم	-13700
▁القراء	-13701
▁القرنه	-13702
▁القصاص	-13703
▁القوات	-13704
▁الكافي	-13705
▁الكلاب	-13706
▁الكلبي	-13707
▁الكمال	-13708
▁الكوني	-13709
▁الكيشي	-13710
▁اللسان	-13711
▁المؤكد	-13712
▁المارك	-13713
▁المتعا	-13714
▁المتمر	-13715
▁المجلد	-13716
▁المجند	-13717
▁المحمي	-13718
▁المخصص	-13719
▁المخلف	-13720
▁المدعي	-13721
▁المرجع	-13722
▁المرجه	-13723
▁المرصد	-13724
▁المريخ	-13725
▁المساس	-13726
▁المصنف	-13727
▁المصور	-13728
▁المعبد	-13729
▁المعلن	-13730
▁المكور	-13731
▁الملاح	-13732
▁الملاك	-13733
▁الملوث	-13734
▁المنسف	-13735
▁الميزه	-13736
▁النازح	-13737
▁النازي	-13738
▁الناشر	-13739
▁الناقل	-13740
▁النبوي	-13741
▁النبيذ	-13742
▁النجار	-13743
▁النخبه	-13744
▁النشيد	-13745
▁النظره	-13746
▁النفاي	-13747
▁النهري	-13748
▁الهدوء	-13749
▁الهوكي	-13750
▁الوجهه	-13751
▁الوقود	-13752
▁اليسار	-13753
▁انتاجه	-13754
▁انتباه	-13755
▁انتزاع	-13756
▁انتظار	-13757
▁انتمائ	-13758
▁انشاوا	-13759
▁انفتاح	-13760
▁ايلاند	-13761
▁اينشتا	-13762
▁تاريخي	-13763
▁تتداخل	-13764
▁تتساقط	-13765
▁تتمركز	-13766
▁تتواجد	-13767
▁تجارته	-13768
▁تحالفا	-13769
▁تحويله	-13770
▁تداولا	-13771
▁تراوحت	-13772
▁تزايدت	-13773
▁تستهلك	-13774
▁تسميته	-13775
▁تشارلي	-13776
▁تعليقه	-13777
▁تعيينه	-13778
▁تفاليا	-13779
▁تكرارا	-13780
▁تلفازي	-13781
▁تلميذه	-13782
▁تليفزي	-13783
▁تنفيذه	-13784
▁ثائقيه	-13785
▁ثلاثيه	-13786
▁جلالته	-13787
▁جماليه	-13788
▁جواسيس	-13789
▁جورنال	-13790
▁جيبوتي	-13791
▁حديديه	-13792
▁حمامات	-13793
▁حينذاك	-13794
▁دائرتي	-13795
▁دويتشه	-13796
▁رانسوا	-13797
▁روفورد	-13798
▁رويترز	-13799
▁ريطاني	-13800
▁زملائه	-13801
▁شرحبيل	-13802
▁صلاحيه	-13803
▁صناديق	-13804
▁صواريخ	-13805
▁ضروريه	-13806
▁طالبوا	-13807
▁عشوائي	-13808
▁علاقته	-13809
▁غالبيت	-13810
▁غلاكسو	-13811
▁غنائيه	-13812
▁قاسيون	-13813
▁قبيلته	-13814
▁قيرغيز	-13815
▁ماخوذه	-13816
▁مالوفا	-13817
▁مبرهنه	-13818
▁متاثره	-13819
▁متطرفه	-13820
▁متقدما	-13821
▁متكامل	-13822
▁متنوعا	-13823
▁متوتره	-13824
▁محاصره	-13825
▁محاولت	-13826
▁محايده	-13827
▁محبوبه	-13828
▁مخالفه	-13829
▁مدينته	-13830
▁مراعاه	-13831
▁مرحلته	-13832
▁مركزيا	-13833
▁مروحيه	-13834
▁مزاوله	-13835
▁مسؤولو	-13836
▁مستودع	-13837
▁مستورد	-13838
▁مسيحيا	-13839
▁مسيطره	-13840
▁مشاركت	-13841
▁مشاهير	-13842
▁مشروعه	-13843
▁معاصره	-13844
▁معالجت	-13845
▁معتمده	-13846
▁معدنيه	-13847
▁معزوله	-13848
▁مكافاه	-13849
▁ملائمه	-13850
▁ملحوظه	-13851
▁مليندا	-13852
▁مملكته	-13853
▁منافسي	-13854
▁منحوته	-13855
▁مندوبي	-13856
▁منظومه	-13857
▁موجودا	-13858
▁موسكفا	-13859
▁ميلندا	-13860
▁نابولي	-13861
▁نزويلا	-13862
▁نلنديا	-13863
▁يتشارك	-13864
▁يريتوس	-13865
▁يستفيد	-13866
▁يستولي	-13867
▁يشكلان	-13868
▁يكسترا	-13869
▁يماثله	-13870
▁ينمائي	-13871
انجليزيه	-13872
يمارستان	-13873
▁400,000	-13874
▁ابداعيه	-13875
▁احتجاجا	-13876
▁اختاروا	-13877
▁اراضيها	-13878
▁ازدحاما	-13879
▁استئناف	-13880
▁استبعاد	-13881
▁استفاده	-13882
▁استقطاب	-13883
▁استولوا	-13884
▁اعتقدوا	-13885
▁افلاطون	-13886
▁اقتصاده	-13887
▁اكسونيا	-13888
▁الابجدي	-13889
▁الابلاغ	-13890
▁الاتباع	-13891
▁الاجابه	-13892
▁الاجازه	-13893
▁الاجرام	-13894
▁الاحقاف	-13895
▁الاحواض	-13896
▁الاذريه	-13897
▁الارسطي	-13898
▁الارياف	-13899
▁الاسئله	-13900
▁الاشرطه	-13901
▁الاصطنا	-13902
▁الاصناف	-13903
▁الاعداء	-13904
▁الاعصاب	-13905
▁الاعصار	-13906
▁الاعمده	-13907
▁الافلاج	-13908
▁الالقاب	-13909
▁الالهيه	-13910
▁الامراء	-13911
▁الاميره	-13912
▁الانجلو	-13913
▁الانقاذ	-13914
▁الاوبئه	-13915
▁الاوربي	-13916
▁الايكون	-13917
▁الايوان	-13918
▁البديله	-13919
▁البويهي	-13920
▁التبشير	-13921
▁التجديف	-13922
▁التحسين	-13923
▁التخفيض	-13924
▁التداخل	-13925
▁التربيع	-13926
▁الترميز	-13927
▁الترويج	-13928
▁التعايش	-13929
▁التعقيد	-13930
▁التفاوض	-13931
▁التفتيش	-13932
▁التقليل	-13933
▁التلفزه	-13934
▁التمثال	-13935
▁التمريض	-13936
▁التوافق	-13937
▁التوحيد	-13938
▁التوظيف	-13939
▁الثالوث	-13940
▁الثرثار	-13941
▁الجاليه	-13942
▁الجرائد	-13943
▁الجعزيه	-13944
▁الحاسبه	-13945
▁الحبشيه	-13946
▁الحجابه	-13947
▁الحجريه	-13948
▁الحداثه	-13949
▁الحساسه	-13950
▁الحفصيه	-13951
▁الحقوقي	-13952
▁الحوائج	-13953
▁الحويزه	-13954
▁الخارطه	-13955
▁الخصوبه	-13956
▁الخلجان	-13957
▁الدنمار	-13958
▁الذخيره	-13959
▁الرؤساء	-13960
▁الرئويه	-13961
▁الرابيه	-13962
▁الرستاق	-13963
▁الركابي	-13964
▁الزاميه	-13965
▁الزباره	-13966
▁الزخارف	-13967
▁الزواحف	-13968
▁السائله	-13969
▁السالبه	-13970
▁السحابه	-13971
▁السلاسل	-13972
▁السماوه	-13973
▁السياره	-13974
▁الشرائح	-13975
▁الشمسيه	-13976
▁الصارمه	-13977
▁الصفاري	-13978
▁الضحايا	-13979
▁الطاعون	-13980
▁الطوارئ	-13981
▁العادله	-13982
▁العرفيه	-13983
▁العشائر	-13984
▁العصيان	-13985
▁العقوبه	-13986
▁العقيده	-13987
▁العميقه	-13988
▁الغزلان	-13989
▁الفائده	-13990
▁الفاخره	-13991
▁الفاصله	-13992
▁الفقهاء	-13993
▁الفنانه	-13994
▁الفيضان	-13995
▁القاحله	-13996
▁القاصيه	-13997
▁القبيله	-13998
▁القدامي	-13999
▁القرطاج	-14000
▁القضائي	-14001
▁القنابل	-14002
▁القوائم	-14003
▁الكاذبه	-14004
▁الكاظمي	-14005
▁الكافيه	-14006
▁الكبريت	-14007
▁الكرامه	-14008
▁الكلمات	-14009
▁الكوارث	-14010
▁الكويتي	-14011
▁اللغتان	-14012
▁المؤديه	-14013
▁المؤلفه	-14014
▁المؤهله	-14015
▁المئويه	-14016
▁الماهره	-14017
▁المتاجر	-14018
▁المتحدر	-14019
▁المتصله	-14020
▁المتنبي	-14021
▁المتوفي	-14022
▁المثالي	-14023
▁المجالس	-14024
▁المخلوع	-14025
▁المدائن	-14026
▁المراحل	-14027
▁المرافئ	-14028
▁المراكب	-14029
▁المراهق	-14030
▁المرونه	-14031
▁المزوده	-14032
▁المستند	-14033
▁المسلمه	-14034
▁المسيره	-14035
▁المشتري	-14036
▁المشتقه	-14037
▁المشكله	-14038
▁المشوره	-14039
▁المصدري	-14040
▁المضافه	-14041
▁المعكوس	-14042
▁المغامر	-14043
▁المفتوح	-14044
▁المقاصد	-14045
▁المقاله	-14046
▁المقاول	-14047
▁المقبله	-14048
▁المكاتب	-14049
▁المكانه	-14050
▁المكتشف	-14051
▁الملاحظ	-14052
▁الملوثه	-14053
▁المناظر	-14054
▁المناقش	-14055
▁المناهض	-14056
▁المنحوت	-14057
▁المنزلي	-14058
▁المنشور	-14059
▁الميراث	-14060
▁الناريه	-14061
▁النبلاء	-14062
▁النزلاء	-14063
▁النصاري	-14064
▁النوعيه	-14065
▁الهاشمي	-14066
▁الهجمات	-14067
▁الهندسي	-14068
▁الهيكله	-14069
▁الوراثه	-14070
▁الورقيه	-14071
▁الوزاري	-14072
▁الوساطه	-14073
▁الوسيطه	-14074
▁الولاده	-14075
▁اليفالا	-14076
▁اليوبيل	-14077
▁انتشاره	-14078
▁انطلياس	-14079
▁ايجابيه	-14080
▁تفاعليه	-14081
▁تلفازيه	-14082
▁ثمانيني	-14083
▁داغستان	-14084
▁ريدموند	-14085
▁زيرستان	-14086
▁شارلمان	-14087
▁صحراويه	-14088
▁ضواحيها	-14089
▁علمانيه	-14090
▁عمرانيا	-14091
▁مبيعاته	-14092
▁متوافقه	-14093
▁محافظتي	-14094
▁مستعمره	-14095
▁مستقبلا	-14096
▁معياريه	-14097
▁منافسيه	-14098
▁مواطنيه	-14099
▁ميخائيل	-14100
▁ميغاواط	-14101
▁يثاغورس	-14102
▁يستخدمه	-14103
▁يونانيه	-14104
▁يونايتد	-14105
▁ازاخستان	-14106
▁استطاعوا	-14107
▁استعملوا	-14108
▁اسهاماته	-14109
▁الاباضيه	-14110
▁الابنودي	-14111
▁الاتفاقي	-14112
▁الاحتمال	-14113
▁الاحمديه	-14114
▁الاختيار	-14115
▁الاربعاء	-14116
▁الاربعين	-14117
▁الارتباط	-14118
▁الاسابيع	-14119
▁الاساطير	-14120
▁الاساليب	-14121
▁الاستياء	-14122
▁الاشرفيه	-14123
▁الاعتقال	-14124
▁الاقطاعي	-14125
▁الاكتمال	-14126
▁الالتهاب	-14127
▁الاماميه	-14128
▁الانتصاب	-14129
▁الانتهاك	-14130
▁الانحدار	-14131
▁الانفجار	-14132
▁الاولمبي	-14133
▁الايوبيه	-14134
▁البرتقال	-14135
▁البوندسر	-14136
▁البيروني	-14137
▁التجريدي	-14138
▁التخيليه	-14139
▁التدابير	-14140
▁التدريجي	-14141
▁التراخيص	-14142
▁التلاميذ	-14143
▁الجراحيه	-14144
▁الجماهير	-14145
▁الدستوري	-14146
▁الرئاسيه	-14147
▁الزعفران	-14148
▁الشافعيه	-14149
▁الشراكسه	-14150
▁الشركتين	-14151
▁الصواريخ	-14152
▁الطائفيه	-14153
▁الظاهريه	-14154
▁العبراني	-14155
▁العبوديه	-14156
▁العشوائي	-14157
▁العمليات	-14158
▁العمونيه	-14159
▁العنصريه	-14160
▁القيروان	-14161
▁القيصريه	-14162
▁الكاريبي	-14163
▁الكتابيه	-14164
▁الكريليه	-14165
▁المالطيه	-14166
▁الماهوله	-14167
▁المباركه	-14168
▁المتاخمه	-14169
▁المتميزه	-14170
▁المتوجهه	-14171
▁المثاليه	-14172
▁المجموعت	-14173
▁المحايده	-14174
▁المحروقه	-14175
▁المحيطات	-14176
▁المزعومه	-14177
▁المستحضر	-14178
▁المستحيل	-14179
▁المستنده	-14180
▁المشاهير	-14181
▁المضطربه	-14182
▁المعقوله	-14183
▁المغاربه	-14184
▁المغوليه	-14185
▁الملائكه	-14186
▁الملائمه	-14187
▁الملاحظه	-14188
▁الملاحقه	-14189
▁الملاكمه	-14190
▁المنتميه	-14191
▁المهيمنه	-14192
▁المواليد	-14193
▁الموسيقا	-14194
▁الموظفين	-14195
▁الميدالي	-14196
▁الميليشي	-14197
▁الناصريه	-14198
▁النباتات	-14199
▁النوافير	-14200
▁الهاتفيه	-14201
▁الهيليني	-14202
▁الولايات	-14203
▁الياباني	-14204
▁اليمانيه	-14205
▁اليمينيه	-14206
▁الينابيع	-14207
▁انتحاريه	-14208
▁انجازاته	-14209
▁دورتموند	-14210
▁روتستانت	-14211
▁ماستريخت	-14212
▁مونسانتو	-14213
بالالمانيه	-14214
بالفنلنديه	-14215
▁استمراريه	-14216
▁الاثيوبيه	-14217
▁الاحصائيه	-14218
▁الاخلاقيه	-14219
▁الاخمينيه	-14220
▁الاربعيني	-14221
▁الاستحمام	-14222
▁الاستسلام	-14223
▁الاستشهاد	-14224
▁الاستغلال	-14225
▁الاستكشاف	-14226
▁الاسطرلاب	-14227
▁الانتيكيه	-14228
▁الايبيريه	-14229
▁البشتونيه	-14230
▁البوسعيدي	-14231
▁التجاريين	-14232
▁التذكاريه	-14233
▁التشغيليه	-14234
▁التعبيريه	-14235
▁التعويضات	-14236
▁الثلاثيني	-14237
▁الديوانيه	-14238
▁الرحبانيه	-14239
▁الرومانسي	-14240
▁السنانيري	-14241
▁العسكريين	-14242
▁الغارديان	-14243
▁الفاتيكان	-14244
▁الفسيفساء	-14245
▁القحطانيه	-14246
▁الكترونيا	-14247
▁اللحيانيه	-14248
▁الماجستير	-14249
▁المارونيه	-14250
▁المتبادله	-14251
▁المتتاليه	-14252
▁المتناميه	-14253
▁المتواضعه	-14254
▁المرجانيه	-14255
▁المستقبلي	-14256
▁المعكرونه	-14257
▁المواطنين	-14258
▁اليابانيه	-14259
▁اليونيسكو	-14260
▁انتصاراته	-14261
بالانجليزيه	-14262
▁اتورفاستات	-14263
▁استراتيجيت	-14264
▁الاستشاريه	-14265
▁الاسماعيلي	-14266
▁الافتتاحيه	-14267
▁الانفصاليه	-14268
▁الانكليزيه	-14269
▁البيزنطيين	-14270
▁التكنولوجي	-14271
▁السيمفونيه	-14272
▁الفيزيائيه	-14273
▁المنطقانيه	-14274
▁راهماغوبتا	-14275
▁قيرغيزستان	-14276
▁البيمارستان	-14277
▁التليفزيوني	-14278
▁الطوبولوجيا	-14279
▁الفلسطينيين	-14280
▁الفوتوغرافي	-14281
▁القسطنطينيه	-14282
▁الكوليسترول	-14283
▁المعلوماتيه	-14284
▁الافرواسيويه	-14285
▁البروتستانتي	-14286
-8	-14287
3,	-14288
سف	-14289
كف	-14290
▁!	-14291
.87	-14292
20.	-14293
3.6	-14294
4.1	-14295
4.4	-14296
5).	-14297
6.4	-14298
7.4	-14299
▁پ	-14300
888	-14301
9.3	-14302
ئلا	-14303
ائس	-14304
ائش	-14305
اذب	-14306
اشط	-14307
الغ	-14308
امس	-14309
انف	-14310
برا	-14311
بسه	-14312
بود	-14313
بون	-14314
بين	-14315
بيو	-14316
تاب	-14317
تبئ	-14318
تور	-14319
تيت	-14320
تير	-14321
ثني	-14322
ثيس	-14323
ثيف	-14324
جته	-14325
جدت	-14326
جسر	-14327
جوء	-14328
جور	-14329
جيد	-14330
خاش	-14331
خرف	-14332
ذير	-14333
راو	-14334
رتا	-14335
زهي	-14336
سحب	-14337
سسه	-14338
شرح	-14339
شقي	-14340
ضوي	-14341
طته	-14342
طوع	-14343
طوي	-14344
عرب	-14345
فائ	-14346
فيظ	-14347
قيل	-14348
كشف	-14349
ليق	-14350
موي	-14351
ميش	-14352
ندت	-14353
نفه	-14354
ودا	-14355
ودت	-14356
وسا	-14357
وعب	-14358
ويع	-14359
يغو	-14360
يلر	-14361
ينر	-14362
▁3،	-14363
▁69	-14364
▁9,	-14365
▁96	-14366
▁:.	-14367
▁ئل	-14368
▁رئ	-14369
▁ضح	-14370
,953	-14371
-199	-14372
ئتين	-14373
ابسه	-14374
ابنت	-14375
ابيل	-14376
اتان	-14377
ارتا	-14378
اعمه	-14379
اغور	-14380
الات	-14381
الاس	-14382
التع	-14383
المس	-14384
انته	-14385
اوبك	-14386
باطه	-14387
بالا	-14388
بالف	-14389
بحبك	-14390
بحسب	-14391
بوته	-14392
تهيه	-14393
تياح	-14394
جابت	-14395
جازه	-14396
جامش	-14397
حفاه	-14398
حيله	-14399
38	-14400
52	-14401
ئم	-14402
بث	-14403
تع	-14404
ذل	-14405
هز	-14406
يئ	-14407
▁ٱ	-14408
احد	-14409
امض	-14410
انن	-14411
بعل	-14412
شبه	-14413
غله	-14414
كده	-14415
كسي	-14416
كلا	-14417
لاص	-14418
مرك	-14419
مهر	-14420
وجب	-14421
ورث	-14422
وقت	-14423
وقد	-14424
▁عظ	-14425
▁وط	-14426
المد	-14427
توني	-14428
رامه	-14429
رانج	-14430
رداء	-14431
روسه	-14432
رومي	-14433
ريتي	-14434
زوجه	-14435
ساكر	-14436
ستاغ	-14437
ستها	-14438
ستين	-14439
سكيب	-14440
شاره	-14441
صيله	-14442
طاقا	-14443
طاني	-14444
طهاد	-14445
ظيمي	-14446
عاوي	-14447
غواي	-14448
فاقم	-14449
فريد	-14450
فعله	-14451
فورس	-14452
فوره	-14453
قائه	-14454
قونه	-14455
قيدا	-14456
كاثف	-14457
كاري	-14458
كايه	-14459
لائل	-14460
معدل	-14461
ملوك	-14462
ميفع	-14463
ناسق	-14464
ناقض	-14465
نظام	-14466
واحد	-14467
ودان	-14468
وكسي	-14469
وكون	-14470
ولاذ	-14471
وماخ	-14472
وميت	-14473
ونها	-14474
ويلح	-14475
ياغو	-14476
يبري	-14477
يسمي	-14478
يغان	-14479
يلام	-14480
يلوس	-14481
ينيب	-14482
▁(16	-14483
▁(28	-14484
▁(3.	-14485
▁(36	-14486
▁(38	-14487
▁(44	-14488
▁(83	-14489
▁,19	-14490
▁0.0	-14491
▁1,3	-14492
▁1.6	-14493
▁1.8	-14494
▁111	-14495
▁119	-14496
▁122	-14497
▁128	-14498
▁137	-14499
3)	-14500
بخ	-14501
زف	-14502
زق	-14503
سق	-14504
ظب	-14505
لط	-14506
تال	-14507
جاب	-14508
خري	-14509
ريع	-14510
صقه	-14511
ضحه	-14512
طير	-14513
غرب	-14514
قده	-14515
كرت	-14516
ليز	-14517
▁ذب	-14518
▁فض	-14519
▁وا	-14520
,900	-14521
بياع	-14522
ديره	-14523
رقوا	-14524
كمال	-14525
وافر	-14526
وريك	-14527
ونيك	-14528
▁139	-14529
▁141	-14530
▁149	-14531
▁165	-14532
▁16،	-14533
▁17،	-14534
▁19،	-14535
▁20.	-14536
▁216	-14537
▁238	-14538
▁248	-14539
▁25،	-14540
▁320	-14541
▁333	-14542
▁339	-14543
▁375	-14544
▁38.	-14545
▁4.2	-14546
▁4.4	-14547
▁4.5	-14548
▁4.6	-14549
▁5.3	-14550
▁540	-14551
▁570	-14552
▁6.1	-14553
▁640	-14554
▁656	-14555
▁660	-14556
▁7.7	-14557
▁762	-14558
▁764	-14559
▁783	-14560
▁784	-14561
▁802	-14562
▁95،	-14563
▁ؤال	-14564
▁ؤوس	-14565
▁ائض	-14566
▁ادخ	-14567
▁اسا	-14568
▁اضل	-14569
▁امط	-14570
▁اوز	-14571
▁اوع	-14572
▁تعج	-14573
▁تغت	-14574
▁تقا	-14575
▁تمي	-14576
▁ثري	-14577
▁جدي	-14578
▁جزئ	-14579
▁حبه	-14580
▁حصت	-14581
▁حطم	-14582
▁حفص	-14583
▁حله	-14584
▁خرب	-14585
▁خرق	-14586
▁خصم	-14587
▁خضم	-14588
▁خيط	-14589
▁داد	-14590
▁دحر	-14591
▁دوي	-14592
▁ديب	-14593
▁ذوو	-14594
▁رار	-14595
▁رته	-14596
▁رجم	-14597
▁رسق	-14598
▁رسي	-14599
▁]	-14600
4.3	-14601
ابو	-14602
ارم	-14603
بته	-14604
ثيا	-14605
جري	-14606
ظره	-14607
فاؤ	-14608
فون	-14609
▁دج	-14610
▁ذر	-14611
▁ضا	-14612
▁هه	-14613
ادات	-14614
اسبا	-14615
اعفه	-14616
الاح	-14617
رايا	-14618
زاله	-14619
شتيه	-14620
قيقا	-14621
ورجه	-14622
▁تحي	-14623
▁تون	-14624
▁جما	-14625
▁جني	-14626
▁رمه	-14627
▁ريز	-14628
▁زنا	-14629
▁زها	-14630
▁زهد	-14631
▁شاد	-14632
▁شاش	-14633
▁شاف	-14634
▁شعي	-14635
▁شقي	-14636
▁شكك	-14637
▁صحح	-14638
▁صعب	-14639
▁صفر	-14640
▁صلو	-14641
▁صون	-14642
▁طاه	-14643
▁طته	-14644
▁طحن	-14645
▁طرا	-14646
▁طوي	-14647
▁طيب	-14648
▁ظيف	-14649
▁عبث	-14650
▁عتي	-14651
▁عرج	-14652
▁عله	-14653
▁عنق	-14654
▁عني	-14655
▁عون	-14656
▁غهم	-14657
▁غول	-14658
▁غيب	-14659
▁قحط	-14660
▁قرش	-14661
▁قرص	-14662
▁قرط	-14663
▁قرو	-14664
▁قضت	-14665
▁قعه	-14666
▁قفز	-14667
▁ماق	-14668
▁مته	-14669
▁مجن	-14670
▁محس	-14671
▁محق	-14672
▁مرغ	-14673
▁مري	-14674
▁معن	-14675
▁مفو	-14676
▁مقف	-14677
▁ملق	-14678
▁ممك	-14679
▁موش	-14680
▁نشب	-14681
▁نقح	-14682
▁هرث	-14683
▁هرم	-14684
▁هوف	-14685
▁هون	-14686
▁هيئ	-14687
▁يتد	-14688
▁يصح	-14689
▁يكا	-14690
▁ينق	-14691
▁ينو	-14692
▁يوا	-14693
▁يين	-14694
-1945	-14695
ائريه	-14696
ابسوغ	-14697
اتورك	-14698
اذريه	-14699
5.7	-14700
847	-14701
ؤوا	-14702
ابن	-14703
حور	-14704
خلي	-14705
دثه	-14706
رور	-14707
زير	-14708
صفه	-14709
قدي	-14710
قيح	-14711
كاب	-14712
ماح	-14713
نقي	-14714
ويش	-14715
▁(:	-14716
▁4.	-14717
▁ضف	-14718
▁نر	-14719
باوم	-14720
حدثه	-14721
وسعه	-14722
▁2.1	-14723
▁224	-14724
▁حته	-14725
▁حثت	-14726
▁خوا	-14727
▁شبر	-14728
▁ضفه	-14729
▁ضمه	-14730
▁عار	-14731
▁محظ	-14732
▁نحت	-14733
▁نطح	-14734
▁هيت	-14735
▁يند	-14736
▁ينز	-14737
ازلهم	-14738
القرن	-14739
اللات	-14740
اورها	-14741
بريكس	-14742
بيكال	-14743
بيوتك	-14744
ثقافه	-14745
جاوزا	-14746
جوقيه	-14747
جيريا	-14748
حاديث	-14749
داخله	-14750
ديكرب	-14751
ذاكره	-14752
زيقيا	-14753
سيليا	-14754
شيفيه	-14755
صليات	-14756
فيروز	-14757
قاميت	-14758
قراطي	-14759
قيقيا	-14760
كاملا	-14761
كرهار	-14762
كندري	-14763
لوفاك	-14764
مركزه	-14765
منطقه	-14766
منهجه	-14767
مينيا	-14768
ناشيل	-14769
نافسه	-14770
واجيه	-14771
وافده	-14772
وافقت	-14773
وديوم	-14774
وركاء	-14775
وستاف	-14776
وسيني	-14777
وفيجن	-14778
يداري	-14779
يلندا	-14780
يندوز	-14781
ينهاي	-14782
▁(100	-14783
▁(29.	-14784
▁(500	-14785
▁1.65	-14786
▁1.84	-14787
▁1382	-14788
▁14.5	-14789
▁1400	-14790
▁1638	-14791
▁1650	-14792
▁1785	-14793
▁1809	-14794
▁1841	-14795
▁1850	-14796
▁1866	-14797
▁1867	-14798
▁1888	-14799
7,	-14800
رره	-14801
شوه	-14802
ظار	-14803
▁صك	-14804
ابوا	-14805
العه	-14806
دهور	-14807
سترو	-14808
سكوي	-14809
غومه	-14810
فاعه	-14811
لكنه	-14812
▁(14	-14813
▁60.	-14814
▁داء	-14815
▁رتر	-14816
▁رلك	-14817
▁صيل	-14818
▁عدت	-14819
▁عدس	-14820
▁عره	-14821
▁ملع	-14822
رابطه	-14823
فهاني	-14824
لاندز	-14825
وفسكي	-14826
▁1795	-14827
▁1925	-14828
▁2025	-14829
▁3.98	-14830
▁30.5	-14831
▁6500	-14832
▁ائمه	-14833
▁ابدت	-14834
▁ابقت	-14835
▁ابقي	-14836
▁ابلا	-14837
▁ابيب	-14838
▁ابيض	-14839
▁اجيء	-14840
▁احرف	-14841
▁احلي	-14842
▁اخفض	-14843
▁اخند	-14844
▁ادار	-14845
▁اديب	-14846
▁اديم	-14847
▁اروع	-14848
▁اريك	-14849
▁اريه	-14850
▁ازرق	-14851
▁ازما	-14852
▁ازهي	-14853
▁استب	-14854
▁اسقف	-14855
▁اسهم	-14856
▁اسود	-14857
▁اشبه	-14858
▁اشهد	-14859
▁اضعف	-14860
▁اضفت	-14861
▁اضمح	-14862
▁اطبق	-14863
▁اعرا	-14864
▁اعضا	-14865
▁اعلا	-14866
▁افرا	-14867
▁افره	-14868
▁افضي	-14869
▁اكرم	-14870
▁اكسل	-14871
▁البص	-14872
▁التث	-14873
▁الثم	-14874
▁الجس	-14875
▁الخث	-14876
▁الخم	-14877
▁الخن	-14878
▁الرخ	-14879
▁الره	-14880
▁الصم	-14881
▁الصن	-14882
▁الطع	-14883
▁الغه	-14884
▁الفج	-14885
▁الكي	-14886
▁الوش	-14887
▁الوض	-14888
▁اليز	-14889
▁امرؤ	-14890
▁امره	-14891
▁اناث	-14892
▁اناس	-14893
▁اناك	-14894
▁انتع	-14895
▁انحس	-14896
▁اندي	-14897
▁انفق	-14898
▁اهدت	-14899
:40	-14900
سفر	-14901
سها	-14902
فاز	-14903
لمس	-14904
موح	-14905
▁نض	-14906
اتيا	-14907
ارضي	-14908
البا	-14909
امطه	-14910
باجه	-14911
تاحه	-14912
تبرا	-14913
رافا	-14914
عيين	-14915
لزال	-14916
وجيه	-14917
▁(41	-14918
▁اصف	-14919
▁تنف	-14920
▁حسم	-14921
▁دلم	-14922
▁ريو	-14923
▁زيو	-14924
▁غطي	-14925
▁غيت	-14926
▁قبا	-14927
▁قطي	-14928
▁مهر	-14929
▁يمه	-14930
اتيلا	-14931
طوريه	-14932
لافيه	-14933
▁1749	-14934
▁77.5	-14935
▁اصفا	-14936
▁اهمل	-14937
▁اوجه	-14938
▁اودت	-14939
▁اورو	-14940
▁اوصت	-14941
▁اوند	-14942
▁ايات	-14943
▁ايته	-14944
▁ايدن	-14945
▁ايسن	-14946
▁اينو	-14947
▁تؤكل	-14948
▁تاتن	-14949
▁تاكد	-14950
▁تايل	-14951
▁تبخر	-14952
▁تبذل	-14953
▁تبعه	-14954
▁تبنا	-14955
▁تجلت	-14956
▁تجلي	-14957
▁تحيه	-14958
▁تخطط	-14959
▁تربي	-14960
▁ترتب	-14961
▁ترسل	-14962
▁ترغب	-14963
▁ترمز	-14964
▁ترمي	-14965
▁تروج	-14966
▁تزلج	-14967
▁تزور	-14968
▁تصاد	-14969
▁تصدع	-14970
▁تصفح	-14971
▁تضام	-14972
▁تطلق	-14973
▁تعاط	-14974
▁تعلو	-14975
▁تغلق	-14976
▁تغيب	-14977
▁تفرض	-14978
▁تفرع	-14979
▁تفضل	-14980
▁تفكي	-14981
▁تفني	-14982
▁تقاس	-14983
▁تقضي	-14984
▁تلفظ	-14985
▁تماز	-14986
▁تمام	-14987
▁تمتع	-14988
▁تمكن	-14989
▁تمني	-14990
▁تنجح	-14991
▁تهدد	-14992
▁توضع	-14993
▁توطن	-14994
▁توغل	-14995
▁تولت	-14996
▁تيان	-14997
▁تيري	-14998
▁تيفن	-14999
ءه	-15000
1).	-15001
اعب	-15002
درد	-15003
طنه	-15004
كيت	-15005
نعت	-15006
هنه	-15007
ورف	-15008
وقل	-15009
روءه	-15010
كيده	-15011
لسله	-15012
▁19.	-15013
▁398	-15014
▁50،	-15015
▁اتر	-15016
▁اتص	-15017
▁اقس	-15018
▁ترد	-15019
▁تنق	-15020
▁جمل	-15021
▁حاص	-15022
▁حمر	-15023
▁خشي	-15024
▁خطف	-15025
▁خلل	-15026
▁صوف	-15027
▁غزي	-15028
▁نوز	-15029
▁هاي	-15030
3,000	-15031
اليوم	-15032
ديشيه	-15033
▁اتوا	-15034
▁اشمل	-15035
▁الزغ	-15036
▁تتما	-15037
▁تشيل	-15038
▁تنظر	-15039
▁تيمو	-15040
▁ثافت	-15041
▁ثامن	-15042
▁ثيفه	-15043
▁جاره	-15044
▁جبله	-15045
▁جدوا	-15046
▁جدوي	-15047
▁جذام	-15048
▁جزاء	-15049
▁جزيئ	-15050
▁جلسه	-15051
▁جلود	-15052
▁جليا	-15053
▁جهوه	-15054
▁جيود	-15055
▁حاتم	-15056
▁حاجت	-15057
▁حارب	-15058
▁حاضر	-15059
▁حامد	-15060
▁حامض	-15061
▁حانه	-15062
▁حاوي	-15063
▁حددت	-15064
▁حراك	-15065
▁حرصا	-15066
▁حزبه	-15067
▁حضرت	-15068
▁حظرا	-15069
▁حفرت	-15070
▁حفلا	-15071
▁خاطئ	-15072
▁خاله	-15073
▁خانق	-15074
▁خراب	-15075
▁خططا	-15076
▁خطير	-15077
▁خفضت	-15078
▁خلعه	-15079
▁خمسا	-15080
▁خيمه	-15081
▁خيوه	-15082
▁دارا	-15083
▁دافئ	-15084
▁دخلا	-15085
▁درست	-15086
▁درسه	-15087
▁درعا	-15088
▁دعاه	-15089
▁دلهي	-15090
▁دينا	-15091
▁ذراع	-15092
▁ذمار	-15093
▁ذهبي	-15094
▁ذهني	-15095
▁ذياب	-15096
▁رائد	-15097
▁راثي	-15098
▁راشد	-15099
تح	-15100
ظا	-15101
تحت	-15102
حيت	-15103
صفر	-15104
عاف	-15105
▁3)	-15106
▁99	-15107
▁جش	-15108
اردو	-15109
اسيا	-15110
افله	-15111
الدو	-15112
عالب	-15113
فالي	-15114
قاده	-15115
هدفه	-15116
ولته	-15117
يكوس	-15118
يكيا	-15119
▁288	-15120
▁636	-15121
▁اجد	-15122
▁داو	-15123
▁راج	-15124
▁غلب	-15125
▁ينش	-15126
تاريخ	-15127
▁1747	-15128
▁اباج	-15129
▁اردا	-15130
▁ارده	-15131
▁اورد	-15132
▁تزام	-15133
▁توصف	-15134
▁ثورت	-15135
▁خطرا	-15136
▁رافد	-15137
▁راكب	-15138
▁راوا	-15139
▁رايخ	-15140
▁ربحا	-15141
▁رتشن	-15142
▁رجوع	-15143
▁رزاي	-15144
▁رسمت	-15145
▁رصفت	-15146
▁رضوا	-15147
▁رطبا	-15148
▁رطبه	-15149
▁رفاه	-15150
▁رفور	-15151
▁رفيس	-15152
▁رقبه	-15153
▁رقمي	-15154
▁رقوق	-15155
▁رنده	-15156
▁روان	-15157
▁روجر	-15158
▁رومي	-15159
▁ريان	-15160
▁زائد	-15161
▁زخرف	-15162
▁زمره	-15163
▁زهاء	-15164
▁زينب	-15165
▁شاعت	-15166
▁شباك	-15167
▁شبعا	-15168
▁شبهه	-15169
▁شبيب	-15170
▁شجعت	-15171
▁شجير	-15172
▁شددت	-15173
▁شرعت	-15174
▁شرقه	-15175
▁شركت	-15176
▁شعره	-15177
▁شعور	-15178
▁شغلت	-15179
▁شقيه	-15180
▁شكري	-15181
▁شهاب	-15182
▁شورز	-15183
▁شوقي	-15184
▁شيخه	-15185
▁صادف	-15186
▁صبغت	-15187
▁صعدت	-15188
▁صهره	-15189
▁صوته	-15190
▁صيان	-15191
▁صيته	-15192
▁صيحا	-15193
▁ضعوا	-15194
▁ضياء	-15195
▁ضيعه	-15196
▁طارئ	-15197
▁طانه	-15198
▁طبعت	-15199
تيم	-15200
جرت	-15201
حيص	-15202
مشه	-15203
وزق	-15204
▁لل	-15205
اذيه	-15206
ازيه	-15207
اطره	-15208
بيهه	-15209
خلله	-15210
عيده	-15211
غاله	-15212
ندسي	-15213
يزيد	-15214
▁اهت	-15215
▁جوز	-15216
▁حوز	-15217
▁ديف	-15218
▁صقل	-15219
▁ظله	-15220
▁عظم	-15221
▁مبد	-15222
▁مدم	-15223
▁مكر	-15224
▁نزه	-15225
اريوه	-15226
اهديه	-15227
ونتين	-15228
▁ارفع	-15229
▁اقعي	-15230
▁اوكر	-15231
▁اوكس	-15232
▁جدلا	-15233
▁حسني	-15234
▁دربت	-15235
▁ديوا	-15236
▁رونت	-15237
▁شريا	-15238
▁صبحي	-15239
▁طبعه	-15240
▁طرفا	-15241
▁طرفي	-15242
▁طفره	-15243
▁طنها	-15244
▁طوعا	-15245
▁طوعي	-15246
▁طولا	-15247
▁طيرا	-15248
▁عاصر	-15249
▁عامر	-15250
▁عباد	-15251
▁عبده	-15252
▁عززت	-15253
▁عزمه	-15254
▁عصفت	-15255
▁عظمي	-15256
▁عقاب	-15257
▁عقدا	-15258
▁عقلي	-15259
▁علقت	-15260
▁عملا	-15261
▁عميل	-15262
▁عيان	-15263
▁عيوب	-15264
▁غالي	-15265
▁غانم	-15266
▁غاوس	-15267
▁غبار	-15268
▁غريب	-15269
▁غزوا	-15270
▁غلاف	-15271
▁غوتن	-15272
▁غوطه	-15273
▁قائع	-15274
▁قايه	-15275
▁قبره	-15276
▁قبضه	-15277
▁قدرا	-15278
▁قسرا	-15279
▁قسمه	-15280
▁قفزه	-15281
▁قلصت	-15282
▁قمته	-15283
▁قوره	-15284
▁مؤمن	-15285
▁ماذن	-15286
▁مازن	-15287
▁ماكل	-15288
▁مايق	-15289
▁مايك	-15290
▁ماين	-15291
▁متاح	-15292
▁متصل	-15293
▁متفق	-15294
▁متنا	-15295
▁محاس	-15296
▁محال	-15297
▁مختر	-15298
▁مختص	-15299
4).	-15300
ائم	-15301
جعه	-15302
عاض	-15303
عكس	-15304
وتا	-15305
وسك	-15306
▁ثا	-15307
ابهه	-15308
اريق	-15309
انوس	-15310
جوره	-15311
خاصه	-15312
صوره	-15313
فاكس	-15314
ونين	-15315
▁226	-15316
▁6.6	-15317
▁اخض	-15318
▁حوت	-15319
▁مهن	-15320
ائلهم	-15321
افوره	-15322
غاليه	-15323
نقعات	-15324
يائيا	-15325
▁اتبع	-15326
▁اشير	-15327
▁اضخم	-15328
▁اطاح	-15329
▁الزب	-15330
▁تتنا	-15331
▁تجبر	-15332
▁تصفي	-15333
▁تصلي	-15334
▁تنبع	-15335
▁جزير	-15336
▁جنده	-15337
▁جنوم	-15338
▁حدات	-15339
▁خاضت	-15340
▁روكل	-15341
▁طنيا	-15342
▁طوره	-15343
▁عيني	-15344
▁غزال	-15345
▁قومي	-15346
▁مؤثر	-15347
▁مدبب	-15348
▁مذيب	-15349
▁مريض	-15350
▁مصرع	-15351
▁مطرد	-15352
▁مطله	-15353
▁مظله	-15354
▁معاد	-15355
▁معاص	-15356
▁معبر	-15357
▁معلق	-15358
▁معمر	-15359
▁معيش	-15360
▁مفتي	-15361
▁مقاب	-15362
▁مقرن	-15363
▁مقفي	-15364
▁مقيم	-15365
▁مكسي	-15366
▁مكلف	-15367
▁ملاء	-15368
▁ملجا	-15369
▁ملحق	-15370
▁ملوث	-15371
▁مليو	-15372
▁ممكن	-15373
▁منتخ	-15374
▁منحه	-15375
▁منشا	-15376
▁منعه	-15377
▁منير	-15378
▁موحد	-15379
▁موزع	-15380
▁مولر	-15381
▁مونت	-15382
▁ميدي	-15383
▁ميلي	-15384
▁مينر	-15385
▁ناؤه	-15386
▁نابو	-15387
▁ناجح	-15388
▁ناظم	-15389
▁نبته	-15390
▁نحاس	-15391
▁نحله	-15392
▁نراه	-15393
▁نظار	-15394
▁نعمت	-15395
▁نفاي	-15396
▁نمطا	-15397
▁نهاي	-15398
▁نهما	-15399
اقم	-15400
بلا	-15401
طقي	-15402
ويح	-15403
يتم	-15404
اكله	-15405
تيري	-15406
جابه	-15407
زايا	-15408
شدده	-15409
نقطه	-15410
▁جزا	-15411
▁حلق	-15412
▁خلص	-15413
▁راك	-15414
▁صنم	-15415
▁قاس	-15416
▁يرس	-15417
▁يير	-15418
ليفيه	-15419
وريوس	-15420
ويفيه	-15421
▁اثره	-15422
▁انتي	-15423
▁اهان	-15424
▁تاكل	-15425
▁تقلص	-15426
▁توبي	-15427
▁جوري	-15428
▁حارس	-15429
▁ديفل	-15430
▁ضحيه	-15431
▁طاله	-15432
▁عبدو	-15433
▁غوان	-15434
▁متعل	-15435
▁نتين	-15436
▁نواس	-15437
▁نودي	-15438
▁نوعه	-15439
▁نوفو	-15440
▁نيان	-15441
▁نيبو	-15442
▁نيكت	-15443
▁هارب	-15444
▁هاكي	-15445
▁هاني	-15446
▁هبوب	-15447
▁هدوء	-15448
▁هرات	-15449
▁هرقل	-15450
▁هواه	-15451
▁هواي	-15452
▁هيبه	-15453
▁يئيه	-15454
▁ياقه	-15455
▁يانه	-15456
▁يبرس	-15457
▁يبني	-15458
▁يثير	-15459
▁يجلب	-15460
▁يحجز	-15461
▁يحده	-15462
▁يحرر	-15463
▁يحظر	-15464
▁يختص	-15465
▁يخزن	-15466
▁يخلق	-15467
▁يرسا	-15468
▁يرغن	-15469
▁يرقي	-15470
▁يرنر	-15471
▁يزخر	-15472
▁يسال	-15473
▁يسجد	-15474
▁يشرف	-15475
▁يشيد	-15476
▁يصاد	-15477
▁يصرخ	-15478
▁يصعد	-15479
▁يصلح	-15480
▁يصور	-15481
▁يضعه	-15482
▁يطور	-15483
▁يعفي	-15484
▁يغير	-15485
▁يفهم	-15486
▁يفيد	-15487
▁يفيض	-15488
▁يكمن	-15489
▁يناق	-15490
▁ينجح	-15491
▁ينصح	-15492
▁ينطق	-15493
▁ينفي	-15494
▁ينكر	-15495
▁ينيا	-15496
▁يهزم	-15497
▁يوجه	-15498
▁يوضع	-15499
اطا	-15500
ثرا	-15501
عدل	-15502
ازجه	-15503
ازيا	-15504
تتاب	-15505
رائع	-15506
صلاح	-15507
ضاءه	-15508
ظهره	-15509
ونيخ	-15510
▁127	-15511
▁182	-15512
▁حفز	-15513
▁راف	-15514
▁علت	-15515
▁قوس	-15516
▁هوم	-15517
اطفيه	-15518
راطيا	-15519
وميتر	-15520
▁(127	-15521
▁احضر	-15522
▁اقعا	-15523
▁الشف	-15524
▁اهظه	-15525
▁اوفر	-15526
▁تصعد	-15527
▁خطيه	-15528
▁دوال	-15529
▁ذريه	-15530
▁ركاب	-15531
▁صاغه	-15532
▁صيله	-15533
▁عريف	-15534
▁عسير	-15535
▁غطوا	-15536
▁قتلي	-15537
▁قتيل	-15538
▁قوته	-15539
▁قوطه	-15540
▁معجز	-15541
▁ملاح	-15542
▁ميول	-15543
▁نازي	-15544
▁نافع	-15545
▁نماء	-15546
▁يوظف	-15547
70,000	-15548
ابابنت	-15549
النسخه	-15550
امنهوف	-15551
باليون	-15552
تانامو	-15553
تراسيه	-15554
تراضيه	-15555
تمبيرغ	-15556
راكزاي	-15557
ستدامر	-15558
كانيكي	-15559
كتاتور	-15560
نوفمبر	-15561
ينغراد	-15562
▁(1939	-15563
▁(1950	-15564
▁(1977	-15565
▁(1987	-15566
▁(1992	-15567
▁(2007	-15568
▁(2013	-15569
▁1,000	-15570
▁1,500	-15571
▁1,800	-15572
▁1.000	-15573
▁1535،	-15574
▁18000	-15575
▁1916.	-15576
▁1919.	-15577
▁1925.	-15578
▁1926،	-15579
▁1929،	-15580
▁1932.	-15581
▁1934،	-15582
▁1938،	-15583
▁1939،	-15584
▁1946.	-15585
▁1950،	-15586
▁1952.	-15587
▁1952،	-15588
▁1964.	-15589
▁1967.	-15590
▁1971.	-15591
▁1972.	-15592
▁1973.	-15593
▁1973،	-15594
▁1975.	-15595
▁1976.	-15596
▁1977،	-15597
▁1981،	-15598
▁1982.	-15599
▁1983،	-15600
▁1987.	-15601
▁1995.	-15602
▁2,000	-15603
▁2004)	-15604
▁2008)	-15605
▁2018.	-15606
▁8800،	-15607
▁ابلاغ	-15608
▁ابلغت	-15609
▁ابنائ	-15610
▁اتاحت	-15611
▁اتاوه	-15612
▁اتخذه	-15613
▁اتراك	-15614
▁اتيني	-15615
▁اثارا	-15616
▁اثراء	-15617
▁اجابه	-15618
▁اجتاح	-15619
▁اجداد	-15620
▁اجواء	-15621
▁احتاج	-15622
▁احتدم	-15623
▁احتوي	-15624
▁احضار	-15625
▁احلال	-15626
▁احلام	-15627
▁اختفت	-15628
▁اختلط	-15629
▁اختير	-15630
▁اخرجت	-15631
▁ادارت	-15632
▁ادامس	-15633
▁ادانت	-15634
▁ادناه	-15635
▁اذابه	-15636
▁اذاعي	-15637
▁اذهان	-15638
▁اذينه	-15639
▁ارائه	-15640
▁ارادت	-15641
▁ارتدت	-15642
▁ارساء	-15643
▁ارشيف	-15644
▁ازاحه	-15645
▁استغل	-15646
▁استمع	-15647
▁اسرها	-15648
▁اسعاف	-15649
▁اسلاف	-15650
▁اسمته	-15651
▁اسميا	-15652
▁اسهمت	-15653
▁اسيرا	-15654
▁اشباه	-15655
▁اشتبك	-15656
▁اشتكي	-15657
▁اشراك	-15658
▁اشقاء	-15659
▁اصاله	-15660
▁اصطحب	-15661
▁اضراب	-15662
▁اضيفت	-15663
▁اطاحه	-15664
▁اطلقه	-15665
▁اعتزل	-15666
▁اعتكف	-15667
▁اعداء	-15668
▁اعراب	-15669
▁اغناء	-15670
▁اغنيت	-15671
▁اقدمت	-15672
▁اقراص	-15673
▁اقساط	-15674
▁اقوال	-15675
▁اقيال	-15676
▁اكمله	-15677
▁الابه	-15678
▁الاجل	-15679
▁الارج	-15680
▁الامس	-15681
▁الانع	-15682
▁الاوت	-15683
▁الاوغ	-15684
▁الايق	-15685
▁البطي	-15686
▁البقر	-15687
▁البوت	-15688
▁البيئ	-15689
▁التاك	-15690
▁التحف	-15691
▁التوف	-15692
▁الثقل	-15693
▁الجاز	-15694
▁الجرع	-15695
▁الجلد	-15696
▁الجلس	-15697
▁الجهل	-15698
▁الجوز	-15699
▁الجيب	-15700
▁الجير	-15701
▁الجيم	-15702
▁الحاد	-15703
▁الحزم	-15704
▁الحصص	-15705
▁الحفظ	-15706
▁الحوت	-15707
▁الخال	-15708
▁الخصب	-15709
▁الخلف	-15710
▁الخور	-15711
▁الذان	-15712
▁الرحي	-15713
▁الرقي	-15714
▁الريم	-15715
▁الزاب	-15716
▁الزنك	-15717
▁الساج	-15718
▁السعر	-15719
▁السعه	-15720
▁السكو	-15721
▁السيل	-15722
▁الشبه	-15723
▁الشجر	-15724
▁الشرط	-15725
▁الشرو	-15726
▁الشطر	-15727
▁الصحن	-15728
▁الصعد	-15729
▁الضان	-15730
▁الضرر	-15731
▁الطمي	-15732
▁الطور	-15733
▁العدا	-15734
▁العسل	-15735
▁العضل	-15736
▁العلق	-15737
▁العلي	-15738
▁العود	-15739
▁العول	-15740
▁الغاف	-15741
▁الغسل	-15742
▁الغني	-15743
▁الغوص	-15744
▁الفاس	-15745
▁الفور	-15746
▁الفيت	-15747
▁القاع	-15748
▁القفز	-15749
[...]
